{
  "version": "1.0",
  "truncation": null,
  "padding": null,
  "added_tokens": [
    {
      "id": 0,
      "content": "[PAD]",
      "single_word": false,
      "lstrip": false,
      "rstrip": false,
      "normalized": false,
      "special": true
    },
    {
      "id": 1,
      "content": "[UNK]",
      "single_word": false,
      "lstrip": false,
      "rstrip": false,
      "normalized": false,
      "special": true
    },
    {
      "id": 2,
      "content": "[CLS]",
      "single_word": false,
      "lstrip": false,
      "rstrip": false,
      "normalized": false,
      "special": true
    },
    {
      "id": 3,
      "content": "[SEP]",
      "single_word": false,
      "lstrip": false,
      "rstrip": false,
      "normalized": false,
      "special": true
    },
    {
      "id": 4,
      "content": "[MASK]",
      "single_word": false,
      "lstrip": false,
      "rstrip": false,
      "normalized": false,
      "special": true
    }
  ],
  "normalizer": {
    "type": "NFD"
  },
  "pre_tokenizer": {
    "type": "Whitespace"
  },
  "post_processor": null,
  "decoder": null,
  "model": {
    "type": "BPE",
    "dropout": null,
    "unk_token": null,
    "continuing_subword_prefix": null,
    "end_of_word_suffix": null,
    "fuse_unk": false,
    "byte_fallback": false,
    "ignore_merges": false,
    "vocab": {
      "[PAD]": 0,
      "[UNK]": 1,
      "[CLS]": 2,
      "[SEP]": 3,
      "[MASK]": 4,
      "!": 5,
      "\"": 6,
      "#": 7,
      "$": 8,
      "%": 9,
      "&": 10,
      "'": 11,
      "(": 12,
      ")": 13,
      "*": 14,
      "+": 15,
      ",": 16,
      "-": 17,
      ".": 18,
      "/": 19,
      "0": 20,
      "1": 21,
      "2": 22,
      "3": 23,
      "4": 24,
      "5": 25,
      "6": 26,
      "7": 27,
      "8": 28,
      "9": 29,
      ":": 30,
      ";": 31,
      "<": 32,
      "=": 33,
      ">": 34,
      "?": 35,
      "@": 36,
      "A": 37,
      "B": 38,
      "C": 39,
      "D": 40,
      "E": 41,
      "F": 42,
      "G": 43,
      "H": 44,
      "I": 45,
      "J": 46,
      "K": 47,
      "L": 48,
      "M": 49,
      "N": 50,
      "O": 51,
      "P": 52,
      "Q": 53,
      "R": 54,
      "S": 55,
      "T": 56,
      "U": 57,
      "V": 58,
      "W": 59,
      "X": 60,
      "Y": 61,
      "Z": 62,
      "[": 63,
      "\\": 64,
      "]": 65,
      "^": 66,
      "_": 67,
      "`": 68,
      "a": 69,
      "b": 70,
      "c": 71,
      "d": 72,
      "e": 73,
      "f": 74,
      "g": 75,
      "h": 76,
      "i": 77,
      "j": 78,
      "k": 79,
      "l": 80,
      "m": 81,
      "n": 82,
      "o": 83,
      "p": 84,
      "q": 85,
      "r": 86,
      "s": 87,
      "t": 88,
      "u": 89,
      "v": 90,
      "w": 91,
      "x": 92,
      "y": 93,
      "z": 94,
      "{": 95,
      "|": 96,
      "}": 97,
      "~": 98,
      "": 99,
      "": 100,
      "": 101,
      "": 102,
      "": 103,
      "": 104,
      "": 105,
      "": 106,
      "": 107,
      "": 108,
      "": 109,
      "": 110,
      "": 111,
      "": 112,
      "": 113,
      "": 114,
      "": 115,
      "": 116,
      "": 117,
      "": 118,
      "": 119,
      "": 120,
      "": 121,
      "": 122,
      "": 123,
      "": 124,
      "": 125,
      "": 126,
      "": 127,
      "": 128,
      "": 129,
      "": 130,
      "¡": 131,
      "¢": 132,
      "£": 133,
      "¤": 134,
      "¥": 135,
      "¦": 136,
      "§": 137,
      "¨": 138,
      "©": 139,
      "ª": 140,
      "«": 141,
      "¬": 142,
      "­": 143,
      "®": 144,
      "¯": 145,
      "°": 146,
      "±": 147,
      "²": 148,
      "³": 149,
      "´": 150,
      "µ": 151,
      "¶": 152,
      "·": 153,
      "¸": 154,
      "¹": 155,
      "º": 156,
      "»": 157,
      "¼": 158,
      "½": 159,
      "¾": 160,
      "¿": 161,
      "Æ": 162,
      "Ð": 163,
      "×": 164,
      "Ø": 165,
      "Þ": 166,
      "ß": 167,
      "æ": 168,
      "ð": 169,
      "÷": 170,
      "ø": 171,
      "þ": 172,
      "Đ": 173,
      "đ": 174,
      "Ħ": 175,
      "ħ": 176,
      "ı": 177,
      "Ĳ": 178,
      "ĳ": 179,
      "Ŀ": 180,
      "ŀ": 181,
      "Ł": 182,
      "ł": 183,
      "ŋ": 184,
      "Œ": 185,
      "œ": 186,
      "Ŧ": 187,
      "ſ": 188,
      "ƃ": 189,
      "Ǝ": 190,
      "ƒ": 191,
      "ƙ": 192,
      "Ɵ": 193,
      "Ʀ": 194,
      "Ʃ": 195,
      "Ʒ": 196,
      "Ƹ": 197,
      "ǂ": 198,
      "ǃ": 199,
      "ǝ": 200,
      "Ʌ": 201,
      "ɐ": 202,
      "ɑ": 203,
      "ɒ": 204,
      "ɔ": 205,
      "ɗ": 206,
      "ə": 207,
      "ɛ": 208,
      "ɜ": 209,
      "ɡ": 210,
      "ɥ": 211,
      "ɨ": 212,
      "ɪ": 213,
      "ɴ": 214,
      "ɹ": 215,
      "ɾ": 216,
      "ʀ": 217,
      "ʁ": 218,
      "ʃ": 219,
      "ʇ": 220,
      "ʊ": 221,
      "ʌ": 222,
      "ʎ": 223,
      "ʒ": 224,
      "ʔ": 225,
      "ʕ": 226,
      "ʜ": 227,
      "ʟ": 228,
      "ʲ": 229,
      "ʳ": 230,
      "ʷ": 231,
      "ʸ": 232,
      "ʹ": 233,
      "ʺ": 234,
      "ʻ": 235,
      "ʼ": 236,
      "ʽ": 237,
      "ʾ": 238,
      "ʿ": 239,
      "˂": 240,
      "ˆ": 241,
      "ˇ": 242,
      "ˈ": 243,
      "ˉ": 244,
      "ˌ": 245,
      "ː": 246,
      "˘": 247,
      "˙": 248,
      "˚": 249,
      "˛": 250,
      "˜": 251,
      "˝": 252,
      "ˠ": 253,
      "̀": 254,
      "́": 255,
      "̂": 256,
      "̃": 257,
      "̄": 258,
      "̅": 259,
      "̆": 260,
      "̇": 261,
      "̈": 262,
      "̉": 263,
      "̊": 264,
      "̋": 265,
      "̌": 266,
      "̓": 267,
      "̔": 268,
      "̛": 269,
      "̡": 270,
      "̣": 271,
      "̦": 272,
      "̧": 273,
      "̨": 274,
      "̩": 275,
      "̪": 276,
      "̮": 277,
      "̯": 278,
      "̱": 279,
      "̴": 280,
      "̵": 281,
      "̶": 282,
      "̸": 283,
      "͂": 284,
      "ͅ": 285,
      "͒": 286,
      "͕": 287,
      "͞": 288,
      "͟": 289,
      "͡": 290,
      "΄": 291,
      "Α": 292,
      "Β": 293,
      "Γ": 294,
      "Δ": 295,
      "Ε": 296,
      "Ζ": 297,
      "Η": 298,
      "Θ": 299,
      "Ι": 300,
      "Κ": 301,
      "Λ": 302,
      "Μ": 303,
      "Ν": 304,
      "Ξ": 305,
      "Ο": 306,
      "Π": 307,
      "Ρ": 308,
      "Σ": 309,
      "Τ": 310,
      "Υ": 311,
      "Φ": 312,
      "Χ": 313,
      "Ψ": 314,
      "Ω": 315,
      "α": 316,
      "β": 317,
      "γ": 318,
      "δ": 319,
      "ε": 320,
      "ζ": 321,
      "η": 322,
      "θ": 323,
      "ι": 324,
      "κ": 325,
      "λ": 326,
      "μ": 327,
      "ν": 328,
      "ξ": 329,
      "ο": 330,
      "π": 331,
      "ρ": 332,
      "ς": 333,
      "σ": 334,
      "τ": 335,
      "υ": 336,
      "φ": 337,
      "χ": 338,
      "ψ": 339,
      "ω": 340,
      "ϒ": 341,
      "ϙ": 342,
      "Ϝ": 343,
      "Ϟ": 344,
      "ϟ": 345,
      "Ђ": 346,
      "Є": 347,
      "І": 348,
      "Ј": 349,
      "Љ": 350,
      "Њ": 351,
      "Ћ": 352,
      "А": 353,
      "Б": 354,
      "В": 355,
      "Г": 356,
      "Д": 357,
      "Е": 358,
      "Ж": 359,
      "З": 360,
      "И": 361,
      "К": 362,
      "Л": 363,
      "М": 364,
      "Н": 365,
      "О": 366,
      "П": 367,
      "Р": 368,
      "С": 369,
      "Т": 370,
      "У": 371,
      "Ф": 372,
      "Х": 373,
      "Ц": 374,
      "Ч": 375,
      "Ш": 376,
      "Щ": 377,
      "Ъ": 378,
      "Ы": 379,
      "Ь": 380,
      "Э": 381,
      "Ю": 382,
      "Я": 383,
      "а": 384,
      "б": 385,
      "в": 386,
      "г": 387,
      "д": 388,
      "е": 389,
      "ж": 390,
      "з": 391,
      "и": 392,
      "к": 393,
      "л": 394,
      "м": 395,
      "н": 396,
      "о": 397,
      "п": 398,
      "р": 399,
      "с": 400,
      "т": 401,
      "у": 402,
      "ф": 403,
      "х": 404,
      "ц": 405,
      "ч": 406,
      "ш": 407,
      "щ": 408,
      "ъ": 409,
      "ы": 410,
      "ь": 411,
      "э": 412,
      "ю": 413,
      "я": 414,
      "ђ": 415,
      "є": 416,
      "ѕ": 417,
      "і": 418,
      "ј": 419,
      "љ": 420,
      "њ": 421,
      "ћ": 422,
      "џ": 423,
      "ѣ": 424,
      "ѵ": 425,
      "ґ": 426,
      "қ": 427,
      "Ҟ": 428,
      "Ҫ": 429,
      "ҫ": 430,
      "ҳ": 431,
      "ҽ": 432,
      "Ԑ": 433,
      "ԛ": 434,
      "֔": 435,
      "֗": 436,
      "֙": 437,
      "֣": 438,
      "֤": 439,
      "֫": 440,
      "ְ": 441,
      "ֱ": 442,
      "ֲ": 443,
      "ִ": 444,
      "ֵ": 445,
      "ֶ": 446,
      "ַ": 447,
      "ָ": 448,
      "ֹ": 449,
      "ּ": 450,
      "ֽ": 451,
      "ֿ": 452,
      "׀": 453,
      "ׁ": 454,
      "ׂ": 455,
      "׃": 456,
      "א": 457,
      "ב": 458,
      "ג": 459,
      "ד": 460,
      "ה": 461,
      "ו": 462,
      "ז": 463,
      "ח": 464,
      "ט": 465,
      "י": 466,
      "ך": 467,
      "כ": 468,
      "ל": 469,
      "ם": 470,
      "מ": 471,
      "ן": 472,
      "נ": 473,
      "ס": 474,
      "ע": 475,
      "ף": 476,
      "פ": 477,
      "ץ": 478,
      "צ": 479,
      "ק": 480,
      "ר": 481,
      "ש": 482,
      "ת": 483,
      "׳": 484,
      "״": 485,
      "،": 486,
      "؛": 487,
      "؟": 488,
      "ء": 489,
      "ا": 490,
      "ب": 491,
      "ة": 492,
      "ت": 493,
      "ث": 494,
      "ج": 495,
      "ح": 496,
      "خ": 497,
      "د": 498,
      "ذ": 499,
      "ر": 500,
      "ز": 501,
      "س": 502,
      "ش": 503,
      "ص": 504,
      "ض": 505,
      "ط": 506,
      "ظ": 507,
      "ع": 508,
      "غ": 509,
      "ـ": 510,
      "ف": 511,
      "ق": 512,
      "ك": 513,
      "ل": 514,
      "م": 515,
      "ن": 516,
      "ه": 517,
      "و": 518,
      "ى": 519,
      "ي": 520,
      "ً": 521,
      "ٌ": 522,
      "ٍ": 523,
      "َ": 524,
      "ُ": 525,
      "ِ": 526,
      "ّ": 527,
      "ْ": 528,
      "ٓ": 529,
      "ٔ": 530,
      "ٕ": 531,
      "٠": 532,
      "١": 533,
      "٢": 534,
      "٣": 535,
      "٤": 536,
      "٦": 537,
      "٩": 538,
      "٪": 539,
      "٬": 540,
      "٭": 541,
      "پ": 542,
      "چ": 543,
      "ژ": 544,
      "ک": 545,
      "گ": 546,
      "ڰ": 547,
      "ں": 548,
      "ھ": 549,
      "ڿ": 550,
      "ہ": 551,
      "ی": 552,
      "ے": 553,
      "ۚ": 554,
      "۝": 555,
      "۞": 556,
      "۟": 557,
      "ۡ": 558,
      "ۣ": 559,
      "۩": 560,
      "۲": 561,
      "۴": 562,
      "۶": 563,
      "ܗ": 564,
      "ܘ": 565,
      "ܢ": 566,
      "ܣ": 567,
      "ܬ": 568,
      "ߋ": 569,
      "ߕ": 570,
      "ߛ": 571,
      "ߠ": 572,
      "ं": 573,
      "ः": 574,
      "अ": 575,
      "आ": 576,
      "इ": 577,
      "उ": 578,
      "ऊ": 579,
      "ए": 580,
      "औ": 581,
      "क": 582,
      "ख": 583,
      "ग": 584,
      "च": 585,
      "ज": 586,
      "ट": 587,
      "ठ": 588,
      "ड": 589,
      "ण": 590,
      "त": 591,
      "थ": 592,
      "द": 593,
      "ध": 594,
      "न": 595,
      "प": 596,
      "फ": 597,
      "ब": 598,
      "भ": 599,
      "म": 600,
      "य": 601,
      "र": 602,
      "ल": 603,
      "व": 604,
      "श": 605,
      "ष": 606,
      "स": 607,
      "ह": 608,
      "़": 609,
      "ा": 610,
      "ि": 611,
      "ी": 612,
      "ु": 613,
      "ू": 614,
      "े": 615,
      "ै": 616,
      "ॉ": 617,
      "ो": 618,
      "्": 619,
      "ॐ": 620,
      "।": 621,
      "ঁ": 622,
      "ও": 623,
      "ক": 624,
      "গ": 625,
      "ছ": 626,
      "ট": 627,
      "ড": 628,
      "ত": 629,
      "ধ": 630,
      "ন": 631,
      "প": 632,
      "ব": 633,
      "ম": 634,
      "য": 635,
      "র": 636,
      "ল": 637,
      "শ": 638,
      "়": 639,
      "া": 640,
      "ি": 641,
      "ু": 642,
      "ূ": 643,
      "ে": 644,
      "ૐ": 645,
      "அ": 646,
      "ஆ": 647,
      "இ": 648,
      "உ": 649,
      "எ": 650,
      "ஐ": 651,
      "ஒ": 652,
      "க": 653,
      "ங": 654,
      "ச": 655,
      "ஜ": 656,
      "ட": 657,
      "ண": 658,
      "த": 659,
      "ந": 660,
      "ன": 661,
      "ப": 662,
      "ம": 663,
      "ய": 664,
      "ர": 665,
      "ற": 666,
      "ல": 667,
      "ள": 668,
      "ழ": 669,
      "வ": 670,
      "ஷ": 671,
      "ஸ": 672,
      "ஹ": 673,
      "ா": 674,
      "ி": 675,
      "ீ": 676,
      "ு": 677,
      "ூ": 678,
      "ெ": 679,
      "ே": 680,
      "ை": 681,
      "்": 682,
      "ಂ": 683,
      "ಎ": 684,
      "ಕ": 685,
      "ಗ": 686,
      "ಚ": 687,
      "ಜ": 688,
      "ಠ": 689,
      "ಡ": 690,
      "ಣ": 691,
      "ತ": 692,
      "ದ": 693,
      "ನ": 694,
      "ಮ": 695,
      "ಯ": 696,
      "ರ": 697,
      "ಲ": 698,
      "ಳ": 699,
      "ವ": 700,
      "ಾ": 701,
      "ಿ": 702,
      "ು": 703,
      "ೂ": 704,
      "ೃ": 705,
      "ೆ": 706,
      "್": 707,
      "മ": 708,
      "യ": 709,
      "ല": 710,
      "ള": 711,
      "സ": 712,
      "ാ": 713,
      "ീ": 714,
      "്": 715,
      "ก": 716,
      "ข": 717,
      "ค": 718,
      "ง": 719,
      "จ": 720,
      "ช": 721,
      "ญ": 722,
      "ฐ": 723,
      "ต": 724,
      "ท": 725,
      "น": 726,
      "บ": 727,
      "ป": 728,
      "ฝ": 729,
      "พ": 730,
      "ภ": 731,
      "ม": 732,
      "ย": 733,
      "ร": 734,
      "ล": 735,
      "ว": 736,
      "ศ": 737,
      "ษ": 738,
      "ห": 739,
      "อ": 740,
      "ั": 741,
      "า": 742,
      "ำ": 743,
      "ิ": 744,
      "ี": 745,
      "ื": 746,
      "ุ": 747,
      "฿": 748,
      "เ": 749,
      "โ": 750,
      "ไ": 751,
      "่": 752,
      "้": 753,
      "๏": 754,
      "๑": 755,
      "ຶ": 756,
      "༎": 757,
      "༒": 758,
      "༼": 759,
      "༽": 760,
      "ღ": 761,
      "ᄀ": 762,
      "ᄁ": 763,
      "ᄂ": 764,
      "ᄃ": 765,
      "ᄄ": 766,
      "ᄅ": 767,
      "ᄆ": 768,
      "ᄇ": 769,
      "ᄉ": 770,
      "ᄊ": 771,
      "ᄋ": 772,
      "ᄌ": 773,
      "ᄍ": 774,
      "ᄎ": 775,
      "ᄏ": 776,
      "ᄐ": 777,
      "ᄑ": 778,
      "ᄒ": 779,
      "ᅡ": 780,
      "ᅢ": 781,
      "ᅣ": 782,
      "ᅥ": 783,
      "ᅦ": 784,
      "ᅧ": 785,
      "ᅨ": 786,
      "ᅩ": 787,
      "ᅪ": 788,
      "ᅬ": 789,
      "ᅭ": 790,
      "ᅮ": 791,
      "ᅯ": 792,
      "ᅱ": 793,
      "ᅲ": 794,
      "ᅳ": 795,
      "ᅴ": 796,
      "ᅵ": 797,
      "ᆨ": 798,
      "ᆫ": 799,
      "ᆭ": 800,
      "ᆮ": 801,
      "ᆯ": 802,
      "ᆲ": 803,
      "ᆶ": 804,
      "ᆷ": 805,
      "ᆸ": 806,
      "ᆹ": 807,
      "ᆺ": 808,
      "ᆻ": 809,
      "ᆼ": 810,
      "ᆽ": 811,
      "ᆾ": 812,
      "ᇀ": 813,
      "ᇁ": 814,
      "ᇂ": 815,
      "ለ": 816,
      "ል": 817,
      "ሎ": 818,
      "ም": 819,
      "ሞ": 820,
      "ራ": 821,
      "ስ": 822,
      "ተ": 823,
      "ታ": 824,
      "ት": 825,
      "ኣ": 826,
      "ክ": 827,
      "ኸ": 828,
      "ወ": 829,
      "ዓ": 830,
      "የ": 831,
      "ያ": 832,
      "ይ": 833,
      "ደ": 834,
      "፥": 835,
      "Ꭰ": 836,
      "Ꭵ": 837,
      "Ꭶ": 838,
      "Ꭿ": 839,
      "Ꮇ": 840,
      "Ꮋ": 841,
      "Ꮍ": 842,
      "Ꮑ": 843,
      "Ꮖ": 844,
      "Ꮤ": 845,
      "Ꮥ": 846,
      "Ꮪ": 847,
      "Ꮮ": 848,
      "Ꮶ": 849,
      "Ꮻ": 850,
      "Ᏸ": 851,
      "ᑎ": 852,
      "ᑕ": 853,
      "ᑭ": 854,
      "ᒪ": 855,
      "ᔕ": 856,
      "ᕮ": 857,
      "ᕼ": 858,
      "ᖇ": 859,
      "ᖴ": 860,
      "ᗩ": 861,
      "ᗪ": 862,
      "ᗴ": 863,
      "ᗷ": 864,
      "᛫": 865,
      "ក": 866,
      "ខ": 867,
      "គ": 868,
      "ង": 869,
      "ច": 870,
      "ឆ": 871,
      "ឌ": 872,
      "ត": 873,
      "ធ": 874,
      "ន": 875,
      "ប": 876,
      "ផ": 877,
      "ព": 878,
      "ភ": 879,
      "ម": 880,
      "យ": 881,
      "រ": 882,
      "ល": 883,
      "វ": 884,
      "ស": 885,
      "អ": 886,
      "ា": 887,
      "ិ": 888,
      "ី": 889,
      "ុ": 890,
      "ួ": 891,
      "េ": 892,
      "ែ": 893,
      "ោ": 894,
      "ំ": 895,
      "ៈ": 896,
      "៉": 897,
      "់": 898,
      "្": 899,
      "ᴀ": 900,
      "ᴄ": 901,
      "ᴅ": 902,
      "ᴇ": 903,
      "ᴊ": 904,
      "ᴋ": 905,
      "ᴍ": 906,
      "ᴏ": 907,
      "ᴗ": 908,
      "ᴘ": 909,
      "ᴛ": 910,
      "ᴜ": 911,
      "ᴠ": 912,
      "ᴡ": 913,
      "ᴬ": 914,
      "ᴮ": 915,
      "ᴰ": 916,
      "ᴱ": 917,
      "ᴴ": 918,
      "ᴸ": 919,
      "ᴹ": 920,
      "ᴺ": 921,
      "ᵀ": 922,
      "ᵁ": 923,
      "ᵃ": 924,
      "ᵈ": 925,
      "ᵉ": 926,
      "ᵏ": 927,
      "ᵒ": 928,
      "ᵛ": 929,
      "ᶜ": 930,
      "ᶠ": 931,
      "ᶦ": 932,
      "἗": 933,
      "᾽": 934,
      "᾿": 935,
      "​": 936,
      "‌": 937,
      "‍": 938,
      "‎": 939,
      "‏": 940,
      "‐": 941,
      "‑": 942,
      "‒": 943,
      "–": 944,
      "—": 945,
      "―": 946,
      "‖": 947,
      "‘": 948,
      "’": 949,
      "‚": 950,
      "‛": 951,
      "“": 952,
      "”": 953,
      "„": 954,
      "‟": 955,
      "†": 956,
      "‡": 957,
      "•": 958,
      "‣": 959,
      "․": 960,
      "…": 961,
      "‧": 962,
      "‪": 963,
      "‫": 964,
      "‬": 965,
      "‭": 966,
      "‮": 967,
      "‰": 968,
      "′": 969,
      "″": 970,
      "‹": 971,
      "›": 972,
      "※": 973,
      "‼": 974,
      "⁃": 975,
      "⁄": 976,
      "⁈": 977,
      "⁉": 978,
      "⁧": 979,
      "⁩": 980,
      "⁰": 981,
      "⁴": 982,
      "⁵": 983,
      "⁶": 984,
      "⁷": 985,
      "⁻": 986,
      "ⁿ": 987,
      "₁": 988,
      "₂": 989,
      "₃": 990,
      "₡": 991,
      "₣": 992,
      "₤": 993,
      "₩": 994,
      "₪": 995,
      "€": 996,
      "₮": 997,
      "₰": 998,
      "₹": 999,
      "⃒": 1000,
      "⃘": 1001,
      "⃝": 1002,
      "⃣": 1003,
      "℃": 1004,
      "℅": 1005,
      "℉": 1006,
      "ℏ": 1007,
      "ℐ": 1008,
      "ℓ": 1009,
      "№": 1010,
      "ℙ": 1011,
      "ℛ": 1012,
      "℠": 1013,
      "™": 1014,
      "⅃": 1015,
      "⅓": 1016,
      "⅔": 1017,
      "⅗": 1018,
      "⅙": 1019,
      "⅛": 1020,
      "⅜": 1021,
      "⅝": 1022,
      "⅞": 1023,
      "ⅵ": 1024,
      "←": 1025,
      "↑": 1026,
      "→": 1027,
      "↓": 1028,
      "↠": 1029,
      "↩": 1030,
      "⇋": 1031,
      "⇒": 1032,
      "⇓": 1033,
      "⇨": 1034,
      "∀": 1035,
      "∂": 1036,
      "∃": 1037,
      "∅": 1038,
      "∆": 1039,
      "∇": 1040,
      "∈": 1041,
      "∏": 1042,
      "∑": 1043,
      "−": 1044,
      "∗": 1045,
      "∙": 1046,
      "√": 1047,
      "∝": 1048,
      "∞": 1049,
      "∧": 1050,
      "∨": 1051,
      "∩": 1052,
      "∪": 1053,
      "∫": 1054,
      "∴": 1055,
      "∶": 1056,
      "∼": 1057,
      "∾": 1058,
      "≅": 1059,
      "≈": 1060,
      "≡": 1061,
      "≤": 1062,
      "≥": 1063,
      "≫": 1064,
      "⊂": 1065,
      "⊕": 1066,
      "⊗": 1067,
      "⊙": 1068,
      "⊿": 1069,
      "⋅": 1070,
      "⋆": 1071,
      "⋮": 1072,
      "⌐": 1073,
      "⌘": 1074,
      "⌚": 1075,
      "⌛": 1076,
      "⌣": 1077,
      "⍕": 1078,
      "⎙": 1079,
      "⎯": 1080,
      "⎼": 1081,
      "⏰": 1082,
      "Ⓐ": 1083,
      "Ⓒ": 1084,
      "Ⓔ": 1085,
      "Ⓘ": 1086,
      "Ⓙ": 1087,
      "Ⓛ": 1088,
      "Ⓜ": 1089,
      "Ⓝ": 1090,
      "Ⓞ": 1091,
      "Ⓡ": 1092,
      "Ⓣ": 1093,
      "Ⓥ": 1094,
      "ⓐ": 1095,
      "ⓑ": 1096,
      "ⓔ": 1097,
      "ⓖ": 1098,
      "ⓘ": 1099,
      "ⓙ": 1100,
      "ⓚ": 1101,
      "ⓝ": 1102,
      "ⓞ": 1103,
      "ⓟ": 1104,
      "ⓣ": 1105,
      "ⓥ": 1106,
      "⓿": 1107,
      "─": 1108,
      "━": 1109,
      "│": 1110,
      "┃": 1111,
      "┌": 1112,
      "┏": 1113,
      "┐": 1114,
      "┓": 1115,
      "┗": 1116,
      "┛": 1117,
      "├": 1118,
      "┤": 1119,
      "┳": 1120,
      "┻": 1121,
      "═": 1122,
      "║": 1123,
      "╔": 1124,
      "╗": 1125,
      "╚": 1126,
      "╝": 1127,
      "╬": 1128,
      "╭": 1129,
      "╮": 1130,
      "╯": 1131,
      "╰": 1132,
      "▀": 1133,
      "▂": 1134,
      "█": 1135,
      "▓": 1136,
      "■": 1137,
      "□": 1138,
      "▪": 1139,
      "▫": 1140,
      "▬": 1141,
      "▲": 1142,
      "△": 1143,
      "▶": 1144,
      "▸": 1145,
      "►": 1146,
      "▼": 1147,
      "▾": 1148,
      "◄": 1149,
      "◆": 1150,
      "◇": 1151,
      "◉": 1152,
      "◊": 1153,
      "○": 1154,
      "●": 1155,
      "◦": 1156,
      "◾": 1157,
      "☀": 1158,
      "☁": 1159,
      "☂": 1160,
      "☃": 1161,
      "☄": 1162,
      "★": 1163,
      "☆": 1164,
      "☉": 1165,
      "☎": 1166,
      "☐": 1167,
      "☑": 1168,
      "☔": 1169,
      "☕": 1170,
      "☘": 1171,
      "☚": 1172,
      "☛": 1173,
      "☜": 1174,
      "☝": 1175,
      "☞": 1176,
      "☟": 1177,
      "☠": 1178,
      "☢": 1179,
      "☣": 1180,
      "☤": 1181,
      "☥": 1182,
      "☦": 1183,
      "☨": 1184,
      "☩": 1185,
      "☪": 1186,
      "☫": 1187,
      "☭": 1188,
      "☮": 1189,
      "☯": 1190,
      "☹": 1191,
      "☺": 1192,
      "☻": 1193,
      "☼": 1194,
      "☽": 1195,
      "☾": 1196,
      "☿": 1197,
      "♀": 1198,
      "♂": 1199,
      "♉": 1200,
      "♊": 1201,
      "♋": 1202,
      "♌": 1203,
      "♍": 1204,
      "♎": 1205,
      "♏": 1206,
      "♑": 1207,
      "♒": 1208,
      "♓": 1209,
      "♔": 1210,
      "♕": 1211,
      "♚": 1212,
      "♛": 1213,
      "♞": 1214,
      "♟": 1215,
      "♠": 1216,
      "♡": 1217,
      "♣": 1218,
      "♥": 1219,
      "♦": 1220,
      "♧": 1221,
      "♪": 1222,
      "♫": 1223,
      "♭": 1224,
      "♮": 1225,
      "♯": 1226,
      "♻": 1227,
      "♿": 1228,
      "⚄": 1229,
      "⚓": 1230,
      "⚔": 1231,
      "⚖": 1232,
      "⚘": 1233,
      "⚙": 1234,
      "⚜": 1235,
      "⚠": 1236,
      "⚡": 1237,
      "⚧": 1238,
      "⚪": 1239,
      "⚰": 1240,
      "⚽": 1241,
      "⚾": 1242,
      "⛄": 1243,
      "⛈": 1244,
      "⛔": 1245,
      "⛩": 1246,
      "⛲": 1247,
      "⛳": 1248,
      "⛴": 1249,
      "⛵": 1250,
      "⛷": 1251,
      "⛽": 1252,
      "✅": 1253,
      "✈": 1254,
      "✊": 1255,
      "✋": 1256,
      "✌": 1257,
      "✎": 1258,
      "✏": 1259,
      "✒": 1260,
      "✓": 1261,
      "✔": 1262,
      "✕": 1263,
      "✖": 1264,
      "✗": 1265,
      "✘": 1266,
      "✜": 1267,
      "✝": 1268,
      "✞": 1269,
      "✠": 1270,
      "✡": 1271,
      "✦": 1272,
      "✧": 1273,
      "✨": 1274,
      "✩": 1275,
      "✪": 1276,
      "✭": 1277,
      "✯": 1278,
      "✰": 1279,
      "✱": 1280,
      "✲": 1281,
      "✳": 1282,
      "✶": 1283,
      "✺": 1284,
      "✻": 1285,
      "✿": 1286,
      "❀": 1287,
      "❁": 1288,
      "❂": 1289,
      "❄": 1290,
      "❅": 1291,
      "❋": 1292,
      "❌": 1293,
      "❍": 1294,
      "❖": 1295,
      "❗": 1296,
      "❝": 1297,
      "❞": 1298,
      "❡": 1299,
      "❣": 1300,
      "❤": 1301,
      "❮": 1302,
      "❷": 1303,
      "➙": 1304,
      "➜": 1305,
      "➠": 1306,
      "➡": 1307,
      "➢": 1308,
      "➨": 1309,
      "➯": 1310,
      "➳": 1311,
      "➶": 1312,
      "⠀": 1313,
      "⤵": 1314,
      "⤺": 1315,
      "⦁": 1316,
      "⦿": 1317,
      "⬅": 1318,
      "⬆": 1319,
      "⬇": 1320,
      "⬥": 1321,
      "⭐": 1322,
      "⭕": 1323,
      "Ȿ": 1324,
      "⸮": 1325,
      "、": 1326,
      "。": 1327,
      "々": 1328,
      "〇": 1329,
      "《": 1330,
      "》": 1331,
      "「": 1332,
      "」": 1333,
      "『": 1334,
      "』": 1335,
      "【": 1336,
      "】": 1337,
      "〒": 1338,
      "〝": 1339,
      "〟": 1340,
      "〰": 1341,
      "〽": 1342,
      "あ": 1343,
      "い": 1344,
      "う": 1345,
      "え": 1346,
      "お": 1347,
      "か": 1348,
      "き": 1349,
      "く": 1350,
      "け": 1351,
      "こ": 1352,
      "さ": 1353,
      "し": 1354,
      "す": 1355,
      "せ": 1356,
      "そ": 1357,
      "た": 1358,
      "ち": 1359,
      "っ": 1360,
      "つ": 1361,
      "て": 1362,
      "と": 1363,
      "な": 1364,
      "に": 1365,
      "ぬ": 1366,
      "ね": 1367,
      "の": 1368,
      "は": 1369,
      "ひ": 1370,
      "ふ": 1371,
      "へ": 1372,
      "ほ": 1373,
      "ま": 1374,
      "み": 1375,
      "む": 1376,
      "め": 1377,
      "も": 1378,
      "ゃ": 1379,
      "や": 1380,
      "ゅ": 1381,
      "ゆ": 1382,
      "ょ": 1383,
      "よ": 1384,
      "ら": 1385,
      "り": 1386,
      "る": 1387,
      "れ": 1388,
      "ろ": 1389,
      "わ": 1390,
      "を": 1391,
      "ん": 1392,
      "゙": 1393,
      "゚": 1394,
      "ア": 1395,
      "ィ": 1396,
      "イ": 1397,
      "ウ": 1398,
      "ェ": 1399,
      "エ": 1400,
      "オ": 1401,
      "カ": 1402,
      "キ": 1403,
      "ク": 1404,
      "ケ": 1405,
      "コ": 1406,
      "サ": 1407,
      "シ": 1408,
      "ス": 1409,
      "セ": 1410,
      "ソ": 1411,
      "タ": 1412,
      "チ": 1413,
      "ッ": 1414,
      "ツ": 1415,
      "テ": 1416,
      "ト": 1417,
      "ナ": 1418,
      "ニ": 1419,
      "ネ": 1420,
      "ノ": 1421,
      "ハ": 1422,
      "ヒ": 1423,
      "フ": 1424,
      "ヘ": 1425,
      "ホ": 1426,
      "マ": 1427,
      "ミ": 1428,
      "ム": 1429,
      "メ": 1430,
      "モ": 1431,
      "ャ": 1432,
      "ヤ": 1433,
      "ュ": 1434,
      "ユ": 1435,
      "ョ": 1436,
      "ヨ": 1437,
      "ラ": 1438,
      "リ": 1439,
      "ル": 1440,
      "レ": 1441,
      "ロ": 1442,
      "ワ": 1443,
      "ン": 1444,
      "・": 1445,
      "ー": 1446,
      "ㅤ": 1447,
      "ㆆ": 1448,
      "㉭": 1449,
      "㊉": 1450,
      "㊙": 1451,
      "㋛": 1452,
      "㋡": 1453,
      "一": 1454,
      "丁": 1455,
      "七": 1456,
      "万": 1457,
      "丈": 1458,
      "三": 1459,
      "上": 1460,
      "下": 1461,
      "不": 1462,
      "与": 1463,
      "丐": 1464,
      "专": 1465,
      "且": 1466,
      "世": 1467,
      "业": 1468,
      "丛": 1469,
      "东": 1470,
      "丝": 1471,
      "丟": 1472,
      "两": 1473,
      "严": 1474,
      "並": 1475,
      "丧": 1476,
      "个": 1477,
      "中": 1478,
      "丰": 1479,
      "串": 1480,
      "临": 1481,
      "丸": 1482,
      "丹": 1483,
      "为": 1484,
      "主": 1485,
      "丽": 1486,
      "举": 1487,
      "乃": 1488,
      "久": 1489,
      "么": 1490,
      "义": 1491,
      "之": 1492,
      "乌": 1493,
      "乎": 1494,
      "乏": 1495,
      "乐": 1496,
      "乗": 1497,
      "乘": 1498,
      "九": 1499,
      "乞": 1500,
      "也": 1501,
      "习": 1502,
      "乡": 1503,
      "书": 1504,
      "买": 1505,
      "乱": 1506,
      "乳": 1507,
      "乾": 1508,
      "亂": 1509,
      "了": 1510,
      "予": 1511,
      "争": 1512,
      "事": 1513,
      "二": 1514,
      "于": 1515,
      "云": 1516,
      "互": 1517,
      "五": 1518,
      "井": 1519,
      "亘": 1520,
      "亚": 1521,
      "些": 1522,
      "亞": 1523,
      "亡": 1524,
      "交": 1525,
      "亦": 1526,
      "产": 1527,
      "亩": 1528,
      "享": 1529,
      "京": 1530,
      "亭": 1531,
      "亮": 1532,
      "亲": 1533,
      "人": 1534,
      "亻": 1535,
      "亿": 1536,
      "什": 1537,
      "仁": 1538,
      "仅": 1539,
      "今": 1540,
      "介": 1541,
      "仍": 1542,
      "从": 1543,
      "仔": 1544,
      "仕": 1545,
      "他": 1546,
      "仗": 1547,
      "付": 1548,
      "仙": 1549,
      "代": 1550,
      "令": 1551,
      "以": 1552,
      "仪": 1553,
      "们": 1554,
      "仮": 1555,
      "仰": 1556,
      "件": 1557,
      "价": 1558,
      "任": 1559,
      "份": 1560,
      "仿": 1561,
      "企": 1562,
      "伊": 1563,
      "伍": 1564,
      "伏": 1565,
      "伐": 1566,
      "众": 1567,
      "伙": 1568,
      "会": 1569,
      "伝": 1570,
      "伞": 1571,
      "伟": 1572,
      "传": 1573,
      "伤": 1574,
      "伦": 1575,
      "伯": 1576,
      "估": 1577,
      "伴": 1578,
      "伸": 1579,
      "似": 1580,
      "但": 1581,
      "位": 1582,
      "低": 1583,
      "住": 1584,
      "佐": 1585,
      "体": 1586,
      "佔": 1587,
      "何": 1588,
      "余": 1589,
      "佛": 1590,
      "作": 1591,
      "你": 1592,
      "佬": 1593,
      "佳": 1594,
      "併": 1595,
      "使": 1596,
      "來": 1597,
      "例": 1598,
      "侍": 1599,
      "供": 1600,
      "依": 1601,
      "価": 1602,
      "侵": 1603,
      "便": 1604,
      "係": 1605,
      "促": 1606,
      "俄": 1607,
      "俊": 1608,
      "俏": 1609,
      "俗": 1610,
      "保": 1611,
      "信": 1612,
      "修": 1613,
      "俺": 1614,
      "個": 1615,
      "倍": 1616,
      "們": 1617,
      "倒": 1618,
      "候": 1619,
      "借": 1620,
      "倡": 1621,
      "値": 1622,
      "倫": 1623,
      "债": 1624,
      "值": 1625,
      "倾": 1626,
      "假": 1627,
      "偉": 1628,
      "偏": 1629,
      "做": 1630,
      "停": 1631,
      "健": 1632,
      "側": 1633,
      "偶": 1634,
      "偷": 1635,
      "偽": 1636,
      "偿": 1637,
      "傀": 1638,
      "傍": 1639,
      "備": 1640,
      "储": 1641,
      "傳": 1642,
      "傷": 1643,
      "僅": 1644,
      "働": 1645,
      "像": 1646,
      "僧": 1647,
      "僵": 1648,
      "價": 1649,
      "僻": 1650,
      "億": 1651,
      "償": 1652,
      "儡": 1653,
      "優": 1654,
      "儿": 1655,
      "允": 1656,
      "元": 1657,
      "充": 1658,
      "兆": 1659,
      "先": 1660,
      "光": 1661,
      "克": 1662,
      "免": 1663,
      "児": 1664,
      "兒": 1665,
      "党": 1666,
      "兜": 1667,
      "入": 1668,
      "內": 1669,
      "全": 1670,
      "兩": 1671,
      "八": 1672,
      "公": 1673,
      "六": 1674,
      "兰": 1675,
      "共": 1676,
      "关": 1677,
      "兴": 1678,
      "兵": 1679,
      "其": 1680,
      "具": 1681,
      "典": 1682,
      "养": 1683,
      "兼": 1684,
      "兽": 1685,
      "内": 1686,
      "円": 1687,
      "再": 1688,
      "冒": 1689,
      "写": 1690,
      "军": 1691,
      "农": 1692,
      "冠": 1693,
      "冥": 1694,
      "冬": 1695,
      "冰": 1696,
      "决": 1697,
      "况": 1698,
      "冷": 1699,
      "冻": 1700,
      "净": 1701,
      "准": 1702,
      "凈": 1703,
      "凉": 1704,
      "凋": 1705,
      "凌": 1706,
      "减": 1707,
      "凑": 1708,
      "凝": 1709,
      "几": 1710,
      "凡": 1711,
      "凤": 1712,
      "処": 1713,
      "凭": 1714,
      "凰": 1715,
      "出": 1716,
      "击": 1717,
      "凿": 1718,
      "刀": 1719,
      "分": 1720,
      "切": 1721,
      "刈": 1722,
      "刊": 1723,
      "刑": 1724,
      "划": 1725,
      "列": 1726,
      "刘": 1727,
      "则": 1728,
      "刚": 1729,
      "创": 1730,
      "初": 1731,
      "删": 1732,
      "判": 1733,
      "別": 1734,
      "刨": 1735,
      "利": 1736,
      "别": 1737,
      "刮": 1738,
      "到": 1739,
      "制": 1740,
      "刷": 1741,
      "券": 1742,
      "刺": 1743,
      "刻": 1744,
      "剃": 1745,
      "則": 1746,
      "削": 1747,
      "前": 1748,
      "剑": 1749,
      "剝": 1750,
      "剥": 1751,
      "剧": 1752,
      "剩": 1753,
      "剪": 1754,
      "副": 1755,
      "割": 1756,
      "創": 1757,
      "劃": 1758,
      "劇": 1759,
      "劍": 1760,
      "力": 1761,
      "劝": 1762,
      "办": 1763,
      "功": 1764,
      "加": 1765,
      "务": 1766,
      "劣": 1767,
      "动": 1768,
      "助": 1769,
      "努": 1770,
      "劫": 1771,
      "励": 1772,
      "劲": 1773,
      "劳": 1774,
      "労": 1775,
      "効": 1776,
      "势": 1777,
      "勃": 1778,
      "勇": 1779,
      "勒": 1780,
      "動": 1781,
      "務": 1782,
      "勝": 1783,
      "勢": 1784,
      "勤": 1785,
      "勧": 1786,
      "勾": 1787,
      "勿": 1788,
      "匀": 1789,
      "包": 1790,
      "化": 1791,
      "北": 1792,
      "匙": 1793,
      "匠": 1794,
      "匯": 1795,
      "区": 1796,
      "医": 1797,
      "匿": 1798,
      "區": 1799,
      "十": 1800,
      "千": 1801,
      "升": 1802,
      "午": 1803,
      "半": 1804,
      "华": 1805,
      "协": 1806,
      "卐": 1807,
      "協": 1808,
      "单": 1809,
      "卖": 1810,
      "南": 1811,
      "単": 1812,
      "博": 1813,
      "卜": 1814,
      "占": 1815,
      "卡": 1816,
      "卧": 1817,
      "卫": 1818,
      "印": 1819,
      "危": 1820,
      "即": 1821,
      "却": 1822,
      "卵": 1823,
      "卸": 1824,
      "卻": 1825,
      "厂": 1826,
      "厄": 1827,
      "历": 1828,
      "厉": 1829,
      "压": 1830,
      "厚": 1831,
      "原": 1832,
      "厥": 1833,
      "厨": 1834,
      "厲": 1835,
      "去": 1836,
      "县": 1837,
      "参": 1838,
      "參": 1839,
      "又": 1840,
      "叉": 1841,
      "及": 1842,
      "友": 1843,
      "双": 1844,
      "反": 1845,
      "収": 1846,
      "发": 1847,
      "叔": 1848,
      "取": 1849,
      "受": 1850,
      "变": 1851,
      "叛": 1852,
      "口": 1853,
      "古": 1854,
      "句": 1855,
      "另": 1856,
      "叩": 1857,
      "只": 1858,
      "叫": 1859,
      "召": 1860,
      "可": 1861,
      "台": 1862,
      "史": 1863,
      "右": 1864,
      "叶": 1865,
      "号": 1866,
      "司": 1867,
      "吃": 1868,
      "各": 1869,
      "合": 1870,
      "吉": 1871,
      "同": 1872,
      "名": 1873,
      "后": 1874,
      "向": 1875,
      "吕": 1876,
      "君": 1877,
      "吟": 1878,
      "吠": 1879,
      "否": 1880,
      "吧": 1881,
      "含": 1882,
      "听": 1883,
      "启": 1884,
      "吳": 1885,
      "吵": 1886,
      "吸": 1887,
      "吹": 1888,
      "吻": 1889,
      "吾": 1890,
      "呂": 1891,
      "呈": 1892,
      "告": 1893,
      "员": 1894,
      "呢": 1895,
      "周": 1896,
      "味": 1897,
      "呵": 1898,
      "呼": 1899,
      "命": 1900,
      "和": 1901,
      "咒": 1902,
      "咨": 1903,
      "咱": 1904,
      "咸": 1905,
      "品": 1906,
      "哇": 1907,
      "哈": 1908,
      "哌": 1909,
      "响": 1910,
      "員": 1911,
      "哥": 1912,
      "哪": 1913,
      "哲": 1914,
      "唬": 1915,
      "售": 1916,
      "唯": 1917,
      "唱": 1918,
      "商": 1919,
      "啊": 1920,
      "問": 1921,
      "啥": 1922,
      "喀": 1923,
      "善": 1924,
      "喇": 1925,
      "喊": 1926,
      "喜": 1927,
      "喧": 1928,
      "單": 1929,
      "営": 1930,
      "喷": 1931,
      "喻": 1932,
      "嗎": 1933,
      "嗑": 1934,
      "嗨": 1935,
      "嘆": 1936,
      "嘉": 1937,
      "嘘": 1938,
      "嘛": 1939,
      "嘲": 1940,
      "嘴": 1941,
      "器": 1942,
      "噴": 1943,
      "嚎": 1944,
      "嚏": 1945,
      "嚔": 1946,
      "嚴": 1947,
      "囊": 1948,
      "囚": 1949,
      "四": 1950,
      "回": 1951,
      "因": 1952,
      "团": 1953,
      "団": 1954,
      "园": 1955,
      "困": 1956,
      "囲": 1957,
      "図": 1958,
      "围": 1959,
      "固": 1960,
      "国": 1961,
      "图": 1962,
      "圆": 1963,
      "圈": 1964,
      "國": 1965,
      "圍": 1966,
      "圏": 1967,
      "園": 1968,
      "圓": 1969,
      "圖": 1970,
      "團": 1971,
      "土": 1972,
      "圣": 1973,
      "圧": 1974,
      "在": 1975,
      "圭": 1976,
      "地": 1977,
      "场": 1978,
      "址": 1979,
      "均": 1980,
      "坍": 1981,
      "坏": 1982,
      "块": 1983,
      "坚": 1984,
      "坛": 1985,
      "坝": 1986,
      "坟": 1987,
      "坡": 1988,
      "坤": 1989,
      "坦": 1990,
      "坳": 1991,
      "垂": 1992,
      "型": 1993,
      "埋": 1994,
      "城": 1995,
      "域": 1996,
      "執": 1997,
      "培": 1998,
      "基": 1999,
      "堂": 2000,
      "堅": 2001,
      "堆": 2002,
      "堡": 2003,
      "堤": 2004,
      "報": 2005,
      "場": 2006,
      "堵": 2007,
      "塌": 2008,
      "塔": 2009,
      "塘": 2010,
      "塚": 2011,
      "塞": 2012,
      "塩": 2013,
      "填": 2014,
      "塾": 2015,
      "境": 2016,
      "墅": 2017,
      "墓": 2018,
      "増": 2019,
      "墜": 2020,
      "增": 2021,
      "墨": 2022,
      "墮": 2023,
      "壊": 2024,
      "壌": 2025,
      "壓": 2026,
      "壞": 2027,
      "士": 2028,
      "壮": 2029,
      "声": 2030,
      "売": 2031,
      "壳": 2032,
      "壹": 2033,
      "处": 2034,
      "备": 2035,
      "変": 2036,
      "复": 2037,
      "夏": 2038,
      "夕": 2039,
      "外": 2040,
      "多": 2041,
      "夜": 2042,
      "够": 2043,
      "夠": 2044,
      "大": 2045,
      "天": 2046,
      "太": 2047,
      "夫": 2048,
      "央": 2049,
      "失": 2050,
      "头": 2051,
      "夸": 2052,
      "夺": 2053,
      "奇": 2054,
      "奈": 2055,
      "奏": 2056,
      "契": 2057,
      "奔": 2058,
      "套": 2059,
      "奥": 2060,
      "奧": 2061,
      "奨": 2062,
      "奪": 2063,
      "女": 2064,
      "奴": 2065,
      "奶": 2066,
      "奸": 2067,
      "她": 2068,
      "好": 2069,
      "妁": 2070,
      "如": 2071,
      "妄": 2072,
      "妇": 2073,
      "妈": 2074,
      "妊": 2075,
      "妖": 2076,
      "妙": 2077,
      "妥": 2078,
      "妨": 2079,
      "妻": 2080,
      "姆": 2081,
      "始": 2082,
      "姓": 2083,
      "委": 2084,
      "姦": 2085,
      "姬": 2086,
      "姻": 2087,
      "姿": 2088,
      "威": 2089,
      "娇": 2090,
      "娘": 2091,
      "娛": 2092,
      "娜": 2093,
      "娠": 2094,
      "娥": 2095,
      "娶": 2096,
      "婚": 2097,
      "婴": 2098,
      "婿": 2099,
      "媒": 2100,
      "嫁": 2101,
      "嫌": 2102,
      "嫦": 2103,
      "子": 2104,
      "孔": 2105,
      "孕": 2106,
      "字": 2107,
      "存": 2108,
      "孙": 2109,
      "孝": 2110,
      "孟": 2111,
      "季": 2112,
      "学": 2113,
      "孩": 2114,
      "孫": 2115,
      "孵": 2116,
      "學": 2117,
      "宁": 2118,
      "它": 2119,
      "宅": 2120,
      "宇": 2121,
      "守": 2122,
      "安": 2123,
      "宋": 2124,
      "完": 2125,
      "宏": 2126,
      "宗": 2127,
      "官": 2128,
      "宙": 2129,
      "定": 2130,
      "宛": 2131,
      "宜": 2132,
      "宝": 2133,
      "实": 2134,
      "実": 2135,
      "审": 2136,
      "客": 2137,
      "宣": 2138,
      "室": 2139,
      "宪": 2140,
      "宫": 2141,
      "宮": 2142,
      "宰": 2143,
      "害": 2144,
      "宴": 2145,
      "宵": 2146,
      "家": 2147,
      "容": 2148,
      "宽": 2149,
      "寂": 2150,
      "寄": 2151,
      "寅": 2152,
      "密": 2153,
      "富": 2154,
      "寓": 2155,
      "寛": 2156,
      "察": 2157,
      "實": 2158,
      "審": 2159,
      "寫": 2160,
      "寬": 2161,
      "寶": 2162,
      "寸": 2163,
      "对": 2164,
      "寺": 2165,
      "寻": 2166,
      "导": 2167,
      "対": 2168,
      "寿": 2169,
      "封": 2170,
      "専": 2171,
      "射": 2172,
      "将": 2173,
      "將": 2174,
      "專": 2175,
      "尊": 2176,
      "尋": 2177,
      "對": 2178,
      "導": 2179,
      "小": 2180,
      "少": 2181,
      "尔": 2182,
      "尖": 2183,
      "尚": 2184,
      "尝": 2185,
      "尤": 2186,
      "就": 2187,
      "尸": 2188,
      "尺": 2189,
      "尼": 2190,
      "尽": 2191,
      "尾": 2192,
      "局": 2193,
      "层": 2194,
      "居": 2195,
      "届": 2196,
      "屋": 2197,
      "屏": 2198,
      "展": 2199,
      "属": 2200,
      "屠": 2201,
      "層": 2202,
      "山": 2203,
      "岁": 2204,
      "岂": 2205,
      "岗": 2206,
      "岡": 2207,
      "岩": 2208,
      "岭": 2209,
      "岸": 2210,
      "島": 2211,
      "峽": 2212,
      "崎": 2213,
      "崛": 2214,
      "崩": 2215,
      "崽": 2216,
      "嶼": 2217,
      "川": 2218,
      "州": 2219,
      "工": 2220,
      "左": 2221,
      "巧": 2222,
      "巨": 2223,
      "巩": 2224,
      "巫": 2225,
      "差": 2226,
      "己": 2227,
      "已": 2228,
      "巴": 2229,
      "巷": 2230,
      "巾": 2231,
      "币": 2232,
      "市": 2233,
      "布": 2234,
      "师": 2235,
      "希": 2236,
      "帐": 2237,
      "帕": 2238,
      "帖": 2239,
      "帚": 2240,
      "帛": 2241,
      "帜": 2242,
      "帝": 2243,
      "带": 2244,
      "師": 2245,
      "席": 2246,
      "帮": 2247,
      "帯": 2248,
      "帰": 2249,
      "常": 2250,
      "幂": 2251,
      "幅": 2252,
      "幕": 2253,
      "幣": 2254,
      "干": 2255,
      "平": 2256,
      "年": 2257,
      "并": 2258,
      "幸": 2259,
      "幹": 2260,
      "幻": 2261,
      "幼": 2262,
      "幽": 2263,
      "幾": 2264,
      "广": 2265,
      "庁": 2266,
      "広": 2267,
      "庄": 2268,
      "庆": 2269,
      "床": 2270,
      "序": 2271,
      "库": 2272,
      "应": 2273,
      "底": 2274,
      "店": 2275,
      "府": 2276,
      "度": 2277,
      "庫": 2278,
      "庭": 2279,
      "康": 2280,
      "廃": 2281,
      "廉": 2282,
      "廣": 2283,
      "延": 2284,
      "廷": 2285,
      "建": 2286,
      "廿": 2287,
      "开": 2288,
      "弁": 2289,
      "异": 2290,
      "弃": 2291,
      "弄": 2292,
      "弈": 2293,
      "式": 2294,
      "弓": 2295,
      "引": 2296,
      "弘": 2297,
      "弟": 2298,
      "张": 2299,
      "弦": 2300,
      "弧": 2301,
      "弱": 2302,
      "張": 2303,
      "強": 2304,
      "弹": 2305,
      "强": 2306,
      "彈": 2307,
      "归": 2308,
      "当": 2309,
      "录": 2310,
      "彗": 2311,
      "彡": 2312,
      "形": 2313,
      "彥": 2314,
      "彦": 2315,
      "彩": 2316,
      "彭": 2317,
      "影": 2318,
      "役": 2319,
      "彼": 2320,
      "往": 2321,
      "征": 2322,
      "径": 2323,
      "待": 2324,
      "很": 2325,
      "徊": 2326,
      "律": 2327,
      "後": 2328,
      "徐": 2329,
      "徑": 2330,
      "徒": 2331,
      "従": 2332,
      "得": 2333,
      "徘": 2334,
      "從": 2335,
      "御": 2336,
      "復": 2337,
      "微": 2338,
      "徳": 2339,
      "德": 2340,
      "徹": 2341,
      "徽": 2342,
      "心": 2343,
      "必": 2344,
      "忍": 2345,
      "志": 2346,
      "忘": 2347,
      "忙": 2348,
      "応": 2349,
      "忠": 2350,
      "忧": 2351,
      "快": 2352,
      "念": 2353,
      "忽": 2354,
      "怀": 2355,
      "态": 2356,
      "怎": 2357,
      "怕": 2358,
      "怖": 2359,
      "思": 2360,
      "急": 2361,
      "性": 2362,
      "怨": 2363,
      "总": 2364,
      "恋": 2365,
      "恐": 2366,
      "恒": 2367,
      "恕": 2368,
      "恢": 2369,
      "恣": 2370,
      "恭": 2371,
      "息": 2372,
      "恶": 2373,
      "悄": 2374,
      "悉": 2375,
      "悌": 2376,
      "悔": 2377,
      "悟": 2378,
      "悠": 2379,
      "患": 2380,
      "悦": 2381,
      "您": 2382,
      "悪": 2383,
      "悬": 2384,
      "悲": 2385,
      "情": 2386,
      "惊": 2387,
      "惑": 2388,
      "惜": 2389,
      "惠": 2390,
      "惨": 2391,
      "惩": 2392,
      "惯": 2393,
      "想": 2394,
      "意": 2395,
      "愚": 2396,
      "愛": 2397,
      "感": 2398,
      "愿": 2399,
      "慈": 2400,
      "態": 2401,
      "慌": 2402,
      "慑": 2403,
      "慕": 2404,
      "慘": 2405,
      "慢": 2406,
      "慣": 2407,
      "慧": 2408,
      "慮": 2409,
      "慰": 2410,
      "憲": 2411,
      "懂": 2412,
      "懇": 2413,
      "應": 2414,
      "懐": 2415,
      "懸": 2416,
      "戍": 2417,
      "戏": 2418,
      "成": 2419,
      "我": 2420,
      "戒": 2421,
      "或": 2422,
      "战": 2423,
      "戚": 2424,
      "戦": 2425,
      "截": 2426,
      "戰": 2427,
      "戲": 2428,
      "戶": 2429,
      "户": 2430,
      "戸": 2431,
      "戻": 2432,
      "房": 2433,
      "所": 2434,
      "手": 2435,
      "才": 2436,
      "扒": 2437,
      "打": 2438,
      "払": 2439,
      "托": 2440,
      "扣": 2441,
      "执": 2442,
      "扩": 2443,
      "扬": 2444,
      "扭": 2445,
      "扮": 2446,
      "扰": 2447,
      "扱": 2448,
      "扶": 2449,
      "批": 2450,
      "找": 2451,
      "承": 2452,
      "技": 2453,
      "抉": 2454,
      "把": 2455,
      "抑": 2456,
      "抓": 2457,
      "投": 2458,
      "抖": 2459,
      "抗": 2460,
      "折": 2461,
      "抛": 2462,
      "択": 2463,
      "抢": 2464,
      "护": 2465,
      "报": 2466,
      "抬": 2467,
      "抱": 2468,
      "抵": 2469,
      "抹": 2470,
      "押": 2471,
      "抽": 2472,
      "担": 2473,
      "拈": 2474,
      "拉": 2475,
      "拋": 2476,
      "拌": 2477,
      "拒": 2478,
      "拓": 2479,
      "拔": 2480,
      "拘": 2481,
      "拙": 2482,
      "招": 2483,
      "拜": 2484,
      "拠": 2485,
      "拡": 2486,
      "拣": 2487,
      "拥": 2488,
      "拨": 2489,
      "择": 2490,
      "括": 2491,
      "拯": 2492,
      "拾": 2493,
      "拿": 2494,
      "持": 2495,
      "指": 2496,
      "按": 2497,
      "挑": 2498,
      "挖": 2499,
      "挣": 2500,
      "挥": 2501,
      "挪": 2502,
      "振": 2503,
      "捅": 2504,
      "捉": 2505,
      "捜": 2506,
      "捞": 2507,
      "损": 2508,
      "换": 2509,
      "捧": 2510,
      "捨": 2511,
      "据": 2512,
      "掃": 2513,
      "授": 2514,
      "掉": 2515,
      "掌": 2516,
      "掏": 2517,
      "排": 2518,
      "掘": 2519,
      "掛": 2520,
      "掠": 2521,
      "採": 2522,
      "探": 2523,
      "接": 2524,
      "控": 2525,
      "推": 2526,
      "措": 2527,
      "掬": 2528,
      "描": 2529,
      "提": 2530,
      "換": 2531,
      "握": 2532,
      "揭": 2533,
      "揮": 2534,
      "援": 2535,
      "搅": 2536,
      "損": 2537,
      "搓": 2538,
      "搞": 2539,
      "搬": 2540,
      "搭": 2541,
      "摂": 2542,
      "摄": 2543,
      "摆": 2544,
      "摊": 2545,
      "摘": 2546,
      "摧": 2547,
      "摩": 2548,
      "摸": 2549,
      "撃": 2550,
      "撑": 2551,
      "撒": 2552,
      "撓": 2553,
      "撤": 2554,
      "撫": 2555,
      "播": 2556,
      "撮": 2557,
      "撰": 2558,
      "撼": 2559,
      "撿": 2560,
      "擁": 2561,
      "擂": 2562,
      "擊": 2563,
      "擋": 2564,
      "操": 2565,
      "擎": 2566,
      "據": 2567,
      "擬": 2568,
      "擴": 2569,
      "攔": 2570,
      "支": 2571,
      "收": 2572,
      "改": 2573,
      "攻": 2574,
      "放": 2575,
      "政": 2576,
      "故": 2577,
      "效": 2578,
      "敌": 2579,
      "敏": 2580,
      "救": 2581,
      "敗": 2582,
      "敘": 2583,
      "教": 2584,
      "散": 2585,
      "敦": 2586,
      "敬": 2587,
      "数": 2588,
      "敲": 2589,
      "整": 2590,
      "敵": 2591,
      "敷": 2592,
      "數": 2593,
      "斃": 2594,
      "文": 2595,
      "斐": 2596,
      "斗": 2597,
      "料": 2598,
      "斜": 2599,
      "斧": 2600,
      "断": 2601,
      "斯": 2602,
      "新": 2603,
      "斷": 2604,
      "方": 2605,
      "於": 2606,
      "施": 2607,
      "旋": 2608,
      "旌": 2609,
      "族": 2610,
      "旗": 2611,
      "无": 2612,
      "既": 2613,
      "日": 2614,
      "旦": 2615,
      "旧": 2616,
      "旨": 2617,
      "早": 2618,
      "旬": 2619,
      "旭": 2620,
      "旱": 2621,
      "时": 2622,
      "旺": 2623,
      "昂": 2624,
      "昇": 2625,
      "明": 2626,
      "昏": 2627,
      "易": 2628,
      "昔": 2629,
      "星": 2630,
      "映": 2631,
      "春": 2632,
      "昨": 2633,
      "昭": 2634,
      "是": 2635,
      "昼": 2636,
      "显": 2637,
      "時": 2638,
      "晋": 2639,
      "晓": 2640,
      "晚": 2641,
      "普": 2642,
      "景": 2643,
      "晶": 2644,
      "智": 2645,
      "暂": 2646,
      "暖": 2647,
      "暗": 2648,
      "暫": 2649,
      "暮": 2650,
      "暴": 2651,
      "曙": 2652,
      "曜": 2653,
      "曝": 2654,
      "曰": 2655,
      "曲": 2656,
      "更": 2657,
      "書": 2658,
      "曾": 2659,
      "替": 2660,
      "最": 2661,
      "會": 2662,
      "月": 2663,
      "有": 2664,
      "朋": 2665,
      "服": 2666,
      "朗": 2667,
      "望": 2668,
      "朝": 2669,
      "期": 2670,
      "木": 2671,
      "未": 2672,
      "末": 2673,
      "本": 2674,
      "术": 2675,
      "朱": 2676,
      "机": 2677,
      "朽": 2678,
      "杀": 2679,
      "杂": 2680,
      "权": 2681,
      "杉": 2682,
      "李": 2683,
      "杏": 2684,
      "材": 2685,
      "村": 2686,
      "杖": 2687,
      "杜": 2688,
      "束": 2689,
      "条": 2690,
      "来": 2691,
      "杨": 2692,
      "杯": 2693,
      "杰": 2694,
      "東": 2695,
      "杵": 2696,
      "松": 2697,
      "板": 2698,
      "极": 2699,
      "构": 2700,
      "析": 2701,
      "枕": 2702,
      "林": 2703,
      "枚": 2704,
      "果": 2705,
      "枝": 2706,
      "枢": 2707,
      "枣": 2708,
      "枪": 2709,
      "枫": 2710,
      "架": 2711,
      "某": 2712,
      "染": 2713,
      "柜": 2714,
      "柠": 2715,
      "查": 2716,
      "柱": 2717,
      "柳": 2718,
      "査": 2719,
      "栀": 2720,
      "栃": 2721,
      "标": 2722,
      "栏": 2723,
      "树": 2724,
      "栖": 2725,
      "栗": 2726,
      "校": 2727,
      "样": 2728,
      "核": 2729,
      "根": 2730,
      "格": 2731,
      "栽": 2732,
      "桂": 2733,
      "框": 2734,
      "案": 2735,
      "档": 2736,
      "桥": 2737,
      "桿": 2738,
      "梁": 2739,
      "梅": 2740,
      "條": 2741,
      "梦": 2742,
      "梯": 2743,
      "械": 2744,
      "梳": 2745,
      "梵": 2746,
      "检": 2747,
      "棄": 2748,
      "棋": 2749,
      "棍": 2750,
      "棒": 2751,
      "森": 2752,
      "棹": 2753,
      "棺": 2754,
      "植": 2755,
      "椒": 2756,
      "検": 2757,
      "楔": 2758,
      "楚": 2759,
      "楢": 2760,
      "業": 2761,
      "極": 2762,
      "楼": 2763,
      "楽": 2764,
      "概": 2765,
      "榜": 2766,
      "榴": 2767,
      "構": 2768,
      "槍": 2769,
      "槓": 2770,
      "様": 2771,
      "樂": 2772,
      "標": 2773,
      "模": 2774,
      "樣": 2775,
      "権": 2776,
      "横": 2777,
      "樸": 2778,
      "樽": 2779,
      "橋": 2780,
      "機": 2781,
      "橡": 2782,
      "橫": 2783,
      "檔": 2784,
      "檢": 2785,
      "檬": 2786,
      "欄": 2787,
      "權": 2788,
      "次": 2789,
      "欢": 2790,
      "欣": 2791,
      "欧": 2792,
      "欲": 2793,
      "欺": 2794,
      "款": 2795,
      "歇": 2796,
      "歌": 2797,
      "歐": 2798,
      "歓": 2799,
      "歡": 2800,
      "止": 2801,
      "正": 2802,
      "此": 2803,
      "步": 2804,
      "武": 2805,
      "歧": 2806,
      "歩": 2807,
      "歪": 2808,
      "歳": 2809,
      "歷": 2810,
      "歸": 2811,
      "死": 2812,
      "殆": 2813,
      "殊": 2814,
      "残": 2815,
      "殖": 2816,
      "殘": 2817,
      "段": 2818,
      "殺": 2819,
      "殿": 2820,
      "毀": 2821,
      "毁": 2822,
      "母": 2823,
      "毎": 2824,
      "每": 2825,
      "毒": 2826,
      "比": 2827,
      "毕": 2828,
      "毛": 2829,
      "毫": 2830,
      "氏": 2831,
      "民": 2832,
      "氓": 2833,
      "气": 2834,
      "気": 2835,
      "氛": 2836,
      "氣": 2837,
      "氧": 2838,
      "水": 2839,
      "永": 2840,
      "氽": 2841,
      "汁": 2842,
      "求": 2843,
      "汇": 2844,
      "汉": 2845,
      "汗": 2846,
      "汚": 2847,
      "江": 2848,
      "池": 2849,
      "污": 2850,
      "汪": 2851,
      "決": 2852,
      "沁": 2853,
      "沂": 2854,
      "沉": 2855,
      "沌": 2856,
      "沒": 2857,
      "沙": 2858,
      "沟": 2859,
      "没": 2860,
      "沥": 2861,
      "沦": 2862,
      "河": 2863,
      "沸": 2864,
      "油": 2865,
      "治": 2866,
      "沾": 2867,
      "沿": 2868,
      "況": 2869,
      "泉": 2870,
      "法": 2871,
      "泛": 2872,
      "泡": 2873,
      "波": 2874,
      "泣": 2875,
      "泥": 2876,
      "注": 2877,
      "泽": 2878,
      "洁": 2879,
      "洋": 2880,
      "洗": 2881,
      "洛": 2882,
      "洞": 2883,
      "津": 2884,
      "洪": 2885,
      "洲": 2886,
      "洵": 2887,
      "活": 2888,
      "派": 2889,
      "流": 2890,
      "浄": 2891,
      "测": 2892,
      "济": 2893,
      "浏": 2894,
      "浓": 2895,
      "浜": 2896,
      "浩": 2897,
      "浪": 2898,
      "浮": 2899,
      "浴": 2900,
      "海": 2901,
      "浸": 2902,
      "涂": 2903,
      "涅": 2904,
      "消": 2905,
      "涉": 2906,
      "涌": 2907,
      "涙": 2908,
      "涛": 2909,
      "涣": 2910,
      "涤": 2911,
      "润": 2912,
      "涯": 2913,
      "液": 2914,
      "淑": 2915,
      "淘": 2916,
      "淨": 2917,
      "深": 2918,
      "混": 2919,
      "添": 2920,
      "清": 2921,
      "済": 2922,
      "渉": 2923,
      "渐": 2924,
      "渔": 2925,
      "減": 2926,
      "渠": 2927,
      "渡": 2928,
      "渣": 2929,
      "温": 2930,
      "測": 2931,
      "港": 2932,
      "渴": 2933,
      "游": 2934,
      "湖": 2935,
      "湧": 2936,
      "湯": 2937,
      "湾": 2938,
      "湿": 2939,
      "源": 2940,
      "準": 2941,
      "溥": 2942,
      "溪": 2943,
      "溶": 2944,
      "溺": 2945,
      "滅": 2946,
      "滋": 2947,
      "滑": 2948,
      "滚": 2949,
      "满": 2950,
      "滤": 2951,
      "滥": 2952,
      "滩": 2953,
      "滲": 2954,
      "滿": 2955,
      "漁": 2956,
      "漂": 2957,
      "漏": 2958,
      "演": 2959,
      "漫": 2960,
      "潜": 2961,
      "潦": 2962,
      "潭": 2963,
      "潮": 2964,
      "潰": 2965,
      "澄": 2966,
      "澤": 2967,
      "澳": 2968,
      "激": 2969,
      "濁": 2970,
      "濃": 2971,
      "濟": 2972,
      "瀧": 2973,
      "瀬": 2974,
      "灌": 2975,
      "灘": 2976,
      "灣": 2977,
      "火": 2978,
      "灭": 2979,
      "灰": 2980,
      "灵": 2981,
      "灶": 2982,
      "災": 2983,
      "灾": 2984,
      "炉": 2985,
      "炒": 2986,
      "炙": 2987,
      "炜": 2988,
      "炮": 2989,
      "炸": 2990,
      "点": 2991,
      "為": 2992,
      "炼": 2993,
      "烈": 2994,
      "烛": 2995,
      "烟": 2996,
      "烦": 2997,
      "热": 2998,
      "焉": 2999,
      "無": 3000,
      "焦": 3001,
      "然": 3002,
      "焼": 3003,
      "煌": 3004,
      "煎": 3005,
      "煙": 3006,
      "照": 3007,
      "煮": 3008,
      "熊": 3009,
      "熙": 3010,
      "熟": 3011,
      "熱": 3012,
      "燃": 3013,
      "燒": 3014,
      "營": 3015,
      "燥": 3016,
      "爆": 3017,
      "爐": 3018,
      "爥": 3019,
      "爬": 3020,
      "爭": 3021,
      "爱": 3022,
      "父": 3023,
      "爷": 3024,
      "爾": 3025,
      "片": 3026,
      "版": 3027,
      "牌": 3028,
      "牛": 3029,
      "牢": 3030,
      "牧": 3031,
      "物": 3032,
      "牲": 3033,
      "牵": 3034,
      "特": 3035,
      "牽": 3036,
      "犀": 3037,
      "犇": 3038,
      "犠": 3039,
      "犬": 3040,
      "犯": 3041,
      "状": 3042,
      "狀": 3043,
      "狂": 3044,
      "狗": 3045,
      "狙": 3046,
      "狛": 3047,
      "独": 3048,
      "狭": 3049,
      "狮": 3050,
      "猛": 3051,
      "献": 3052,
      "猴": 3053,
      "猶": 3054,
      "獅": 3055,
      "獎": 3056,
      "獨": 3057,
      "獲": 3058,
      "獸": 3059,
      "玄": 3060,
      "率": 3061,
      "玉": 3062,
      "王": 3063,
      "玛": 3064,
      "玩": 3065,
      "玮": 3066,
      "环": 3067,
      "现": 3068,
      "玺": 3069,
      "珍": 3070,
      "珠": 3071,
      "班": 3072,
      "現": 3073,
      "球": 3074,
      "理": 3075,
      "琉": 3076,
      "琦": 3077,
      "琳": 3078,
      "琴": 3079,
      "琶": 3080,
      "瑜": 3081,
      "瑞": 3082,
      "瑰": 3083,
      "環": 3084,
      "瓜": 3085,
      "瓶": 3086,
      "瓷": 3087,
      "甘": 3088,
      "甚": 3089,
      "甜": 3090,
      "生": 3091,
      "產": 3092,
      "産": 3093,
      "用": 3094,
      "田": 3095,
      "由": 3096,
      "甲": 3097,
      "申": 3098,
      "电": 3099,
      "男": 3100,
      "甸": 3101,
      "町": 3102,
      "画": 3103,
      "畅": 3104,
      "界": 3105,
      "畑": 3106,
      "留": 3107,
      "畜": 3108,
      "略": 3109,
      "番": 3110,
      "異": 3111,
      "當": 3112,
      "畸": 3113,
      "疏": 3114,
      "疑": 3115,
      "疗": 3116,
      "疤": 3117,
      "疫": 3118,
      "疯": 3119,
      "疾": 3120,
      "病": 3121,
      "症": 3122,
      "痛": 3123,
      "瘋": 3124,
      "瘫": 3125,
      "瘾": 3126,
      "療": 3127,
      "癌": 3128,
      "発": 3129,
      "登": 3130,
      "發": 3131,
      "白": 3132,
      "百": 3133,
      "的": 3134,
      "皆": 3135,
      "皇": 3136,
      "皋": 3137,
      "皮": 3138,
      "盆": 3139,
      "益": 3140,
      "盐": 3141,
      "监": 3142,
      "盒": 3143,
      "盗": 3144,
      "盘": 3145,
      "盛": 3146,
      "盟": 3147,
      "盡": 3148,
      "監": 3149,
      "盤": 3150,
      "盧": 3151,
      "目": 3152,
      "盲": 3153,
      "直": 3154,
      "相": 3155,
      "盾": 3156,
      "省": 3157,
      "眉": 3158,
      "看": 3159,
      "県": 3160,
      "真": 3161,
      "眼": 3162,
      "眾": 3163,
      "着": 3164,
      "睛": 3165,
      "督": 3166,
      "睦": 3167,
      "睫": 3168,
      "睹": 3169,
      "睾": 3170,
      "睿": 3171,
      "瞎": 3172,
      "瞧": 3173,
      "矛": 3174,
      "矢": 3175,
      "知": 3176,
      "矩": 3177,
      "短": 3178,
      "石": 3179,
      "矶": 3180,
      "码": 3181,
      "砂": 3182,
      "砌": 3183,
      "研": 3184,
      "破": 3185,
      "础": 3186,
      "硕": 3187,
      "硝": 3188,
      "硬": 3189,
      "确": 3190,
      "碎": 3191,
      "碗": 3192,
      "碟": 3193,
      "碳": 3194,
      "確": 3195,
      "磁": 3196,
      "磐": 3197,
      "磨": 3198,
      "示": 3199,
      "礼": 3200,
      "社": 3201,
      "祈": 3202,
      "祖": 3203,
      "祝": 3204,
      "神": 3205,
      "祭": 3206,
      "祷": 3207,
      "祺": 3208,
      "禁": 3209,
      "福": 3210,
      "禦": 3211,
      "禪": 3212,
      "离": 3213,
      "私": 3214,
      "秋": 3215,
      "种": 3216,
      "科": 3217,
      "秒": 3218,
      "秘": 3219,
      "秦": 3220,
      "秧": 3221,
      "积": 3222,
      "称": 3223,
      "移": 3224,
      "程": 3225,
      "稍": 3226,
      "税": 3227,
      "稚": 3228,
      "稣": 3229,
      "種": 3230,
      "稱": 3231,
      "稲": 3232,
      "稳": 3233,
      "稼": 3234,
      "稿": 3235,
      "穂": 3236,
      "穌": 3237,
      "積": 3238,
      "穢": 3239,
      "穩": 3240,
      "穫": 3241,
      "穴": 3242,
      "究": 3243,
      "穷": 3244,
      "空": 3245,
      "穿": 3246,
      "突": 3247,
      "窃": 3248,
      "窗": 3249,
      "窝": 3250,
      "窠": 3251,
      "窮": 3252,
      "窰": 3253,
      "立": 3254,
      "竖": 3255,
      "站": 3256,
      "竞": 3257,
      "章": 3258,
      "童": 3259,
      "端": 3260,
      "竹": 3261,
      "笃": 3262,
      "笑": 3263,
      "笔": 3264,
      "笛": 3265,
      "笠": 3266,
      "符": 3267,
      "第": 3268,
      "笼": 3269,
      "筆": 3270,
      "等": 3271,
      "筑": 3272,
      "筒": 3273,
      "答": 3274,
      "策": 3275,
      "筘": 3276,
      "筛": 3277,
      "筮": 3278,
      "签": 3279,
      "简": 3280,
      "算": 3281,
      "管": 3282,
      "箩": 3283,
      "箫": 3284,
      "箭": 3285,
      "箱": 3286,
      "節": 3287,
      "範": 3288,
      "篇": 3289,
      "簡": 3290,
      "簸": 3291,
      "簽": 3292,
      "籍": 3293,
      "米": 3294,
      "类": 3295,
      "籽": 3296,
      "粉": 3297,
      "粒": 3298,
      "粘": 3299,
      "粮": 3300,
      "精": 3301,
      "糊": 3302,
      "糕": 3303,
      "糖": 3304,
      "糟": 3305,
      "糧": 3306,
      "系": 3307,
      "紀": 3308,
      "約": 3309,
      "紅": 3310,
      "紊": 3311,
      "納": 3312,
      "純": 3313,
      "紙": 3314,
      "級": 3315,
      "素": 3316,
      "索": 3317,
      "紫": 3318,
      "細": 3319,
      "終": 3320,
      "組": 3321,
      "絆": 3322,
      "経": 3323,
      "結": 3324,
      "絕": 3325,
      "絡": 3326,
      "給": 3327,
      "統": 3328,
      "絶": 3329,
      "經": 3330,
      "続": 3331,
      "綜": 3332,
      "綠": 3333,
      "維": 3334,
      "綱": 3335,
      "網": 3336,
      "綾": 3337,
      "緊": 3338,
      "総": 3339,
      "線": 3340,
      "緣": 3341,
      "編": 3342,
      "練": 3343,
      "縁": 3344,
      "縮": 3345,
      "總": 3346,
      "織": 3347,
      "繫": 3348,
      "繰": 3349,
      "繼": 3350,
      "續": 3351,
      "红": 3352,
      "约": 3353,
      "级": 3354,
      "纪": 3355,
      "纯": 3356,
      "纱": 3357,
      "纲": 3358,
      "纳": 3359,
      "纵": 3360,
      "纸": 3361,
      "纺": 3362,
      "线": 3363,
      "练": 3364,
      "组": 3365,
      "细": 3366,
      "织": 3367,
      "终": 3368,
      "经": 3369,
      "结": 3370,
      "绕": 3371,
      "绘": 3372,
      "给": 3373,
      "络": 3374,
      "绝": 3375,
      "统": 3376,
      "继": 3377,
      "续": 3378,
      "绯": 3379,
      "绳": 3380,
      "维": 3381,
      "绵": 3382,
      "绸": 3383,
      "综": 3384,
      "绿": 3385,
      "缓": 3386,
      "缔": 3387,
      "编": 3388,
      "缘": 3389,
      "缩": 3390,
      "缶": 3391,
      "缺": 3392,
      "网": 3393,
      "罕": 3394,
      "罗": 3395,
      "罚": 3396,
      "罩": 3397,
      "罪": 3398,
      "置": 3399,
      "罰": 3400,
      "署": 3401,
      "罵": 3402,
      "罹": 3403,
      "羅": 3404,
      "羊": 3405,
      "美": 3406,
      "羔": 3407,
      "羡": 3408,
      "群": 3409,
      "義": 3410,
      "羽": 3411,
      "翎": 3412,
      "習": 3413,
      "翘": 3414,
      "翻": 3415,
      "翼": 3416,
      "老": 3417,
      "考": 3418,
      "者": 3419,
      "而": 3420,
      "耕": 3421,
      "耳": 3422,
      "耶": 3423,
      "耻": 3424,
      "耿": 3425,
      "聆": 3426,
      "聊": 3427,
      "职": 3428,
      "联": 3429,
      "聖": 3430,
      "聚": 3431,
      "聞": 3432,
      "聡": 3433,
      "聯": 3434,
      "聰": 3435,
      "聴": 3436,
      "職": 3437,
      "聽": 3438,
      "肉": 3439,
      "肖": 3440,
      "肚": 3441,
      "肠": 3442,
      "股": 3443,
      "肤": 3444,
      "肥": 3445,
      "肯": 3446,
      "育": 3447,
      "肺": 3448,
      "肾": 3449,
      "胁": 3450,
      "胃": 3451,
      "胆": 3452,
      "背": 3453,
      "胎": 3454,
      "胖": 3455,
      "胜": 3456,
      "胡": 3457,
      "胶": 3458,
      "胺": 3459,
      "能": 3460,
      "脅": 3461,
      "脆": 3462,
      "脈": 3463,
      "脍": 3464,
      "脏": 3465,
      "脐": 3466,
      "脑": 3467,
      "脚": 3468,
      "脫": 3469,
      "脱": 3470,
      "脸": 3471,
      "脾": 3472,
      "腐": 3473,
      "腦": 3474,
      "腫": 3475,
      "腮": 3476,
      "腰": 3477,
      "腺": 3478,
      "腾": 3479,
      "臣": 3480,
      "臨": 3481,
      "自": 3482,
      "臭": 3483,
      "至": 3484,
      "致": 3485,
      "臼": 3486,
      "舆": 3487,
      "與": 3488,
      "興": 3489,
      "舉": 3490,
      "舊": 3491,
      "舌": 3492,
      "舍": 3493,
      "舒": 3494,
      "舔": 3495,
      "舘": 3496,
      "舞": 3497,
      "舟": 3498,
      "航": 3499,
      "般": 3500,
      "舰": 3501,
      "船": 3502,
      "艇": 3503,
      "艘": 3504,
      "良": 3505,
      "色": 3506,
      "艺": 3507,
      "艾": 3508,
      "节": 3509,
      "芒": 3510,
      "芝": 3511,
      "芫": 3512,
      "芬": 3513,
      "芯": 3514,
      "花": 3515,
      "芳": 3516,
      "苏": 3517,
      "苗": 3518,
      "苞": 3519,
      "若": 3520,
      "苦": 3521,
      "英": 3522,
      "范": 3523,
      "茨": 3524,
      "茫": 3525,
      "茲": 3526,
      "茶": 3527,
      "草": 3528,
      "荐": 3529,
      "荒": 3530,
      "荡": 3531,
      "荣": 3532,
      "荷": 3533,
      "荽": 3534,
      "莎": 3535,
      "莫": 3536,
      "莲": 3537,
      "获": 3538,
      "菁": 3539,
      "菌": 3540,
      "菜": 3541,
      "菠": 3542,
      "華": 3543,
      "菱": 3544,
      "菲": 3545,
      "萄": 3546,
      "萍": 3547,
      "萝": 3548,
      "营": 3549,
      "萧": 3550,
      "萬": 3551,
      "落": 3552,
      "葉": 3553,
      "著": 3554,
      "葛": 3555,
      "葡": 3556,
      "董": 3557,
      "葬": 3558,
      "蒂": 3559,
      "蒋": 3560,
      "蒙": 3561,
      "蒸": 3562,
      "蓄": 3563,
      "蓋": 3564,
      "蓝": 3565,
      "蔡": 3566,
      "蔣": 3567,
      "蔬": 3568,
      "蔵": 3569,
      "蔺": 3570,
      "蔻": 3571,
      "蔽": 3572,
      "蕭": 3573,
      "蕴": 3574,
      "薄": 3575,
      "薯": 3576,
      "藍": 3577,
      "藏": 3578,
      "藤": 3579,
      "蘅": 3580,
      "蘭": 3581,
      "虎": 3582,
      "虐": 3583,
      "虑": 3584,
      "處": 3585,
      "虚": 3586,
      "虛": 3587,
      "號": 3588,
      "虹": 3589,
      "虽": 3590,
      "虾": 3591,
      "蛇": 3592,
      "蛋": 3593,
      "蛙": 3594,
      "蜀": 3595,
      "蜂": 3596,
      "蜜": 3597,
      "蜷": 3598,
      "融": 3599,
      "螺": 3600,
      "血": 3601,
      "衅": 3602,
      "衆": 3603,
      "行": 3604,
      "衍": 3605,
      "術": 3606,
      "衔": 3607,
      "街": 3608,
      "衛": 3609,
      "衝": 3610,
      "衡": 3611,
      "衣": 3612,
      "补": 3613,
      "表": 3614,
      "衰": 3615,
      "衷": 3616,
      "袈": 3617,
      "袋": 3618,
      "袍": 3619,
      "被": 3620,
      "裁": 3621,
      "裂": 3622,
      "装": 3623,
      "裆": 3624,
      "裏": 3625,
      "裕": 3626,
      "裘": 3627,
      "裙": 3628,
      "補": 3629,
      "裳": 3630,
      "裴": 3631,
      "製": 3632,
      "複": 3633,
      "襲": 3634,
      "西": 3635,
      "要": 3636,
      "覆": 3637,
      "見": 3638,
      "規": 3639,
      "視": 3640,
      "覚": 3641,
      "親": 3642,
      "観": 3643,
      "覺": 3644,
      "觀": 3645,
      "见": 3646,
      "观": 3647,
      "规": 3648,
      "视": 3649,
      "览": 3650,
      "觉": 3651,
      "角": 3652,
      "解": 3653,
      "触": 3654,
      "觸": 3655,
      "言": 3656,
      "計": 3657,
      "討": 3658,
      "訓": 3659,
      "託": 3660,
      "記": 3661,
      "訟": 3662,
      "訪": 3663,
      "設": 3664,
      "許": 3665,
      "訴": 3666,
      "診": 3667,
      "証": 3668,
      "評": 3669,
      "試": 3670,
      "詰": 3671,
      "話": 3672,
      "該": 3673,
      "詳": 3674,
      "誉": 3675,
      "誌": 3676,
      "認": 3677,
      "誓": 3678,
      "語": 3679,
      "誠": 3680,
      "誤": 3681,
      "說": 3682,
      "説": 3683,
      "読": 3684,
      "誰": 3685,
      "課": 3686,
      "調": 3687,
      "談": 3688,
      "請": 3689,
      "論": 3690,
      "諭": 3691,
      "諮": 3692,
      "諸": 3693,
      "謀": 3694,
      "講": 3695,
      "謝": 3696,
      "謹": 3697,
      "證": 3698,
      "識": 3699,
      "警": 3700,
      "譯": 3701,
      "議": 3702,
      "護": 3703,
      "譽": 3704,
      "讀": 3705,
      "變": 3706,
      "讓": 3707,
      "计": 3708,
      "认": 3709,
      "讨": 3710,
      "让": 3711,
      "训": 3712,
      "议": 3713,
      "讯": 3714,
      "记": 3715,
      "讲": 3716,
      "许": 3717,
      "论": 3718,
      "讼": 3719,
      "设": 3720,
      "访": 3721,
      "诀": 3722,
      "证": 3723,
      "诃": 3724,
      "评": 3725,
      "识": 3726,
      "诉": 3727,
      "词": 3728,
      "诏": 3729,
      "译": 3730,
      "试": 3731,
      "话": 3732,
      "诞": 3733,
      "询": 3734,
      "该": 3735,
      "诫": 3736,
      "语": 3737,
      "误": 3738,
      "诱": 3739,
      "说": 3740,
      "请": 3741,
      "诺": 3742,
      "读": 3743,
      "谁": 3744,
      "调": 3745,
      "谈": 3746,
      "谋": 3747,
      "谍": 3748,
      "谓": 3749,
      "谛": 3750,
      "谜": 3751,
      "谢": 3752,
      "谣": 3753,
      "谭": 3754,
      "谱": 3755,
      "谴": 3756,
      "谷": 3757,
      "豁": 3758,
      "豆": 3759,
      "豐": 3760,
      "豚": 3761,
      "象": 3762,
      "豫": 3763,
      "貝": 3764,
      "負": 3765,
      "財": 3766,
      "貢": 3767,
      "貧": 3768,
      "貨": 3769,
      "販": 3770,
      "貫": 3771,
      "責": 3772,
      "貯": 3773,
      "貴": 3774,
      "買": 3775,
      "貸": 3776,
      "費": 3777,
      "賀": 3778,
      "資": 3779,
      "賊": 3780,
      "賞": 3781,
      "賢": 3782,
      "賦": 3783,
      "質": 3784,
      "賬": 3785,
      "賭": 3786,
      "賴": 3787,
      "賺": 3788,
      "購": 3789,
      "贈": 3790,
      "贏": 3791,
      "负": 3792,
      "贡": 3793,
      "财": 3794,
      "责": 3795,
      "贤": 3796,
      "败": 3797,
      "账": 3798,
      "货": 3799,
      "质": 3800,
      "贪": 3801,
      "贫": 3802,
      "购": 3803,
      "贮": 3804,
      "贯": 3805,
      "贵": 3806,
      "贸": 3807,
      "费": 3808,
      "贺": 3809,
      "贿": 3810,
      "资": 3811,
      "赋": 3812,
      "赌": 3813,
      "赎": 3814,
      "赖": 3815,
      "赚": 3816,
      "赝": 3817,
      "赞": 3818,
      "赠": 3819,
      "赢": 3820,
      "赤": 3821,
      "赦": 3822,
      "走": 3823,
      "赴": 3824,
      "赵": 3825,
      "赶": 3826,
      "起": 3827,
      "超": 3828,
      "越": 3829,
      "趋": 3830,
      "趙": 3831,
      "趣": 3832,
      "足": 3833,
      "趴": 3834,
      "跃": 3835,
      "跌": 3836,
      "跑": 3837,
      "跟": 3838,
      "跨": 3839,
      "跪": 3840,
      "路": 3841,
      "跳": 3842,
      "践": 3843,
      "踏": 3844,
      "踐": 3845,
      "踪": 3846,
      "身": 3847,
      "躯": 3848,
      "躲": 3849,
      "車": 3850,
      "軍": 3851,
      "軒": 3852,
      "軽": 3853,
      "較": 3854,
      "載": 3855,
      "輔": 3856,
      "輝": 3857,
      "輪": 3858,
      "輸": 3859,
      "轉": 3860,
      "轟": 3861,
      "车": 3862,
      "轨": 3863,
      "转": 3864,
      "轮": 3865,
      "软": 3866,
      "轴": 3867,
      "轻": 3868,
      "载": 3869,
      "较": 3870,
      "辆": 3871,
      "辉": 3872,
      "辑": 3873,
      "输": 3874,
      "辙": 3875,
      "辛": 3876,
      "辞": 3877,
      "辟": 3878,
      "辣": 3879,
      "辦": 3880,
      "辨": 3881,
      "辰": 3882,
      "辱": 3883,
      "農": 3884,
      "边": 3885,
      "辺": 3886,
      "込": 3887,
      "达": 3888,
      "迂": 3889,
      "迅": 3890,
      "过": 3891,
      "迎": 3892,
      "运": 3893,
      "近": 3894,
      "返": 3895,
      "还": 3896,
      "这": 3897,
      "进": 3898,
      "远": 3899,
      "违": 3900,
      "连": 3901,
      "迪": 3902,
      "迫": 3903,
      "述": 3904,
      "迷": 3905,
      "追": 3906,
      "退": 3907,
      "送": 3908,
      "适": 3909,
      "逆": 3910,
      "选": 3911,
      "透": 3912,
      "逐": 3913,
      "递": 3914,
      "途": 3915,
      "逗": 3916,
      "這": 3917,
      "通": 3918,
      "速": 3919,
      "造": 3920,
      "連": 3921,
      "週": 3922,
      "進": 3923,
      "逼": 3924,
      "逾": 3925,
      "遅": 3926,
      "遇": 3927,
      "遊": 3928,
      "運": 3929,
      "遍": 3930,
      "過": 3931,
      "道": 3932,
      "達": 3933,
      "違": 3934,
      "遗": 3935,
      "遙": 3936,
      "遞": 3937,
      "遠": 3938,
      "適": 3939,
      "遭": 3940,
      "選": 3941,
      "遺": 3942,
      "避": 3943,
      "邀": 3944,
      "邃": 3945,
      "還": 3946,
      "邊": 3947,
      "邓": 3948,
      "那": 3949,
      "邦": 3950,
      "邮": 3951,
      "邻": 3952,
      "郁": 3953,
      "郊": 3954,
      "郎": 3955,
      "郑": 3956,
      "郡": 3957,
      "部": 3958,
      "郭": 3959,
      "郵": 3960,
      "都": 3961,
      "鄉": 3962,
      "配": 3963,
      "酒": 3964,
      "酬": 3965,
      "酱": 3966,
      "酶": 3967,
      "酸": 3968,
      "醍": 3969,
      "醒": 3970,
      "醜": 3971,
      "醫": 3972,
      "采": 3973,
      "釈": 3974,
      "释": 3975,
      "釋": 3976,
      "里": 3977,
      "重": 3978,
      "野": 3979,
      "量": 3980,
      "金": 3981,
      "針": 3982,
      "鉄": 3983,
      "鉗": 3984,
      "鉢": 3985,
      "鉴": 3986,
      "銀": 3987,
      "銮": 3988,
      "鋼": 3989,
      "錄": 3990,
      "錢": 3991,
      "録": 3992,
      "鍵": 3993,
      "鎮": 3994,
      "鐘": 3995,
      "鐵": 3996,
      "鑒": 3997,
      "鑫": 3998,
      "针": 3999,
      "钉": 4000,
      "钟": 4001,
      "钥": 4002,
      "钱": 4003,
      "钵": 4004,
      "钻": 4005,
      "铁": 4006,
      "铃": 4007,
      "铛": 4008,
      "银": 4009,
      "链": 4010,
      "销": 4011,
      "锁": 4012,
      "锅": 4013,
      "锐": 4014,
      "错": 4015,
      "锣": 4016,
      "锦": 4017,
      "键": 4018,
      "镇": 4019,
      "镜": 4020,
      "镰": 4021,
      "長": 4022,
      "长": 4023,
      "門": 4024,
      "開": 4025,
      "間": 4026,
      "関": 4027,
      "閣": 4028,
      "閱": 4029,
      "關": 4030,
      "门": 4031,
      "闫": 4032,
      "闭": 4033,
      "问": 4034,
      "闯": 4035,
      "闲": 4036,
      "间": 4037,
      "闺": 4038,
      "闻": 4039,
      "阁": 4040,
      "阅": 4041,
      "阎": 4042,
      "阔": 4043,
      "阙": 4044,
      "阜": 4045,
      "队": 4046,
      "阱": 4047,
      "防": 4048,
      "阳": 4049,
      "阴": 4050,
      "阵": 4051,
      "阶": 4052,
      "阻": 4053,
      "阿": 4054,
      "附": 4055,
      "际": 4056,
      "陆": 4057,
      "陈": 4058,
      "降": 4059,
      "限": 4060,
      "院": 4061,
      "陣": 4062,
      "除": 4063,
      "险": 4064,
      "陪": 4065,
      "陵": 4066,
      "陷": 4067,
      "陸": 4068,
      "険": 4069,
      "陽": 4070,
      "隅": 4071,
      "隆": 4072,
      "隈": 4073,
      "隊": 4074,
      "階": 4075,
      "随": 4076,
      "隐": 4077,
      "隔": 4078,
      "際": 4079,
      "障": 4080,
      "隠": 4081,
      "隧": 4082,
      "隨": 4083,
      "險": 4084,
      "隱": 4085,
      "隸": 4086,
      "隻": 4087,
      "难": 4088,
      "雀": 4089,
      "雄": 4090,
      "雅": 4091,
      "集": 4092,
      "雌": 4093,
      "雑": 4094,
      "雖": 4095,
      "雚": 4096,
      "離": 4097,
      "難": 4098,
      "雨": 4099,
      "雪": 4100,
      "雲": 4101,
      "零": 4102,
      "雷": 4103,
      "電": 4104,
      "需": 4105,
      "震": 4106,
      "霊": 4107,
      "霍": 4108,
      "露": 4109,
      "霸": 4110,
      "霹": 4111,
      "靂": 4112,
      "青": 4113,
      "靖": 4114,
      "静": 4115,
      "非": 4116,
      "靠": 4117,
      "面": 4118,
      "革": 4119,
      "鞋": 4120,
      "韋": 4121,
      "韩": 4122,
      "音": 4123,
      "響": 4124,
      "頂": 4125,
      "項": 4126,
      "順": 4127,
      "須": 4128,
      "預": 4129,
      "頒": 4130,
      "領": 4131,
      "頭": 4132,
      "頼": 4133,
      "題": 4134,
      "額": 4135,
      "願": 4136,
      "顛": 4137,
      "類": 4138,
      "顧": 4139,
      "页": 4140,
      "顶": 4141,
      "项": 4142,
      "顺": 4143,
      "顾": 4144,
      "顿": 4145,
      "预": 4146,
      "领": 4147,
      "颈": 4148,
      "频": 4149,
      "颗": 4150,
      "题": 4151,
      "颜": 4152,
      "風": 4153,
      "风": 4154,
      "飛": 4155,
      "飞": 4156,
      "食": 4157,
      "飯": 4158,
      "飲": 4159,
      "飼": 4160,
      "飾": 4161,
      "餃": 4162,
      "養": 4163,
      "饮": 4164,
      "饰": 4165,
      "饼": 4166,
      "馅": 4167,
      "馆": 4168,
      "馈": 4169,
      "首": 4170,
      "香": 4171,
      "馬": 4172,
      "馭": 4173,
      "駅": 4174,
      "駐": 4175,
      "駕": 4176,
      "騎": 4177,
      "騒": 4178,
      "験": 4179,
      "騙": 4180,
      "驗": 4181,
      "驚": 4182,
      "马": 4183,
      "驭": 4184,
      "驱": 4185,
      "驶": 4186,
      "驾": 4187,
      "骂": 4188,
      "验": 4189,
      "骑": 4190,
      "骗": 4191,
      "骨": 4192,
      "骷": 4193,
      "骼": 4194,
      "髏": 4195,
      "髓": 4196,
      "體": 4197,
      "高": 4198,
      "髦": 4199,
      "鬼": 4200,
      "魂": 4201,
      "魅": 4202,
      "魏": 4203,
      "魔": 4204,
      "魯": 4205,
      "鮮": 4206,
      "鱼": 4207,
      "鲁": 4208,
      "鲍": 4209,
      "鲤": 4210,
      "鲫": 4211,
      "鳥": 4212,
      "鳩": 4213,
      "鶏": 4214,
      "鶴": 4215,
      "鷹": 4216,
      "鸟": 4217,
      "鸡": 4218,
      "鸣": 4219,
      "鸦": 4220,
      "鸾": 4221,
      "鹊": 4222,
      "鹤": 4223,
      "鹰": 4224,
      "鹿": 4225,
      "麒": 4226,
      "麟": 4227,
      "麦": 4228,
      "麻": 4229,
      "麼": 4230,
      "黃": 4231,
      "黄": 4232,
      "黎": 4233,
      "黑": 4234,
      "默": 4235,
      "黙": 4236,
      "點": 4237,
      "黨": 4238,
      "鼎": 4239,
      "鼓": 4240,
      "鼠": 4241,
      "鼻": 4242,
      "齐": 4243,
      "齿": 4244,
      "龍": 4245,
      "龙": 4246,
      "龟": 4247,
      "": 4248,
      "": 4249,
      "": 4250,
      "": 4251,
      "": 4252,
      "": 4253,
      "": 4254,
      "": 4255,
      "": 4256,
      "": 4257,
      "": 4258,
      "": 4259,
      "": 4260,
      "": 4261,
      "": 4262,
      "": 4263,
      "": 4264,
      "": 4265,
      "": 4266,
      "": 4267,
      "": 4268,
      "": 4269,
      "": 4270,
      "": 4271,
      "": 4272,
      "": 4273,
      "": 4274,
      "": 4275,
      "": 4276,
      "": 4277,
      "": 4278,
      "": 4279,
      "": 4280,
      "": 4281,
      "": 4282,
      "": 4283,
      "": 4284,
      "": 4285,
      "": 4286,
      "": 4287,
      "": 4288,
      "": 4289,
      "": 4290,
      "": 4291,
      "": 4292,
      "": 4293,
      "": 4294,
      "": 4295,
      "": 4296,
      "": 4297,
      "": 4298,
      "": 4299,
      "": 4300,
      "": 4301,
      "": 4302,
      "": 4303,
      "": 4304,
      "": 4305,
      "": 4306,
      "": 4307,
      "": 4308,
      "": 4309,
      "": 4310,
      "": 4311,
      "": 4312,
      "": 4313,
      "": 4314,
      "": 4315,
      "": 4316,
      "": 4317,
      "ﬀ": 4318,
      "ﬁ": 4319,
      "ﬂ": 4320,
      "ﬃ": 4321,
      "ﷺ": 4322,
      "︎": 4323,
      "️": 4324,
      "︵": 4325,
      "﹏": 4326,
      "ﺀ": 4327,
      "ﺁ": 4328,
      "ﺃ": 4329,
      "ﺇ": 4330,
      "ﺍ": 4331,
      "ﺎ": 4332,
      "ﺑ": 4333,
      "ﺒ": 4334,
      "ﺓ": 4335,
      "ﺔ": 4336,
      "ﺕ": 4337,
      "ﺖ": 4338,
      "ﺗ": 4339,
      "ﺘ": 4340,
      "ﺚ": 4341,
      "ﺜ": 4342,
      "ﺝ": 4343,
      "ﺟ": 4344,
      "ﺠ": 4345,
      "ﺣ": 4346,
      "ﺤ": 4347,
      "ﺧ": 4348,
      "ﺨ": 4349,
      "ﺩ": 4350,
      "ﺪ": 4351,
      "ﺬ": 4352,
      "ﺭ": 4353,
      "ﺮ": 4354,
      "ﺳ": 4355,
      "ﺴ": 4356,
      "ﺶ": 4357,
      "ﺷ": 4358,
      "ﺸ": 4359,
      "ﺺ": 4360,
      "ﺻ": 4361,
      "ﺿ": 4362,
      "ﻁ": 4363,
      "ﻂ": 4364,
      "ﻃ": 4365,
      "ﻄ": 4366,
      "ﻋ": 4367,
      "ﻌ": 4368,
      "ﻏ": 4369,
      "ﻑ": 4370,
      "ﻒ": 4371,
      "ﻓ": 4372,
      "ﻔ": 4373,
      "ﻕ": 4374,
      "ﻗ": 4375,
      "ﻘ": 4376,
      "ﻛ": 4377,
      "ﻜ": 4378,
      "ﻝ": 4379,
      "ﻞ": 4380,
      "ﻟ": 4381,
      "ﻠ": 4382,
      "ﻢ": 4383,
      "ﻣ": 4384,
      "ﻤ": 4385,
      "ﻥ": 4386,
      "ﻦ": 4387,
      "ﻧ": 4388,
      "ﻨ": 4389,
      "ﻩ": 4390,
      "ﻪ": 4391,
      "ﻫ": 4392,
      "ﻬ": 4393,
      "ﻭ": 4394,
      "ﻮ": 4395,
      "ﻰ": 4396,
      "ﻱ": 4397,
      "ﻲ": 4398,
      "ﻳ": 4399,
      "ﻴ": 4400,
      "ﻵ": 4401,
      "ﻷ": 4402,
      "ﻹ": 4403,
      "ﻼ": 4404,
      "﻿": 4405,
      "！": 4406,
      "＆": 4407,
      "（": 4408,
      "）": 4409,
      "＋": 4410,
      "，": 4411,
      "－": 4412,
      "．": 4413,
      "／": 4414,
      "０": 4415,
      "１": 4416,
      "２": 4417,
      "３": 4418,
      "４": 4419,
      "５": 4420,
      "６": 4421,
      "７": 4422,
      "８": 4423,
      "９": 4424,
      "：": 4425,
      "；": 4426,
      "＜": 4427,
      "＝": 4428,
      "＞": 4429,
      "？": 4430,
      "Ａ": 4431,
      "Ｂ": 4432,
      "Ｃ": 4433,
      "Ｄ": 4434,
      "Ｆ": 4435,
      "Ｈ": 4436,
      "Ｊ": 4437,
      "Ｍ": 4438,
      "Ｏ": 4439,
      "Ｐ": 4440,
      "Ｒ": 4441,
      "Ｓ": 4442,
      "Ｔ": 4443,
      "Ｗ": 4444,
      "＼": 4445,
      "ｂ": 4446,
      "ｅ": 4447,
      "ｇ": 4448,
      "ｈ": 4449,
      "ｉ": 4450,
      "ｋ": 4451,
      "ｑ": 4452,
      "ｓ": 4453,
      "～": 4454,
      "｡": 4455,
      "･": 4456,
      "ﾉ": 4457,
      "ﾒ": 4458,
      "ﾖ": 4459,
      "ﾟ": 4460,
      "￡": 4461,
      "￼": 4462,
      "�": 4463,
      "𐃿": 4464,
      "𐡍": 4465,
      "𝒂": 4466,
      "𝒉": 4467,
      "𝒕": 4468,
      "𝛑": 4469,
      "𝛽": 4470,
      "🆘": 4471,
      "🆙": 4472,
      "🇦": 4473,
      "🇧": 4474,
      "🇨": 4475,
      "🇩": 4476,
      "🇪": 4477,
      "🇫": 4478,
      "🇬": 4479,
      "🇮": 4480,
      "🇯": 4481,
      "🇰": 4482,
      "🇱": 4483,
      "🇲": 4484,
      "🇳": 4485,
      "🇴": 4486,
      "🇵": 4487,
      "🇶": 4488,
      "🇷": 4489,
      "🇸": 4490,
      "🇹": 4491,
      "🇺": 4492,
      "🇻": 4493,
      "🇼": 4494,
      "🇽": 4495,
      "🇾": 4496,
      "🇿": 4497,
      "🌀": 4498,
      "🌄": 4499,
      "🌈": 4500,
      "🌊": 4501,
      "🌋": 4502,
      "🌍": 4503,
      "🌎": 4504,
      "🌏": 4505,
      "🌐": 4506,
      "🌙": 4507,
      "🌚": 4508,
      "🌜": 4509,
      "🌞": 4510,
      "🌟": 4511,
      "🌧": 4512,
      "🌩": 4513,
      "🌪": 4514,
      "🌬": 4515,
      "🌮": 4516,
      "🌲": 4517,
      "🌴": 4518,
      "🌵": 4519,
      "🌶": 4520,
      "🌷": 4521,
      "🌸": 4522,
      "🌹": 4523,
      "🌺": 4524,
      "🌻": 4525,
      "🌼": 4526,
      "🌽": 4527,
      "🌿": 4528,
      "🍀": 4529,
      "🍁": 4530,
      "🍂": 4531,
      "🍃": 4532,
      "🍄": 4533,
      "🍆": 4534,
      "🍇": 4535,
      "🍉": 4536,
      "🍊": 4537,
      "🍋": 4538,
      "🍌": 4539,
      "🍍": 4540,
      "🍎": 4541,
      "🍑": 4542,
      "🍒": 4543,
      "🍓": 4544,
      "🍔": 4545,
      "🍕": 4546,
      "🍝": 4547,
      "🍣": 4548,
      "🍤": 4549,
      "🍦": 4550,
      "🍩": 4551,
      "🍫": 4552,
      "🍭": 4553,
      "🍰": 4554,
      "🍳": 4555,
      "🍴": 4556,
      "🍵": 4557,
      "🍷": 4558,
      "🍸": 4559,
      "🍹": 4560,
      "🍺": 4561,
      "🍻": 4562,
      "🍼": 4563,
      "🍾": 4564,
      "🍿": 4565,
      "🎀": 4566,
      "🎁": 4567,
      "🎂": 4568,
      "🎃": 4569,
      "🎄": 4570,
      "🎅": 4571,
      "🎆": 4572,
      "🎈": 4573,
      "🎉": 4574,
      "🎊": 4575,
      "🎙": 4576,
      "🎟": 4577,
      "🎠": 4578,
      "🎤": 4579,
      "🎥": 4580,
      "🎧": 4581,
      "🎨": 4582,
      "🎩": 4583,
      "🎬": 4584,
      "🎮": 4585,
      "🎯": 4586,
      "🎵": 4587,
      "🎶": 4588,
      "🎸": 4589,
      "🎼": 4590,
      "🎾": 4591,
      "🏀": 4592,
      "🏁": 4593,
      "🏃": 4594,
      "🏆": 4595,
      "🏈": 4596,
      "🏋": 4597,
      "🏍": 4598,
      "🏏": 4599,
      "🏒": 4600,
      "🏔": 4601,
      "🏚": 4602,
      "🏡": 4603,
      "🏰": 4604,
      "🏳": 4605,
      "🏴": 4606,
      "🏻": 4607,
      "🏼": 4608,
      "🏽": 4609,
      "🏾": 4610,
      "🏿": 4611,
      "🐀": 4612,
      "🐂": 4613,
      "🐃": 4614,
      "🐄": 4615,
      "🐇": 4616,
      "🐈": 4617,
      "🐉": 4618,
      "🐍": 4619,
      "🐎": 4620,
      "🐐": 4621,
      "🐓": 4622,
      "🐔": 4623,
      "🐕": 4624,
      "🐗": 4625,
      "🐘": 4626,
      "🐙": 4627,
      "🐝": 4628,
      "🐟": 4629,
      "🐢": 4630,
      "🐣": 4631,
      "🐥": 4632,
      "🐦": 4633,
      "🐧": 4634,
      "🐬": 4635,
      "🐭": 4636,
      "🐮": 4637,
      "🐯": 4638,
      "🐰": 4639,
      "🐱": 4640,
      "🐶": 4641,
      "🐷": 4642,
      "🐸": 4643,
      "🐺": 4644,
      "🐻": 4645,
      "🐼": 4646,
      "🐿": 4647,
      "👀": 4648,
      "👁": 4649,
      "👃": 4650,
      "👄": 4651,
      "👅": 4652,
      "👆": 4653,
      "👇": 4654,
      "👈": 4655,
      "👉": 4656,
      "👊": 4657,
      "👋": 4658,
      "👌": 4659,
      "👍": 4660,
      "👎": 4661,
      "👏": 4662,
      "👐": 4663,
      "👑": 4664,
      "👒": 4665,
      "👓": 4666,
      "👗": 4667,
      "👙": 4668,
      "👜": 4669,
      "👟": 4670,
      "👠": 4671,
      "👣": 4672,
      "👦": 4673,
      "👧": 4674,
      "👨": 4675,
      "👩": 4676,
      "👪": 4677,
      "👫": 4678,
      "👬": 4679,
      "👮": 4680,
      "👯": 4681,
      "👱": 4682,
      "👶": 4683,
      "👸": 4684,
      "👹": 4685,
      "👺": 4686,
      "👻": 4687,
      "👼": 4688,
      "👽": 4689,
      "💀": 4690,
      "💁": 4691,
      "💃": 4692,
      "💄": 4693,
      "💅": 4694,
      "💋": 4695,
      "💌": 4696,
      "💍": 4697,
      "💎": 4698,
      "💑": 4699,
      "💓": 4700,
      "💔": 4701,
      "💕": 4702,
      "💖": 4703,
      "💗": 4704,
      "💘": 4705,
      "💙": 4706,
      "💚": 4707,
      "💛": 4708,
      "💜": 4709,
      "💝": 4710,
      "💞": 4711,
      "💡": 4712,
      "💣": 4713,
      "💤": 4714,
      "💥": 4715,
      "💦": 4716,
      "💨": 4717,
      "💩": 4718,
      "💪": 4719,
      "💫": 4720,
      "💬": 4721,
      "💯": 4722,
      "💰": 4723,
      "💳": 4724,
      "💵": 4725,
      "💸": 4726,
      "💽": 4727,
      "📅": 4728,
      "📈": 4729,
      "📍": 4730,
      "📎": 4731,
      "📓": 4732,
      "📚": 4733,
      "📜": 4734,
      "📞": 4735,
      "📡": 4736,
      "📢": 4737,
      "📣": 4738,
      "📰": 4739,
      "📱": 4740,
      "📷": 4741,
      "📸": 4742,
      "📹": 4743,
      "📺": 4744,
      "🔆": 4745,
      "🔊": 4746,
      "🔋": 4747,
      "🔍": 4748,
      "🔎": 4749,
      "🔑": 4750,
      "🔒": 4751,
      "🔓": 4752,
      "🔔": 4753,
      "🔝": 4754,
      "🔥": 4755,
      "🔧": 4756,
      "🔨": 4757,
      "🔪": 4758,
      "🔫": 4759,
      "🔮": 4760,
      "🔴": 4761,
      "🔵": 4762,
      "🔹": 4763,
      "🔻": 4764,
      "🔽": 4765,
      "🕀": 4766,
      "🕊": 4767,
      "🕎": 4768,
      "🕵": 4769,
      "🕶": 4770,
      "🕷": 4771,
      "🕹": 4772,
      "🖇": 4773,
      "🖕": 4774,
      "🖖": 4775,
      "🖥": 4776,
      "🖱": 4777,
      "🗞": 4778,
      "🗣": 4779,
      "🗳": 4780,
      "🗺": 4781,
      "🗽": 4782,
      "🗿": 4783,
      "😀": 4784,
      "😁": 4785,
      "😂": 4786,
      "😃": 4787,
      "😄": 4788,
      "😅": 4789,
      "😆": 4790,
      "😇": 4791,
      "😈": 4792,
      "😉": 4793,
      "😊": 4794,
      "😋": 4795,
      "😌": 4796,
      "😍": 4797,
      "😎": 4798,
      "😏": 4799,
      "😐": 4800,
      "😑": 4801,
      "😒": 4802,
      "😓": 4803,
      "😔": 4804,
      "😕": 4805,
      "😖": 4806,
      "😘": 4807,
      "😛": 4808,
      "😜": 4809,
      "😝": 4810,
      "😞": 4811,
      "😠": 4812,
      "😡": 4813,
      "😢": 4814,
      "😣": 4815,
      "😤": 4816,
      "😥": 4817,
      "😦": 4818,
      "😩": 4819,
      "😪": 4820,
      "😫": 4821,
      "😬": 4822,
      "😭": 4823,
      "😮": 4824,
      "😰": 4825,
      "😱": 4826,
      "😲": 4827,
      "😳": 4828,
      "😴": 4829,
      "😶": 4830,
      "😷": 4831,
      "😹": 4832,
      "😺": 4833,
      "😻": 4834,
      "😼": 4835,
      "😿": 4836,
      "🙁": 4837,
      "🙂": 4838,
      "🙃": 4839,
      "🙄": 4840,
      "🙅": 4841,
      "🙆": 4842,
      "🙇": 4843,
      "🙈": 4844,
      "🙉": 4845,
      "🙊": 4846,
      "🙋": 4847,
      "🙌": 4848,
      "🙏": 4849,
      "🚂": 4850,
      "🚃": 4851,
      "🚓": 4852,
      "🚔": 4853,
      "🚗": 4854,
      "🚙": 4855,
      "🚝": 4856,
      "🚞": 4857,
      "🚟": 4858,
      "🚢": 4859,
      "🚣": 4860,
      "🚥": 4861,
      "🚦": 4862,
      "🚨": 4863,
      "🚫": 4864,
      "🚮": 4865,
      "🚶": 4866,
      "🚺": 4867,
      "🚽": 4868,
      "🛂": 4869,
      "🛃": 4870,
      "🛩": 4871,
      "🛫": 4872,
      "🛶": 4873,
      "🤐": 4874,
      "🤑": 4875,
      "🤓": 4876,
      "🤔": 4877,
      "🤖": 4878,
      "🤗": 4879,
      "🤘": 4880,
      "🤙": 4881,
      "🤝": 4882,
      "🤠": 4883,
      "🤡": 4884,
      "🤢": 4885,
      "🤣": 4886,
      "🤤": 4887,
      "🤦": 4888,
      "🤩": 4889,
      "🤪": 4890,
      "🤬": 4891,
      "🤮": 4892,
      "🤰": 4893,
      "🤶": 4894,
      "🤷": 4895,
      "🥀": 4896,
      "🥃": 4897,
      "🥄": 4898,
      "🥅": 4899,
      "🥈": 4900,
      "🥛": 4901,
      "🦀": 4902,
      "🦁": 4903,
      "🦂": 4904,
      "🦃": 4905,
      "🦄": 4906,
      "🦅": 4907,
      "🦍": 4908,
      "🧐": 4909,
      "🿿": 4910,
      "󠁢": 4911,
      "󠁣": 4912,
      "󠁧": 4913,
      "󠁬": 4914,
      "󠁳": 4915,
      "󠁴": 4916,
      "󠁷": 4917,
      "󠁿": 4918,
      "th": 4919,
      "in": 4920,
      "er": 4921,
      "an": 4922,
      "on": 4923,
      "the": 4924,
      "re": 4925,
      "at": 4926,
      "en": 4927,
      "or": 4928,
      "is": 4929,
      "al": 4930,
      "es": 4931,
      "ed": 4932,
      "ou": 4933,
      "to": 4934,
      "ing": 4935,
      "ar": 4936,
      "of": 4937,
      "as": 4938,
      "it": 4939,
      "and": 4940,
      "ic": 4941,
      "le": 4942,
      "st": 4943,
      "ion": 4944,
      "om": 4945,
      "ent": 4946,
      "he": 4947,
      "il": 4948,
      "se": 4949,
      "ac": 4950,
      "ad": 4951,
      "id": 4952,
      "be": 4953,
      "ve": 4954,
      "ly": 4955,
      "ro": 4956,
      "for": 4957,
      "am": 4958,
      "that": 4959,
      "ol": 4960,
      "wh": 4961,
      "ch": 4962,
      "ow": 4963,
      "im": 4964,
      "ter": 4965,
      "ay": 4966,
      "ig": 4967,
      "ver": 4968,
      "ot": 4969,
      "ation": 4970,
      "un": 4971,
      "ur": 4972,
      "ut": 4973,
      "ce": 4974,
      "are": 4975,
      "ir": 4976,
      "de": 4977,
      "ag": 4978,
      "us": 4979,
      "con": 4980,
      "et": 4981,
      "ct": 4982,
      "The": 4983,
      "ith": 4984,
      "ab": 4985,
      "ill": 4986,
      "res": 4987,
      "tr": 4988,
      "el": 4989,
      "em": 4990,
      "com": 4991,
      "su": 4992,
      "ha": 4993,
      "pe": 4994,
      "ne": 4995,
      "ers": 4996,
      "with": 4997,
      "li": 4998,
      "ere": 4999,
      "our": 5000,
      "op": 5001,
      "ld": 5002,
      "all": 5003,
      "ate": 5004,
      "ul": 5005,
      "mo": 5006,
      "pro": 5007,
      "ts": 5008,
      "ain": 5009,
      "fr": 5010,
      "lo": 5011,
      "was": 5012,
      "ke": 5013,
      "out": 5014,
      "est": 5015,
      "ment": 5016,
      "oun": 5017,
      "we": 5018,
      "by": 5019,
      "not": 5020,
      "ex": 5021,
      "his": 5022,
      "igh": 5023,
      "ap": 5024,
      "sh": 5025,
      "have": 5026,
      "one": 5027,
      "if": 5028,
      "so": 5029,
      "um": 5030,
      "ity": 5031,
      "po": 5032,
      "pl": 5033,
      "ther": 5034,
      "from": 5035,
      "ess": 5036,
      "art": 5037,
      "ri": 5038,
      "ould": 5039,
      "ew": 5040,
      "sa": 5041,
      "you": 5042,
      "has": 5043,
      "ies": 5044,
      "ive": 5045,
      "over": 5046,
      "ist": 5047,
      "this": 5048,
      "end": 5049,
      "up": 5050,
      "ial": 5051,
      "20": 5052,
      "por": 5053,
      "do": 5054,
      "ear": 5055,
      "ant": 5056,
      "qu": 5057,
      "ack": 5058,
      "od": 5059,
      "ust": 5060,
      "wor": 5061,
      "act": 5062,
      "In": 5063,
      "per": 5064,
      "cl": 5065,
      "bl": 5066,
      "gh": 5067,
      "who": 5068,
      "man": 5069,
      "ak": 5070,
      "ight": 5071,
      "au": 5072,
      "ast": 5073,
      "ans": 5074,
      "said": 5075,
      "they": 5076,
      "te": 5077,
      "ge": 5078,
      "pr": 5079,
      "der": 5080,
      "iv": 5081,
      "ome": 5082,
      "will": 5083,
      "gr": 5084,
      "mer": 5085,
      "Th": 5086,
      "ore": 5087,
      "ep": 5088,
      "me": 5089,
      "ard": 5090,
      "ran": 5091,
      "ich": 5092,
      "but": 5093,
      "ev": 5094,
      "ia": 5095,
      "ra": 5096,
      "ally": 5097,
      "their": 5098,
      "day": 5099,
      "ous": 5100,
      "ong": 5101,
      "ough": 5102,
      "can": 5103,
      "ary": 5104,
      "ind": 5105,
      "ber": 5106,
      "now": 5107,
      "ud": 5108,
      "oc": 5109,
      "ign": 5110,
      "off": 5111,
      "go": 5112,
      "ice": 5113,
      "ine": 5114,
      "port": 5115,
      "An": 5116,
      "ions": 5117,
      "ian": 5118,
      ".”": 5119,
      "red": 5120,
      "fe": 5121,
      "ide": 5122,
      "new": 5123,
      "more": 5124,
      "about": 5125,
      "ell": 5126,
      "St": 5127,
      "..": 5128,
      "ail": 5129,
      "ok": 5130,
      "ound": 5131,
      "iz": 5132,
      "00": 5133,
      "its": 5134,
      "ef": 5135,
      "af": 5136,
      "ass": 5137,
      "had": 5138,
      "which": 5139,
      "year": 5140,
      "age": 5141,
      "bo": 5142,
      "ated": 5143,
      "any": 5144,
      "New": 5145,
      "would": 5146,
      "no": 5147,
      "It": 5148,
      "pres": 5149,
      "tim": 5150,
      "ence": 5151,
      "dis": 5152,
      "sc": 5153,
      "ubl": 5154,
      "own": 5155,
      "int": 5156,
      "Ch": 5157,
      "la": 5158,
      "other": 5159,
      "ue": 5160,
      "vi": 5161,
      "sp": 5162,
      "ople": 5163,
      "been": 5164,
      "her": 5165,
      "were": 5166,
      "pol": 5167,
      "201": 5168,
      "ure": 5169,
      "Wh": 5170,
      "some": 5171,
      "ite": 5172,
      "ident": 5173,
      "ory": 5174,
      "cent": 5175,
      "ates": 5176,
      "ip": 5177,
      "comp": 5178,
      "ks": 5179,
      "uc": 5180,
      "ser": 5181,
      "like": 5182,
      "thing": 5183,
      "ical": 5184,
      "ations": 5185,
      "people": 5186,
      "ake": 5187,
      "ame": 5188,
      "way": 5189,
      "av": 5190,
      "He": 5191,
      "ase": 5192,
      "ire": 5193,
      "pre": 5194,
      "very": 5195,
      "co": 5196,
      "ublic": 5197,
      "ren": 5198,
      "Amer": 5199,
      "Americ": 5200,
      "able": 5201,
      "ish": 5202,
      "ace": 5203,
      "cr": 5204,
      "att": 5205,
      "inter": 5206,
      "get": 5207,
      "pos": 5208,
      "read": 5209,
      "ll": 5210,
      "cont": 5211,
      "ach": 5212,
      "than": 5213,
      "what": 5214,
      "--": 5215,
      "Re": 5216,
      "ree": 5217,
      "Tr": 5218,
      "old": 5219,
      "part": 5220,
      "coun": 5221,
      "cre": 5222,
      "med": 5223,
      "ib": 5224,
      "my": 5225,
      "cor": 5226,
      "them": 5227,
      "ho": 5228,
      "Iran": 5229,
      "Con": 5230,
      "lect": 5231,
      "there": 5232,
      "min": 5233,
      ",”": 5234,
      "Un": 5235,
      "''": 5236,
      "pt": 5237,
      "ick": 5238,
      "your": 5239,
      "br": 5240,
      "ance": 5241,
      "just": 5242,
      "ress": 5243,
      "ens": 5244,
      "when": 5245,
      "cur": 5246,
      "We": 5247,
      "work": 5248,
      "ors": 5249,
      "Is": 5250,
      "ile": 5251,
      "also": 5252,
      "fore": 5253,
      "time": 5254,
      "spe": 5255,
      "ump": 5256,
      "try": 5257,
      "overn": 5258,
      "wo": 5259,
      "ade": 5260,
      "str": 5261,
      "again": 5262,
      "ob": 5263,
      "ang": 5264,
      "fir": 5265,
      "low": 5266,
      "mar": 5267,
      "cial": 5268,
      "enc": 5269,
      "Mr": 5270,
      "19": 5271,
      "ose": 5272,
      "cau": 5273,
      "ition": 5274,
      "ater": 5275,
      "into": 5276,
      "ama": 5277,
      "know": 5278,
      "mon": 5279,
      "most": 5280,
      "ink": 5281,
      "say": 5282,
      "ty": 5283,
      "sy": 5284,
      "she": 5285,
      "uct": 5286,
      "But": 5287,
      "fer": 5288,
      "Ob": 5289,
      "after": 5290,
      "him": 5291,
      "ters": 5292,
      "form": 5293,
      "cause": 5294,
      "how": 5295,
      "ning": 5296,
      "og": 5297,
      "ult": 5298,
      "ild": 5299,
      "sub": 5300,
      "amp": 5301,
      "sel": 5302,
      "And": 5303,
      "ict": 5304,
      "only": 5305,
      "This": 5306,
      "row": 5307,
      "let": 5308,
      "govern": 5309,
      "US": 5310,
      "uss": 5311,
      "As": 5312,
      "back": 5313,
      "ful": 5314,
      "lear": 5315,
      "mis": 5316,
      "reg": 5317,
      "pp": 5318,
      "even": 5319,
      "under": 5320,
      "Trump": 5321,
      "add": 5322,
      "ie": 5323,
      "ck": 5324,
      "vers": 5325,
      "os": 5326,
      "could": 5327,
      "nation": 5328,
      "main": 5329,
      "Obama": 5330,
      "inv": 5331,
      "reat": 5332,
      "ry": 5333,
      "ents": 5334,
      "ited": 5335,
      "Ad": 5336,
      "two": 5337,
      "war": 5338,
      "leg": 5339,
      "call": 5340,
      "serv": 5341,
      "vel": 5342,
      "ating": 5343,
      "cess": 5344,
      "don": 5345,
      "come": 5346,
      "government": 5347,
      "many": 5348,
      "comm": 5349,
      "You": 5350,
      "des": 5351,
      "years": 5352,
      "rough": 5353,
      "alth": 5354,
      "ons": 5355,
      "ting": 5356,
      "where": 5357,
      "use": 5358,
      "IN": 5359,
      "fin": 5360,
      "Rep": 5361,
      "because": 5362,
      "see": 5363,
      "Al": 5364,
      "did": 5365,
      "200": 5366,
      "down": 5367,
      "first": 5368,
      "ash": 5369,
      "rit": 5370,
      "vis": 5371,
      "sup": 5372,
      "cer": 5373,
      "col": 5374,
      "bet": 5375,
      "Se": 5376,
      "air": 5377,
      "fl": 5378,
      "ious": 5379,
      "ins": 5380,
      "RE": 5381,
      "ст": 5382,
      "law": 5383,
      "...": 5384,
      "ual": 5385,
      "hel": 5386,
      "ph": 5387,
      "ement": 5388,
      "urn": 5389,
      "incl": 5390,
      "right": 5391,
      "illion": 5392,
      "ative": 5393,
      "ork": 5394,
      "gu": 5395,
      "ath": 5396,
      "ci": 5397,
      "being": 5398,
      "ism": 5399,
      "und": 5400,
      "may": 5401,
      "TH": 5402,
      "oup": 5403,
      "ven": 5404,
      "ving": 5405,
      "ities": 5406,
      "news": 5407,
      "against": 5408,
      "ON": 5409,
      "ener": 5410,
      "every": 5411,
      "cord": 5412,
      "through": 5413,
      "ics": 5414,
      "ann": 5415,
      "then": 5416,
      "ort": 5417,
      "those": 5418,
      "News": 5419,
      "ug": 5420,
      "ved": 5421,
      "last": 5422,
      "these": 5423,
      "cho": 5424,
      "need": 5425,
      "IS": 5426,
      "ists": 5427,
      "lead": 5428,
      "ied": 5429,
      "American": 5430,
      "uch": 5431,
      "think": 5432,
      "high": 5433,
      "Le": 5434,
      "world": 5435,
      "less": 5436,
      "rel": 5437,
      "story": 5438,
      "Mar": 5439,
      "polit": 5440,
      "Republic": 5441,
      "ments": 5442,
      "gan": 5443,
      "Russ": 5444,
      "Ar": 5445,
      "If": 5446,
      "should": 5447,
      "lar": 5448,
      "tain": 5449,
      "long": 5450,
      "ise": 5451,
      "top": 5452,
      "prod": 5453,
      "par": 5454,
      "resident": 5455,
      "ton": 5456,
      "uring": 5457,
      "je": 5458,
      "aking": 5459,
      "ble": 5460,
      "used": 5461,
      "ouse": 5462,
      "conom": 5463,
      "public": 5464,
      "dec": 5465,
      "play": 5466,
      "10": 5467,
      "well": 5468,
      "ever": 5469,
      "York": 5470,
      "bu": 5471,
      "land": 5472,
      "stem": 5473,
      "ces": 5474,
      "ves": 5475,
      "wee": 5476,
      "No": 5477,
      "tt": 5478,
      "cut": 5479,
      "ings": 5480,
      "lease": 5481,
      "й": 5482,
      "self": 5483,
      "AT": 5484,
      "want": 5485,
      "make": 5486,
      "ince": 5487,
      "tal": 5488,
      "mem": 5489,
      "state": 5490,
      "offic": 5491,
      "cond": 5492,
      "does": 5493,
      "look": 5494,
      "made": 5495,
      "ax": 5496,
      "ject": 5497,
      "pect": 5498,
      "before": 5499,
      "ank": 5500,
      "ily": 5501,
      "imes": 5502,
      "miss": 5503,
      "AN": 5504,
      "show": 5505,
      "elect": 5506,
      "For": 5507,
      "view": 5508,
      "report": 5509,
      "sur": 5510,
      "ific": 5511,
      "imp": 5512,
      "led": 5513,
      "но": 5514,
      "They": 5515,
      "such": 5516,
      "als": 5517,
      "much": 5518,
      "stand": 5519,
      "ER": 5520,
      "system": 5521,
      "Jo": 5522,
      "ft": 5523,
      "rat": 5524,
      "ner": 5525,
      "includ": 5526,
      "turn": 5527,
      "ys": 5528,
      "going": 5529,
      "minis": 5530,
      "di": 5531,
      "Com": 5532,
      "pers": 5533,
      "Dem": 5534,
      "President": 5535,
      "ional": 5536,
      "put": 5537,
      "itt": 5538,
      "ра": 5539,
      "here": 5540,
      "то": 5541,
      "fo": 5542,
      "ices": 5543,
      "Cl": 5544,
      "cons": 5545,
      "ss": 5546,
      ".\"": 5547,
      "ower": 5548,
      "aim": 5549,
      "ни": 5550,
      "lam": 5551,
      "ased": 5552,
      "inue": 5553,
      "ible": 5554,
      "ilit": 5555,
      "point": 5556,
      "car": 5557,
      "fect": 5558,
      "fam": 5559,
      "real": 5560,
      "mark": 5561,
      "на": 5562,
      "help": 5563,
      "ror": 5564,
      "ense": 5565,
      "while": 5566,
      "ward": 5567,
      "olog": 5568,
      "ush": 5569,
      "head": 5570,
      "cour": 5571,
      "though": 5572,
      "United": 5573,
      "ms": 5574,
      "ris": 5575,
      "io": 5576,
      "dr": 5577,
      "000": 5578,
      "order": 5579,
      "national": 5580,
      "les": 5581,
      "Iranian": 5582,
      "beli": 5583,
      "fact": 5584,
      "De": 5585,
      "son": 5586,
      "ma": 5587,
      "econom": 5588,
      "ten": 5589,
      "val": 5590,
      "king": 5591,
      "child": 5592,
      "ency": 5593,
      ").": 5594,
      "line": 5595,
      "Democ": 5596,
      "sure": 5597,
      "group": 5598,
      "ced": 5599,
      "irect": 5600,
      "president": 5601,
      "There": 5602,
      "book": 5603,
      "take": 5604,
      "good": 5605,
      "country": 5606,
      "gy": 5607,
      "ason": 5608,
      "ave": 5609,
      "stud": 5610,
      "clo": 5611,
      "ро": 5612,
      "percent": 5613,
      "press": 5614,
      "ility": 5615,
      "ww": 5616,
      "So": 5617,
      "week": 5618,
      "That": 5619,
      "wom": 5620,
      "dif": 5621,
      "ко": 5622,
      "def": 5623,
      "Cont": 5624,
      "Sen": 5625,
      "ub": 5626,
      "tern": 5627,
      "plan": 5628,
      "Democrat": 5629,
      "ular": 5630,
      "Islam": 5631,
      "ines": 5632,
      "ually": 5633,
      "11": 5634,
      "aw": 5635,
      "plo": 5636,
      "ext": 5637,
      "vot": 5638,
      "cover": 5639,
      "issu": 5640,
      "pri": 5641,
      "ivers": 5642,
      "camp": 5643,
      "che": 5644,
      "aren": 5645,
      "ollow": 5646,
      "reading": 5647,
      "power": 5648,
      "invest": 5649,
      "arch": 5650,
      "during": 5651,
      "attack": 5652,
      "stit": 5653,
      "sign": 5654,
      "по": 5655,
      "support": 5656,
      "cap": 5657,
      "Please": 5658,
      "run": 5659,
      "vert": 5660,
      "Mo": 5661,
      "oper": 5662,
      "ah": 5663,
      "uro": 5664,
      "atch": 5665,
      "resp": 5666,
      "EN": 5667,
      "still": 5668,
      "ime": 5669,
      "happ": 5670,
      "Ira": 5671,
      "She": 5672,
      "America": 5673,
      "ives": 5674,
      "$$": 5675,
      "quest": 5676,
      "person": 5677,
      "life": 5678,
      "Iraq": 5679,
      "found": 5680,
      "ff": 5681,
      "same": 5682,
      "chool": 5683,
      "On": 5684,
      "month": 5685,
      "Pro": 5686,
      "char": 5687,
      "ween": 5688,
      "Be": 5689,
      "enter": 5690,
      "fi": 5691,
      "pay": 5692,
      "gram": 5693,
      "care": 5694,
      "oney": 5695,
      "ues": 5696,
      "prov": 5697,
      "ask": 5698,
      "claim": 5699,
      "stitut": 5700,
      "num": 5701,
      "AL": 5702,
      "must": 5703,
      "big": 5704,
      "ider": 5705,
      "sto": 5706,
      "called": 5707,
      "cording": 5708,
      "),": 5709,
      "ik": 5710,
      "coming": 5711,
      "sm": 5712,
      "ds": 5713,
      "States": 5714,
      "between": 5715,
      "million": 5716,
      "eral": 5717,
      "acy": 5718,
      "Times": 5719,
      "health": 5720,
      "chan": 5721,
      "got": 5722,
      "uclear": 5723,
      "ilitary": 5724,
      "since": 5725,
      "bers": 5726,
      "ared": 5727,
      "iness": 5728,
      "cept": 5729,
      ",\"": 5730,
      "bus": 5731,
      "hand": 5732,
      "ре": 5733,
      "OR": 5734,
      "ights": 5735,
      "eng": 5736,
      "Sh": 5737,
      "ically": 5738,
      "set": 5739,
      "including": 5740,
      "ized": 5741,
      "three": 5742,
      "cal": 5743,
      "Up": 5744,
      "Fr": 5745,
      "12": 5746,
      "official": 5747,
      "hn": 5748,
      "tax": 5749,
      "cs": 5750,
      "hum": 5751,
      "Ro": 5752,
      "commun": 5753,
      "hoto": 5754,
      "far": 5755,
      "Sy": 5756,
      "product": 5757,
      "appe": 5758,
      "lim": 5759,
      "To": 5760,
      "political": 5761,
      "ste": 5762,
      "ina": 5763,
      "direct": 5764,
      "//": 5765,
      "soci": 5766,
      "start": 5767,
      "ures": 5768,
      "market": 5769,
      "ians": 5770,
      "az": 5771,
      "ports": 5772,
      "ness": 5773,
      "told": 5774,
      "curren": 5775,
      "writ": 5776,
      "around": 5777,
      "akes": 5778,
      "post": 5779,
      "Recs": 5780,
      "----": 5781,
      "find": 5782,
      "trans": 5783,
      "another": 5784,
      "blo": 5785,
      "kill": 5786,
      "too": 5787,
      "aign": 5788,
      "House": 5789,
      "ames": 5790,
      "contro": 5791,
      "recent": 5792,
      "Pl": 5793,
      "John": 5794,
      "How": 5795,
      "net": 5796,
      "bal": 5797,
      "chang": 5798,
      "50": 5799,
      "stat": 5800,
      "What": 5801,
      "few": 5802,
      "ли": 5803,
      "never": 5804,
      "THE": 5805,
      "ttp": 5806,
      "cas": 5807,
      "://": 5808,
      "го": 5809,
      "http": 5810,
      "AS": 5811,
      "vertis": 5812,
      "rece": 5813,
      "inform": 5814,
      "place": 5815,
      "AR": 5816,
      "rist": 5817,
      "ways": 5818,
      "Continue": 5819,
      "program": 5820,
      "app": 5821,
      "poss": 5822,
      "Don": 5823,
      "icle": 5824,
      "не": 5825,
      "En": 5826,
      "prom": 5827,
      "thor": 5828,
      "money": 5829,
      "pass": 5830,
      "jo": 5831,
      "Go": 5832,
      "both": 5833,
      "came": 5834,
      "30": 5835,
      "Pol": 5836,
      "Euro": 5837,
      "ient": 5838,
      "prof": 5839,
      "former": 5840,
      "follow": 5841,
      "ages": 5842,
      "ety": 5843,
      "gest": 5844,
      "mat": 5845,
      "rest": 5846,
      "Af": 5847,
      "tra": 5848,
      "gener": 5849,
      "home": 5850,
      "ES": 5851,
      "Sup": 5852,
      "polic": 5853,
      "ction": 5854,
      "Co": 5855,
      "vent": 5856,
      "bre": 5857,
      "ship": 5858,
      "ural": 5859,
      "seem": 5860,
      "olut": 5861,
      "Russia": 5862,
      "tell": 5863,
      "really": 5864,
      "jor": 5865,
      "vo": 5866,
      "xt": 5867,
      "ger": 5868,
      "ale": 5869,
      "Islamic": 5870,
      "ED": 5871,
      "Bo": 5872,
      "ready": 5873,
      "campaign": 5874,
      "requ": 5875,
      "ederal": 5876,
      "ather": 5877,
      "Or": 5878,
      "hist": 5879,
      "ond": 5880,
      "exper": 5881,
      "letter": 5882,
      "ington": 5883,
      "den": 5884,
      "ital": 5885,
      "contr": 5886,
      "ational": 5887,
      "ants": 5888,
      "organ": 5889,
      "wit": 5890,
      "Nor": 5891,
      "bro": 5892,
      "outh": 5893,
      "ned": 5894,
      "incre": 5895,
      "reme": 5896,
      "ize": 5897,
      "curity": 5898,
      "ago": 5899,
      "change": 5900,
      "ails": 5901,
      "ister": 5902,
      "move": 5903,
      "differ": 5904,
      "school": 5905,
      "vir": 5906,
      "children": 5907,
      "scri": 5908,
      "bor": 5909,
      "во": 5910,
      "later": 5911,
      "might": 5912,
      "mission": 5913,
      "won": 5914,
      "bod": 5915,
      "great": 5916,
      "Te": 5917,
      "When": 5918,
      "media": 5919,
      "reet": 5920,
      "keep": 5921,
      "without": 5922,
      "free": 5923,
      "ross": 5924,
      "ix": 5925,
      "unt": 5926,
      "Clint": 5927,
      "pop": 5928,
      "ending": 5929,
      "15": 5930,
      "ministr": 5931,
      "men": 5932,
      "ization": 5933,
      "allow": 5934,
      "search": 5935,
      "Christ": 5936,
      "ref": 5937,
      "sing": 5938,
      "open": 5939,
      "Europe": 5940,
      "IT": 5941,
      "says": 5942,
      "left": 5943,
      "ator": 5944,
      "present": 5945,
      "days": 5946,
      "proble": 5947,
      "consider": 5948,
      "ls": 5949,
      "pur": 5950,
      "fil": 5951,
      "IC": 5952,
      "exp": 5953,
      "ately": 5954,
      "ude": 5955,
      "military": 5956,
      "State": 5957,
      "Clinton": 5958,
      "current": 5959,
      "lot": 5960,
      "giv": 5961,
      "using": 5962,
      "ony": 5963,
      "business": 5964,
      "rael": 5965,
      "cy": 5966,
      "next": 5967,
      "ished": 5968,
      "At": 5969,
      "grow": 5970,
      "fund": 5971,
      "appro": 5972,
      "Israel": 5973,
      "ploy": 5974,
      "Col": 5975,
      "ief": 5976,
      "Car": 5977,
      "ify": 5978,
      "terror": 5979,
      "ont": 5980,
      "18": 5981,
      "major": 5982,
      "ittle": 5983,
      "win": 5984,
      "things": 5985,
      "Ex": 5986,
      "2016": 5987,
      "thers": 5988,
      "something": 5989,
      "hold": 5990,
      "job": 5991,
      "site": 5992,
      "Syri": 5993,
      "case": 5994,
      "comes": 5995,
      "near": 5996,
      "Pr": 5997,
      "Mc": 5998,
      "today": 5999,
      "fac": 6000,
      "Pe": 6001,
      "iday": 6002,
      "family": 6003,
      "aid": 6004,
      "human": 6005,
      "test": 6006,
      "ends": 6007,
      "ва": 6008,
      "least": 6009,
      "Wash": 6010,
      "iversity": 6011,
      "author": 6012,
      "Advertis": 6013,
      "ars": 6014,
      "Cong": 6015,
      "mber": 6016,
      "foreign": 6017,
      "sit": 6018,
      "acc": 6019,
      "Republican": 6020,
      "ban": 6021,
      "sum": 6022,
      "cu": 6023,
      "deb": 6024,
      "ling": 6025,
      "import": 6026,
      "clear": 6027,
      "ney": 6028,
      "plain": 6029,
      "gin": 6030,
      "те": 6031,
      "uary": 6032,
      "ended": 6033,
      "ны": 6034,
      "ca": 6035,
      "Washington": 6036,
      "women": 6037,
      "social": 6038,
      "why": 6039,
      "company": 6040,
      "police": 6041,
      "adv": 6042,
      "TO": 6043,
      "special": 6044,
      "ри": 6045,
      "four": 6046,
      "ided": 6047,
      "list": 6048,
      "gress": 6049,
      "uck": 6050,
      "ald": 6051,
      "May": 6052,
      "де": 6053,
      "cret": 6054,
      "fort": 6055,
      "viol": 6056,
      "ru": 6057,
      "ministration": 6058,
      "inc": 6059,
      "Congress": 6060,
      "ка": 6061,
      "partic": 6062,
      "mand": 6063,
      "Americans": 6064,
      "ground": 6065,
      "fri": 6066,
      "interest": 6067,
      "ably": 6068,
      "eve": 6069,
      "Ag": 6070,
      "light": 6071,
      "velop": 6072,
      "ged": 6073,
      "dep": 6074,
      "subscri": 6075,
      "99": 6076,
      "ests": 6077,
      "best": 6078,
      "aff": 6079,
      "ral": 6080,
      "War": 6081,
      "little": 6082,
      "Bar": 6083,
      "posed": 6084,
      "OF": 6085,
      "Li": 6086,
      "happen": 6087,
      "Po": 6088,
      "ord": 6089,
      "ier": 6090,
      "ential": 6091,
      "ric": 6092,
      "ese": 6093,
      "expect": 6094,
      "ле": 6095,
      "away": 6096,
      "Dav": 6097,
      "second": 6098,
      "build": 6099,
      "ted": 6100,
      "cri": 6101,
      "ль": 6102,
      "information": 6103,
      "imm": 6104,
      "prote": 6105,
      "ury": 6106,
      "nuclear": 6107,
      "article": 6108,
      "Min": 6109,
      "Sign": 6110,
      "vious": 6111,
      "bed": 6112,
      "level": 6113,
      "feel": 6114,
      "rad": 6115,
      "body": 6116,
      "har": 6117,
      "Fran": 6118,
      "Advertisement": 6119,
      "past": 6120,
      "One": 6121,
      "__": 6122,
      "class": 6123,
      "ret": 6124,
      "hal": 6125,
      "states": 6126,
      "Hill": 6127,
      "reed": 6128,
      "team": 6129,
      "number": 6130,
      "hard": 6131,
      "imin": 6132,
      "sever": 6133,
      "Dep": 6134,
      "Man": 6135,
      "Now": 6136,
      "ired": 6137,
      "ION": 6138,
      "believe": 6139,
      "legal": 6140,
      "already": 6141,
      "known": 6142,
      "deal": 6143,
      "та": 6144,
      "ING": 6145,
      "14": 6146,
      "del": 6147,
      "White": 6148,
      "nor": 6149,
      "ball": 6150,
      "effect": 6151,
      "force": 6152,
      "contin": 6153,
      "ior": 6154,
      "whe": 6155,
      "Mon": 6156,
      "mor": 6157,
      "bar": 6158,
      "ones": 6159,
      "better": 6160,
      "ource": 6161,
      "ides": 6162,
      "ience": 6163,
      "cost": 6164,
      "lobal": 6165,
      "members": 6166,
      "ID": 6167,
      "night": 6168,
      "Ac": 6169,
      "become": 6170,
      "ibut": 6171,
      "gun": 6172,
      "employ": 6173,
      "17": 6174,
      "eas": 6175,
      "each": 6176,
      "cand": 6177,
      "bill": 6178,
      "University": 6179,
      "eld": 6180,
      "Dr": 6181,
      "mit": 6182,
      "hol": 6183,
      "All": 6184,
      "Russian": 6185,
      "pat": 6186,
      "ла": 6187,
      "Ed": 6188,
      "address": 6189,
      "Med": 6190,
      "city": 6191,
      "food": 6192,
      "develop": 6193,
      "Wor": 6194,
      "With": 6195,
      "itions": 6196,
      "sk": 6197,
      "vide": 6198,
      "key": 6199,
      "Supreme": 6200,
      "tem": 6201,
      "gl": 6202,
      "13": 6203,
      "chn": 6204,
      "election": 6205,
      "wr": 6206,
      "Ge": 6207,
      "federal": 6208,
      "position": 6209,
      "Vi": 6210,
      "action": 6211,
      ",''": 6212,
      "crit": 6213,
      "ps": 6214,
      "ader": 6215,
      "meet": 6216,
      "ham": 6217,
      "une": 6218,
      "Sun": 6219,
      "16": 6220,
      "reported": 6221,
      "sex": 6222,
      "augh": 6223,
      "ark": 6224,
      "based": 6225,
      "side": 6226,
      "large": 6227,
      "ben": 6228,
      "chief": 6229,
      "bing": 6230,
      "ecut": 6231,
      "Coun": 6232,
      ".,": 6233,
      "itor": 6234,
      "ched": 6235,
      "Part": 6236,
      "ley": 6237,
      "making": 6238,
      "important": 6239,
      "according": 6240,
      "room": 6241,
      "OP": 6242,
      "cit": 6243,
      "remain": 6244,
      "reen": 6245,
      "Gr": 6246,
      "25": 6247,
      "policy": 6248,
      "concer": 6249,
      "threat": 6250,
      "UN": 6251,
      "ither": 6252,
      "nat": 6253,
      "Fe": 6254,
      "likely": 6255,
      "**": 6256,
      "idence": 6257,
      "didn": 6258,
      "Mus": 6259,
      "small": 6260,
      "ories": 6261,
      "www": 6262,
      "ified": 6263,
      "Bl": 6264,
      "ought": 6265,
      "give": 6266,
      "ali": 6267,
      "anger": 6268,
      "water": 6269,
      "services": 6270,
      "spir": 6271,
      "да": 6272,
      "Photo": 6273,
      "investig": 6274,
      "course": 6275,
      "Just": 6276,
      "enough": 6277,
      "ey": 6278,
      "pris": 6279,
      "aged": 6280,
      "Ste": 6281,
      "ology": 6282,
      "mind": 6283,
      "different": 6284,
      "Brit": 6285,
      "economic": 6286,
      "sent": 6287,
      "ве": 6288,
      "question": 6289,
      "ivil": 6290,
      "Res": 6291,
      "always": 6292,
      "reason": 6293,
      "finan": 6294,
      "cult": 6295,
      "bot": 6296,
      "gether": 6297,
      "opp": 6298,
      "AC": 6299,
      "took": 6300,
      "suc": 6301,
      "went": 6302,
      "ision": 6303,
      "ability": 6304,
      "liber": 6305,
      "Add": 6306,
      "за": 6307,
      "face": 6308,
      "sug": 6309,
      "que": 6310,
      "artment": 6311,
      "certain": 6312,
      "nes": 6313,
      "olution": 6314,
      "ream": 6315,
      "dri": 6316,
      "research": 6317,
      "aph": 6318,
      "struct": 6319,
      "aily": 6320,
      "billion": 6321,
      "simp": 6322,
      "More": 6323,
      "fail": 6324,
      "black": 6325,
      "North": 6326,
      "name": 6327,
      "agree": 6328,
      "candid": 6329,
      "kind": 6330,
      "control": 6331,
      "non": 6332,
      "death": 6333,
      "count": 6334,
      "hour": 6335,
      "security": 6336,
      "email": 6337,
      "lat": 6338,
      "ло": 6339,
      "whether": 6340,
      "officials": 6341,
      "ured": 6342,
      "idd": 6343,
      "wn": 6344,
      "ches": 6345,
      "comple": 6346,
      "vote": 6347,
      "Bush": 6348,
      "party": 6349,
      "Sp": 6350,
      "dom": 6351,
      "among": 6352,
      "aken": 6353,
      "ме": 6354,
      "house": 6355,
      "National": 6356,
      "leaders": 6357,
      "administration": 6358,
      "member": 6359,
      "nal": 6360,
      "plac": 6361,
      "turned": 6362,
      "After": 6363,
      "Donald": 6364,
      "met": 6365,
      "together": 6366,
      "By": 6367,
      "ife": 6368,
      "possible": 6369,
      "until": 6370,
      "qual": 6371,
      "tries": 6372,
      "stead": 6373,
      "China": 6374,
      "record": 6375,
      "Health": 6376,
      "tar": 6377,
      "2017": 6378,
      "His": 6379,
      "Ms": 6380,
      "half": 6381,
      "ET": 6382,
      "upd": 6383,
      "times": 6384,
      "viron": 6385,
      "once": 6386,
      "activ": 6387,
      "weap": 6388,
      "Do": 6389,
      "Tor": 6390,
      "ament": 6391,
      "process": 6392,
      "mean": 6393,
      "iss": 6394,
      "ulation": 6395,
      "ined": 6396,
      "others": 6397,
      "changes": 6398,
      "fight": 6399,
      "spec": 6400,
      "priv": 6401,
      "CO": 6402,
      "announ": 6403,
      "kes": 6404,
      "offer": 6405,
      "history": 6406,
      "aring": 6407,
      "cle": 6408,
      "oung": 6409,
      "bas": 6410,
      "Jan": 6411,
      "sen": 6412,
      "execut": 6413,
      "rights": 6414,
      "several": 6415,
      "ть": 6416,
      "ST": 6417,
      "ки": 6418,
      "fut": 6419,
      "doing": 6420,
      "occur": 6421,
      "Ali": 6422,
      "Street": 6423,
      "Not": 6424,
      "ets": 6425,
      "share": 6426,
      "anti": 6427,
      "trad": 6428,
      "199": 6429,
      "talk": 6430,
      "Har": 6431,
      "working": 6432,
      "invol": 6433,
      "ird": 6434,
      "aul": 6435,
      "AM": 6436,
      "empt": 6437,
      "Ju": 6438,
      "disc": 6439,
      "tru": 6440,
      "selves": 6441,
      "Can": 6442,
      "ots": 6443,
      "understand": 6444,
      "bank": 6445,
      "often": 6446,
      "lement": 6447,
      "seen": 6448,
      "full": 6449,
      "Mic": 6450,
      "ove": 6451,
      "Ger": 6452,
      "compan": 6453,
      "World": 6454,
      "ences": 6455,
      "actually": 6456,
      ".''": 6457,
      "itional": 6458,
      "Hillary": 6459,
      "months": 6460,
      "box": 6461,
      "outs": 6462,
      "term": 6463,
      "ler": 6464,
      "West": 6465,
      "doesn": 6466,
      "decl": 6467,
      "issue": 6468,
      "strong": 6469,
      "indust": 6470,
      "Republicans": 6471,
      "five": 6472,
      "products": 6473,
      "AND": 6474,
      "local": 6475,
      "ns": 6476,
      "having": 6477,
      "game": 6478,
      "ти": 6479,
      "given": 6480,
      "plic": 6481,
      "ges": 6482,
      "My": 6483,
      "EC": 6484,
      "makes": 6485,
      "ivid": 6486,
      "ived": 6487,
      "fall": 6488,
      "yet": 6489,
      "done": 6490,
      "Fo": 6491,
      "Will": 6492,
      "spo": 6493,
      "че": 6494,
      "ards": 6495,
      "infl": 6496,
      "protect": 6497,
      "Im": 6498,
      "asked": 6499,
      "Leader": 6500,
      "IL": 6501,
      "Am": 6502,
      "uced": 6503,
      "bit": 6504,
      "det": 6505,
      "ying": 6506,
      "techn": 6507,
      "speak": 6508,
      "office": 6509,
      "bad": 6510,
      "ised": 6511,
      "close": 6512,
      "24": 6513,
      "pot": 6514,
      "igr": 6515,
      "lah": 6516,
      "saying": 6517,
      "Some": 6518,
      "unity": 6519,
      "Ind": 6520,
      "Br": 6521,
      "lies": 6522,
      "thought": 6523,
      "Ser": 6524,
      "ENT": 6525,
      "video": 6526,
      "Muslim": 6527,
      "pie": 6528,
      "Stud": 6529,
      "Department": 6530,
      "early": 6531,
      "ata": 6532,
      "offers": 6533,
      "uses": 6534,
      "Democrats": 6535,
      "Geor": 6536,
      "conf": 6537,
      "proper": 6538,
      "sal": 6539,
      "nothing": 6540,
      "front": 6541,
      "dol": 6542,
      "mass": 6543,
      "live": 6544,
      "future": 6545,
      "Senate": 6546,
      "со": 6547,
      "witter": 6548,
      "RO": 6549,
      "countries": 6550,
      "bur": 6551,
      "Democratic": 6552,
      "oil": 6553,
      "ators": 6554,
      "uge": 6555,
      "rac": 6556,
      "fire": 6557,
      "hip": 6558,
      "dra": 6559,
      "short": 6560,
      "ait": 6561,
      "icking": 6562,
      "global": 6563,
      "select": 6564,
      "Pal": 6565,
      "cks": 6566,
      "civil": 6567,
      "along": 6568,
      "gen": 6569,
      "white": 6570,
      "either": 6571,
      "South": 6572,
      "God": 6573,
      "Me": 6574,
      "Ph": 6575,
      "watch": 6576,
      "Cor": 6577,
      "rele": 6578,
      "Soc": 6579,
      "rup": 6580,
      "rul": 6581,
      "docu": 6582,
      "ster": 6583,
      ".)": 6584,
      "environ": 6585,
      "receive": 6586,
      "ми": 6587,
      "100": 6588,
      "web": 6589,
      "anal": 6590,
      "problem": 6591,
      "IR": 6592,
      "event": 6593,
      "pose": 6594,
      "Sep": 6595,
      "court": 6596,
      "imate": 6597,
      "Ber": 6598,
      "discuss": 6599,
      "means": 6600,
      "ari": 6601,
      "financial": 6602,
      "result": 6603,
      "Friday": 6604,
      "minister": 6605,
      "publ": 6606,
      "across": 6607,
      "trying": 6608,
      "benef": 6609,
      "enn": 6610,
      "season": 6611,
      "jud": 6612,
      "scient": 6613,
      "tee": 6614,
      "wer": 6615,
      "iddle": 6616,
      "Day": 6617,
      "EL": 6618,
      "graph": 6619,
      "stop": 6620,
      "ming": 6621,
      "pecial": 6622,
      "thern": 6623,
      "ample": 6624,
      "error": 6625,
      "fully": 6626,
      "reach": 6627,
      "soon": 6628,
      "sl": 6629,
      "While": 6630,
      "within": 6631,
      "Syria": 6632,
      "ium": 6633,
      "added": 6634,
      "Bro": 6635,
      "40": 6636,
      "paren": 6637,
      "igin": 6638,
      "uel": 6639,
      "woman": 6640,
      "sho": 6641,
      "rain": 6642,
      "до": 6643,
      "vember": 6644,
      "ging": 6645,
      "success": 6646,
      "step": 6647,
      "2012": 6648,
      "companies": 6649,
      "depend": 6650,
      "November": 6651,
      "nam": 6652,
      "stri": 6653,
      "ock": 6654,
      "almost": 6655,
      "leave": 6656,
      "avail": 6657,
      "conserv": 6658,
      "alk": 6659,
      "2014": 6660,
      "22": 6661,
      "mom": 6662,
      "economy": 6663,
      "weapons": 6664,
      "urs": 6665,
      "taking": 6666,
      "sol": 6667,
      "crimin": 6668,
      "dollar": 6669,
      "lin": 6670,
      "fur": 6671,
      "2015": 6672,
      "issues": 6673,
      "mus": 6674,
      "ats": 6675,
      "--------": 6676,
      "cus": 6677,
      "gir": 6678,
      "dro": 6679,
      "Inter": 6680,
      "young": 6681,
      "hind": 6682,
      "Paul": 6683,
      "relig": 6684,
      "Gu": 6685,
      "risk": 6686,
      "hom": 6687,
      "taken": 6688,
      "ournal": 6689,
      "doct": 6690,
      "demand": 6691,
      "atives": 6692,
      "respons": 6693,
      "getting": 6694,
      "descri": 6695,
      "ford": 6696,
      "sim": 6697,
      "claims": 6698,
      "defense": 6699,
      "anything": 6700,
      "mess": 6701,
      "interview": 6702,
      "love": 6703,
      "danger": 6704,
      "educ": 6705,
      "dest": 6706,
      "explain": 6707,
      "subject": 6708,
      "aster": 6709,
      "Ab": 6710,
      "reports": 6711,
      "fic": 6712,
      "fun": 6713,
      "ividual": 6714,
      "sell": 6715,
      "particular": 6716,
      "AP": 6717,
      "groups": 6718,
      "rew": 6719,
      "ints": 6720,
      "мо": 6721,
      "ся": 6722,
      "ention": 6723,
      "ensive": 6724,
      "aper": 6725,
      "urch": 6726,
      "citiz": 6727,
      "ви": 6728,
      "23": 6729,
      "town": 6730,
      "sus": 6731,
      "hy": 6732,
      "istan": 6733,
      "60": 6734,
      "ane": 6735,
      "audi": 6736,
      "Party": 6737,
      "online": 6738,
      "occas": 6739,
      "available": 6740,
      "же": 6741,
      "formed": 6742,
      "istance": 6743,
      "ands": 6744,
      "EM": 6745,
      "distr": 6746,
      "vision": 6747,
      "drug": 6748,
      "ference": 6749,
      "break": 6750,
      "gn": 6751,
      "David": 6752,
      "above": 6753,
      "individual": 6754,
      "Dis": 6755,
      "project": 6756,
      "bert": 6757,
      "train": 6758,
      "lege": 6759,
      "energy": 6760,
      "continue": 6761,
      "rote": 6762,
      "design": 6763,
      "Sat": 6764,
      "про": 6765,
      "BC": 6766,
      "evidence": 6767,
      "Per": 6768,
      "ults": 6769,
      "bring": 6770,
      "ources": 6771,
      "wide": 6772,
      "itive": 6773,
      "entire": 6774,
      "iam": 6775,
      "six": 6776,
      "Blo": 6777,
      "These": 6778,
      "However": 6779,
      "ibility": 6780,
      "City": 6781,
      "Bef": 6782,
      "Ra": 6783,
      "Before": 6784,
      "photo": 6785,
      "cred": 6786,
      "21": 6787,
      "community": 6788,
      "atic": 6789,
      "following": 6790,
      "conne": 6791,
      "star": 6792,
      "NO": 6793,
      "argu": 6794,
      "View": 6795,
      "reedom": 6796,
      "dou": 6797,
      "wrote": 6798,
      "late": 6799,
      "Of": 6800,
      "ech": 6801,
      "held": 6802,
      "March": 6803,
      "tom": 6804,
      "occurred": 6805,
      "profess": 6806,
      "27": 6807,
      "behind": 6808,
      "OU": 6809,
      "Ne": 6810,
      "ogle": 6811,
      "Act": 6812,
      "statement": 6813,
      "ene": 6814,
      "According": 6815,
      "prob": 6816,
      "access": 6817,
      "itted": 6818,
      "private": 6819,
      "Em": 6820,
      "ery": 6821,
      "fav": 6822,
      "corpor": 6823,
      "strate": 6824,
      "cast": 6825,
      "begin": 6826,
      "represent": 6827,
      "AD": 6828,
      "friend": 6829,
      "inst": 6830,
      "ron": 6831,
      "foc": 6832,
      "complete": 6833,
      "vic": 6834,
      "uation": 6835,
      "Agency": 6836,
      "pract": 6837,
      "example": 6838,
      "2013": 6839,
      "matter": 6840,
      "abl": 6841,
      "themselves": 6842,
      "Mark": 6843,
      "Jew": 6844,
      "ination": 6845,
      "advis": 6846,
      "indow": 6847,
      "treat": 6848,
      "updates": 6849,
      "decision": 6850,
      "host": 6851,
      "serious": 6852,
      "ried": 6853,
      "hit": 6854,
      "се": 6855,
      "vict": 6856,
      "words": 6857,
      "Tur": 6858,
      "ids": 6859,
      "toward": 6860,
      "seems": 6861,
      "Cour": 6862,
      "appoint": 6863,
      "bi": 6864,
      "Here": 6865,
      "ops": 6866,
      "stay": 6867,
      "asing": 6868,
      "rather": 6869,
      "avy": 6870,
      "recently": 6871,
      "equ": 6872,
      "Tues": 6873,
      "ai": 6874,
      "feat": 6875,
      "abor": 6876,
      "ilar": 6877,
      "border": 6878,
      "personal": 6879,
      "someone": 6880,
      "IA": 6881,
      "students": 6882,
      "minut": 6883,
      "pain": 6884,
      "tion": 6885,
      "killed": 6886,
      "orm": 6887,
      "cris": 6888,
      "true": 6889,
      "area": 6890,
      "firm": 6891,
      "Fl": 6892,
      "suggest": 6893,
      "East": 6894,
      "Post": 6895,
      "European": 6896,
      "uce": 6897,
      "previous": 6898,
      "commit": 6899,
      "bom": 6900,
      "opping": 6901,
      "lives": 6902,
      "80": 6903,
      "Par": 6904,
      "Monday": 6905,
      "lost": 6906,
      "lier": 6907,
      "pret": 6908,
      "Associ": 6909,
      "international": 6910,
      "pen": 6911,
      "Thank": 6912,
      "rate": 6913,
      "else": 6914,
      "anks": 6915,
      "began": 6916,
      "pite": 6917,
      "emy": 6918,
      "Afr": 6919,
      "communic": 6920,
      "forces": 6921,
      "idea": 6922,
      "igence": 6923,
      "Ho": 6924,
      "bruary": 6925,
      "June": 6926,
      "gets": 6927,
      "data": 6928,
      "Char": 6929,
      "mental": 6930,
      "hope": 6931,
      "February": 6932,
      "quar": 6933,
      "letters": 6934,
      "ци": 6935,
      "From": 6936,
      "exist": 6937,
      "Sunday": 6938,
      "looking": 6939,
      "whose": 6940,
      "Her": 6941,
      "believ": 6942,
      "sych": 6943,
      "ester": 6944,
      "Google": 6945,
      "origin": 6946,
      "mother": 6947,
      "Oc": 6948,
      "Wed": 6949,
      "uter": 6950,
      "gas": 6951,
      "famil": 6952,
      "himself": 6953,
      "study": 6954,
      "field": 6955,
      "iles": 6956,
      "dam": 6957,
      "pan": 6958,
      "си": 6959,
      "comment": 6960,
      "Minister": 6961,
      "demo": 6962,
      "legis": 6963,
      "vol": 6964,
      "Daily": 6965,
      "decad": 6966,
      "Why": 6967,
      "nia": 6968,
      "Aug": 6969,
      "compet": 6970,
      "lap": 6971,
      "Govern": 6972,
      "word": 6973,
      "Tuesday": 6974,
      "OS": 6975,
      "26": 6976,
      "continu": 6977,
      "valid": 6978,
      "chall": 6979,
      "cannot": 6980,
      "points": 6981,
      "potential": 6982,
      "sold": 6983,
      "Afric": 6984,
      "fig": 6985,
      "piece": 6986,
      "George": 6987,
      "moved": 6988,
      "sou": 6989,
      "Tails": 6990,
      "Kore": 6991,
      "IM": 6992,
      "emp": 6993,
      "roll": 6994,
      "simply": 6995,
      "July": 6996,
      "rown": 6997,
      "accept": 6998,
      "ру": 6999,
      "works": 7000,
      "cell": 7001,
      "foot": 7002,
      "everyone": 7003,
      "secret": 7004,
      "reas": 7005,
      "visit": 7006,
      "Polit": 7007,
      "manag": 7008,
      "Ear": 7009,
      "laun": 7010,
      "Hol": 7011,
      "director": 7012,
      "irst": 7013,
      "prim": 7014,
      "wrong": 7015,
      "Face": 7016,
      "cil": 7017,
      "zer": 7018,
      "establ": 7019,
      "industry": 7020,
      "Center": 7021,
      "race": 7022,
      "ди": 7023,
      "further": 7024,
      "expected": 7025,
      "Sch": 7026,
      "father": 7027,
      "collect": 7028,
      "anyone": 7029,
      "fair": 7030,
      "Off": 7031,
      "Read": 7032,
      "alleg": 7033,
      "especial": 7034,
      "round": 7035,
      "hon": 7036,
      "mal": 7037,
      "general": 7038,
      "shopping": 7039,
      "especially": 7040,
      "AG": 7041,
      "ague": 7042,
      "games": 7043,
      "abs": 7044,
      "third": 7045,
      "flo": 7046,
      "needs": 7047,
      "izing": 7048,
      "Thurs": 7049,
      "however": 7050,
      "Cali": 7051,
      "ances": 7052,
      "weeks": 7053,
      "estern": 7054,
      "hael": 7055,
      "role": 7056,
      "II": 7057,
      "truth": 7058,
      "dead": 7059,
      "ively": 7060,
      "capital": 7061,
      "mot": 7062,
      "elt": 7063,
      "(@": 7064,
      "LE": 7065,
      "mach": 7066,
      "isn": 7067,
      "robot": 7068,
      "Califor": 7069,
      "70": 7070,
      "wing": 7071,
      "wanted": 7072,
      "stitution": 7073,
      "Court": 7074,
      "medi": 7075,
      "ped": 7076,
      "aver": 7077,
      "28": 7078,
      "aterial": 7079,
      "due": 7080,
      "utin": 7081,
      "porters": 7082,
      "mag": 7083,
      "buy": 7084,
      "Source": 7085,
      "cot": 7086,
      "Apr": 7087,
      "Twitter": 7088,
      "phone": 7089,
      "tele": 7090,
      "pped": 7091,
      "meas": 7092,
      "Nuclear": 7093,
      "hor": 7094,
      "yed": 7095,
      "leav": 7096,
      "cop": 7097,
      "dangerous": 7098,
      "Wednes": 7099,
      "started": 7100,
      "itself": 7101,
      "Even": 7102,
      "hood": 7103,
      "provide": 7104,
      "uff": 7105,
      "bass": 7106,
      "defin": 7107,
      "Bill": 7108,
      "ceed": 7109,
      "ull": 7110,
      "worth": 7111,
      "van": 7112,
      "2007": 7113,
      "clicking": 7114,
      "Facebook": 7115,
      "Plus": 7116,
      "common": 7117,
      "heart": 7118,
      "ма": 7119,
      "whole": 7120,
      "Econom": 7121,
      "fear": 7122,
      "iding": 7123,
      "cra": 7124,
      "California": 7125,
      "CE": 7126,
      "CH": 7127,
      "aut": 7128,
      "div": 7129,
      "haps": 7130,
      "service": 7131,
      "living": 7132,
      "hours": 7133,
      "push": 7134,
      "pet": 7135,
      "ently": 7136,
      "everything": 7137,
      "amoun": 7138,
      "vice": 7139,
      "British": 7140,
      "GOP": 7141,
      "mill": 7142,
      "shot": 7143,
      "readers": 7144,
      "Thursday": 7145,
      "moder": 7146,
      "building": 7147,
      "account": 7148,
      "Press": 7149,
      "latest": 7150,
      "fell": 7151,
      "insur": 7152,
      "saw": 7153,
      "igration": 7154,
      "super": 7155,
      "2011": 7156,
      "Michael": 7157,
      "voters": 7158,
      "First": 7159,
      "thous": 7160,
      "board": 7161,
      "probably": 7162,
      "necess": 7163,
      "return": 7164,
      "Teh": 7165,
      "subscribe": 7166,
      "об": 7167,
      "TV": 7168,
      "Satur": 7169,
      "newsletter": 7170,
      "org": 7171,
      "Secret": 7172,
      "running": 7173,
      "sense": 7174,
      "editor": 7175,
      "yan": 7176,
      "ico": 7177,
      "became": 7178,
      "attacks": 7179,
      "shows": 7180,
      "secut": 7181,
      "han": 7182,
      "require": 7183,
      "Tehran": 7184,
      "sil": 7185,
      "Wednesday": 7186,
      "blog": 7187,
      "Lo": 7188,
      "April": 7189,
      "respon": 7190,
      "reng": 7191,
      "regard": 7192,
      "workers": 7193,
      "respect": 7194,
      "comb": 7195,
      "material": 7196,
      "psych": 7197,
      "reve": 7198,
      "occasional": 7199,
      "Pat": 7200,
      "outside": 7201,
      "emer": 7202,
      "agre": 7203,
      "January": 7204,
      "Tex": 7205,
      "People": 7206,
      "problems": 7207,
      "road": 7208,
      "computer": 7209,
      "Septem": 7210,
      "September": 7211,
      "leader": 7212,
      "actions": 7213,
      "urning": 7214,
      "deep": 7215,
      "ken": 7216,
      "Tod": 7217,
      "prevent": 7218,
      "Christian": 7219,
      "jobs": 7220,
      "iod": 7221,
      "attempt": 7222,
      "band": 7223,
      "website": 7224,
      "respond": 7225,
      "вы": 7226,
      "verify": 7227,
      "presidential": 7228,
      "Arab": 7229,
      "supp": 7230,
      "streng": 7231,
      "signific": 7232,
      "space": 7233,
      "democr": 7234,
      "below": 7235,
      "Gener": 7236,
      "similar": 7237,
      "dist": 7238,
      "ze": 7239,
      "plom": 7240,
      "Jer": 7241,
      "iter": 7242,
      "oting": 7243,
      "intell": 7244,
      "Uk": 7245,
      "candidate": 7246,
      "executive": 7247,
      "rich": 7248,
      "sed": 7249,
      "meeting": 7250,
      "medic": 7251,
      "EU": 7252,
      "James": 7253,
      "nearly": 7254,
      "quick": 7255,
      "29": 7256,
      "tro": 7257,
      "single": 7258,
      "gain": 7259,
      "Newsletter": 7260,
      "contribut": 7261,
      "lower": 7262,
      "refer": 7263,
      "debt": 7264,
      "newsletters": 7265,
      "include": 7266,
      "ny": 7267,
      "bud": 7268,
      "ino": 7269,
      "repe": 7270,
      "appear": 7271,
      "Student": 7272,
      "wait": 7273,
      "stories": 7274,
      "els": 7275,
      "sequ": 7276,
      "loss": 7277,
      "FOR": 7278,
      "ет": 7279,
      "natural": 7280,
      "connect": 7281,
      "link": 7282,
      "Rom": 7283,
      "mad": 7284,
      "cir": 7285,
      "instead": 7286,
      "speech": 7287,
      "increase": 7288,
      "aud": 7289,
      "explo": 7290,
      "experience": 7291,
      "berg": 7292,
      "coup": 7293,
      "crisis": 7294,
      "Our": 7295,
      "tained": 7296,
      "total": 7297,
      "friends": 7298,
      "higher": 7299,
      "agency": 7300,
      "от": 7301,
      "Black": 7302,
      "opport": 7303,
      "price": 7304,
      "wood": 7305,
      "ffer": 7306,
      "popular": 7307,
      "ihad": 7308,
      "ored": 7309,
      "omet": 7310,
      "apan": 7311,
      "ya": 7312,
      "ners": 7313,
      "page": 7314,
      "prove": 7315,
      "express": 7316,
      "ста": 7317,
      "progress": 7318,
      "series": 7319,
      "longer": 7320,
      "subscribing": 7321,
      "NA": 7322,
      "arm": 7323,
      "mir": 7324,
      "Ukrain": 7325,
      "laws": 7326,
      "Invalid": 7327,
      "favor": 7328,
      "Fin": 7329,
      "create": 7330,
      "published": 7331,
      "Public": 7332,
      "ements": 7333,
      "plans": 7334,
      "cogn": 7335,
      "attle": 7336,
      "Japan": 7337,
      "BI": 7338,
      "contain": 7339,
      "tober": 7340,
      "released": 7341,
      "prison": 7342,
      "hear": 7343,
      "response": 7344,
      "что": 7345,
      "Are": 7346,
      "moment": 7347,
      "lex": 7348,
      "cing": 7349,
      "lied": 7350,
      "upon": 7351,
      "mur": 7352,
      "CON": 7353,
      "received": 7354,
      "init": 7355,
      "October": 7356,
      "arrest": 7357,
      "fill": 7358,
      "acts": 7359,
      "ugg": 7360,
      "pred": 7361,
      "effort": 7362,
      "____": 7363,
      "check": 7364,
      "Ann": 7365,
      "ada": 7366,
      "trade": 7367,
      "istic": 7368,
      "hot": 7369,
      "anned": 7370,
      "created": 7371,
      "iety": 7372,
      "minim": 7373,
      "2008": 7374,
      "parents": 7375,
      "fa": 7376,
      "announced": 7377,
      "Well": 7378,
      "phys": 7379,
      "covered": 7380,
      "lie": 7381,
      "Qu": 7382,
      "mp": 7383,
      "Mex": 7384,
      "spending": 7385,
      "spect": 7386,
      "document": 7387,
      "grad": 7388,
      "operating": 7389,
      "sound": 7390,
      "involved": 7391,
      "period": 7392,
      "counter": 7393,
      "victim": 7394,
      "iling": 7395,
      "oud": 7396,
      "answer": 7397,
      "Saturday": 7398,
      "growth": 7399,
      "ring": 7400,
      "William": 7401,
      "violence": 7402,
      "range": 7403,
      "Rahim": 7404,
      "SU": 7405,
      "forward": 7406,
      "pict": 7407,
      "tit": 7408,
      "Many": 7409,
      "San": 7410,
      "mult": 7411,
      "ties": 7412,
      "itch": 7413,
      "Thanks": 7414,
      "Iraqi": 7415,
      "register": 7416,
      "tw": 7417,
      "situation": 7418,
      "ско": 7419,
      "era": 7420,
      "loc": 7421,
      "conduct": 7422,
      "Putin": 7423,
      "See": 7424,
      "diffic": 7425,
      "inj": 7426,
      "influ": 7427,
      "Texas": 7428,
      "significant": 7429,
      "gold": 7430,
      "liament": 7431,
      "bel": 7432,
      "eg": 7433,
      "wife": 7434,
      "load": 7435,
      "2010": 7436,
      "cup": 7437,
      "happened": 7438,
      "consu": 7439,
      "Security": 7440,
      "==": 7441,
      "ee": 7442,
      "icles": 7443,
      "produced": 7444,
      "var": 7445,
      "shut": 7446,
      "final": 7447,
      "Rich": 7448,
      "calls": 7449,
      "gave": 7450,
      "journal": 7451,
      "charac": 7452,
      "SA": 7453,
      "uz": 7454,
      "бы": 7455,
      "relation": 7456,
      "ption": 7457,
      "ender": 7458,
      "film": 7459,
      "August": 7460,
      "lying": 7461,
      "Gold": 7462,
      "freedom": 7463,
      "earlier": 7464,
      "ston": 7465,
      "Art": 7466,
      "teach": 7467,
      "ded": 7468,
      "truct": 7469,
      "Dece": 7470,
      "Di": 7471,
      "tly": 7472,
      "Then": 7473,
      "questions": 7474,
      "ees": 7475,
      "ples": 7476,
      "giving": 7477,
      "implement": 7478,
      "property": 7479,
      "music": 7480,
      "paid": 7481,
      "cases": 7482,
      "majority": 7483,
      "critic": 7484,
      "....": 7485,
      "bol": 7486,
      "leading": 7487,
      "пе": 7488,
      "бо": 7489,
      "wants": 7490,
      "target": 7491,
      "Bre": 7492,
      "legisl": 7493,
      "aled": 7494,
      "December": 7495,
      "alls": 7496,
      "ana": 7497,
      "suffer": 7498,
      "Let": 7499,
      "ghan": 7500,
      "nom": 7501,
      "regul": 7502,
      "35": 7503,
      "born": 7504,
      "population": 7505,
      "sha": 7506,
      "medical": 7507,
      "forts": 7508,
      "citizens": 7509,
      "heard": 7510,
      "aging": 7511,
      "goes": 7512,
      "Every": 7513,
      "internet": 7514,
      "lines": 7515,
      "Back": 7516,
      "indic": 7517,
      "worked": 7518,
      "lebr": 7519,
      "needed": 7520,
      "changed": 7521,
      "45": 7522,
      "quite": 7523,
      "stream": 7524,
      "Syrian": 7525,
      "decided": 7526,
      "Law": 7527,
      "lack": 7528,
      "results": 7529,
      "morning": 7530,
      "General": 7531,
      "ened": 7532,
      "rants": 7533,
      "Red": 7534,
      "investigation": 7535,
      "review": 7536,
      "ising": 7537,
      "ival": 7538,
      "society": 7539,
      "IV": 7540,
      "Sm": 7541,
      "intelligence": 7542,
      "center": 7543,
      "Jud": 7544,
      "Window": 7545,
      "stick": 7546,
      "movement": 7547,
      "Year": 7548,
      "usion": 7549,
      "undred": 7550,
      "rench": 7551,
      "suit": 7552,
      "destro": 7553,
      "yle": 7554,
      "Robert": 7555,
      "immedi": 7556,
      "conservative": 7557,
      "grand": 7558,
      "travel": 7559,
      "played": 7560,
      "prop": 7561,
      "Ang": 7562,
      "communications": 7563,
      "demon": 7564,
      "gre": 7565,
      "ATION": 7566,
      "UK": 7567,
      "writes": 7568,
      "hop": 7569,
      "Cent": 7570,
      "neigh": 7571,
      "BE": 7572,
      "surv": 7573,
      "при": 7574,
      "deli": 7575,
      "stitute": 7576,
      "aughter": 7577,
      "Union": 7578,
      "sat": 7579,
      "bir": 7580,
      "ung": 7581,
      "takes": 7582,
      "blood": 7583,
      "approach": 7584,
      "wel": 7585,
      "Justice": 7586,
      "allowed": 7587,
      "Mart": 7588,
      "independ": 7589,
      "recogn": 7590,
      "ote": 7591,
      "rap": 7592,
      "venue": 7593,
      "via": 7594,
      "girls": 7595,
      "concl": 7596,
      "specific": 7597,
      "Lon": 7598,
      "scientific": 7599,
      "opin": 7600,
      "labor": 7601,
      "ruz": 7602,
      "mas": 7603,
      "actors": 7604,
      "Ener": 7605,
      "mid": 7606,
      "ays": 7607,
      "Head": 7608,
      "sem": 7609,
      "rect": 7610,
      "198": 7611,
      "ISIS": 7612,
      "efforts": 7613,
      "aur": 7614,
      "CN": 7615,
      "Palest": 7616,
      "Sand": 7617,
      "Aust": 7618,
      "san": 7619,
      "reform": 7620,
      "exact": 7621,
      "politics": 7622,
      "bon": 7623,
      "ال": 7624,
      "Today": 7625,
      "ilt": 7626,
      "Afghan": 7627,
      "erson": 7628,
      "cultural": 7629,
      "increasing": 7630,
      "quality": 7631,
      "street": 7632,
      "network": 7633,
      "quarter": 7634,
      "prot": 7635,
      "500": 7636,
      "reality": 7637,
      "Phil": 7638,
      "date": 7639,
      "income": 7640,
      "rates": 7641,
      "wise": 7642,
      "Air": 7643,
      "events": 7644,
      "talking": 7645,
      "arri": 7646,
      "tells": 7647,
      "religious": 7648,
      "avo": 7649,
      "thousands": 7650,
      "univers": 7651,
      "OL": 7652,
      "El": 7653,
      "aries": 7654,
      "hosp": 7655,
      "base": 7656,
      "safe": 7657,
      "particip": 7658,
      "minutes": 7659,
      "content": 7660,
      "sw": 7661,
      "Fox": 7662,
      "dollars": 7663,
      "termin": 7664,
      "ля": 7665,
      "histor": 7666,
      "written": 7667,
      "Energy": 7668,
      "object": 7669,
      "rod": 7670,
      "rid": 7671,
      "rep": 7672,
      "value": 7673,
      "spent": 7674,
      "families": 7675,
      "Rev": 7676,
      "iver": 7677,
      "mak": 7678,
      "za": 7679,
      "died": 7680,
      "poor": 7681,
      "Cha": 7682,
      "terms": 7683,
      "anony": 7684,
      "atory": 7685,
      "illegal": 7686,
      "sue": 7687,
      "ilities": 7688,
      "Def": 7689,
      "enemy": 7690,
      "attend": 7691,
      "ov": 7692,
      "ani": 7693,
      "anim": 7694,
      "source": 7695,
      "King": 7696,
      "staff": 7697,
      "education": 7698,
      "Organ": 7699,
      "bey": 7700,
      "Bank": 7701,
      "bs": 7702,
      "ift": 7703,
      "sec": 7704,
      "ison": 7705,
      "message": 7706,
      "Des": 7707,
      "Wal": 7708,
      "Federal": 7709,
      "difficult": 7710,
      "London": 7711,
      "?”": 7712,
      "peace": 7713,
      "politic": 7714,
      "forced": 7715,
      "uk": 7716,
      "wonder": 7717,
      "esterday": 7718,
      "auto": 7719,
      "chair": 7720,
      "сти": 7721,
      "rem": 7722,
      "attention": 7723,
      "huge": 7724,
      "appointed": 7725,
      "ature": 7726,
      "ida": 7727,
      "erve": 7728,
      "mention": 7729,
      "poll": 7730,
      "Mac": 7731,
      "ening": 7732,
      "holiday": 7733,
      "Mor": 7734,
      "bab": 7735,
      "Barack": 7736,
      "ordin": 7737,
      "banks": 7738,
      "NE": 7739,
      "ния": 7740,
      "McC": 7741,
      "debate": 7742,
      "Senator": 7743,
      "FBI": 7744,
      "rout": 7745,
      "associ": 7746,
      "bul": 7747,
      "budget": 7748,
      "PA": 7749,
      "ometimes": 7750,
      "lif": 7751,
      "affect": 7752,
      "squ": 7753,
      "French": 7754,
      "ases": 7755,
      "organization": 7756,
      "millions": 7757,
      "aks": 7758,
      "\".": 7759,
      "sect": 7760,
      "ike": 7761,
      "brought": 7762,
      "appeared": 7763,
      "ча": 7764,
      "sn": 7765,
      "ises": 7766,
      "active": 7767,
      "policies": 7768,
      "hundred": 7769,
      "wasn": 7770,
      "science": 7771,
      "Secretary": 7772,
      "Str": 7773,
      "Commit": 7774,
      "celebr": 7775,
      "International": 7776,
      "Society": 7777,
      "Wall": 7778,
      "сто": 7779,
      "relationship": 7780,
      "ailed": 7781,
      "spokes": 7782,
      "inese": 7783,
      "chance": 7784,
      "average": 7785,
      "2009": 7786,
      "production": 7787,
      "Tom": 7788,
      "hur": 7789,
      "climate": 7790,
      "despite": 7791,
      "Thom": 7792,
      "registered": 7793,
      "Ben": 7794,
      "из": 7795,
      "prices": 7796,
      "sett": 7797,
      "hib": 7798,
      "iers": 7799,
      "Nov": 7800,
      "angu": 7801,
      "confl": 7802,
      "stant": 7803,
      "”.": 7804,
      "criminal": 7805,
      "ological": 7806,
      "stock": 7807,
      "pil": 7808,
      "ски": 7809,
      "Chinese": 7810,
      "Most": 7811,
      "pick": 7812,
      "mouth": 7813,
      "DA": 7814,
      "dog": 7815,
      "01": 7816,
      "conven": 7817,
      "prep": 7818,
      "rev": 7819,
      "197": 7820,
      "umb": 7821,
      "Over": 7822,
      "RES": 7823,
      "MO": 7824,
      "ulture": 7825,
      "broad": 7826,
      "Spe": 7827,
      "Chris": 7828,
      "Bel": 7829,
      "ние": 7830,
      "ij": 7831,
      "Ham": 7832,
      "goti": 7833,
      "NY": 7834,
      "knew": 7835,
      "cli": 7836,
      "ood": 7837,
      "Korea": 7838,
      "credit": 7839,
      "Ah": 7840,
      "Cr": 7841,
      "terrorist": 7842,
      "seven": 7843,
      "tried": 7844,
      "murder": 7845,
      "goal": 7846,
      "track": 7847,
      "Cap": 7848,
      "ube": 7849,
      "amount": 7850,
      "orney": 7851,
      "carry": 7852,
      "schools": 7853,
      "са": 7854,
      "willing": 7855,
      "deed": 7856,
      "пре": 7857,
      "Che": 7858,
      "century": 7859,
      "Your": 7860,
      "Ma": 7861,
      "Green": 7862,
      "middle": 7863,
      "numbers": 7864,
      "immigration": 7865,
      "Kos": 7866,
      "31": 7867,
      "boys": 7868,
      "ше": 7869,
      "growing": 7870,
      "rock": 7871,
      "expans": 7872,
      "Net": 7873,
      "Oh": 7874,
      "continued": 7875,
      "operation": 7876,
      "ona": 7877,
      "ert": 7878,
      "Committee": 7879,
      "ishing": 7880,
      "PR": 7881,
      "wealth": 7882,
      "provided": 7883,
      "hous": 7884,
      "riage": 7885,
      "TER": 7886,
      "Hum": 7887,
      "players": 7888,
      "stitutional": 7889,
      "passed": 7890,
      "ites": 7891,
      "Last": 7892,
      "propos": 7893,
      "related": 7894,
      "weet": 7895,
      "igrants": 7896,
      "ients": 7897,
      "failed": 7898,
      "kept": 7899,
      "tour": 7900,
      "Gen": 7901,
      "informed": 7902,
      "SE": 7903,
      "TY": 7904,
      "remember": 7905,
      "ysis": 7906,
      "considered": 7907,
      "negoti": 7908,
      "traff": 7909,
      "served": 7910,
      "ky": 7911,
      "ibly": 7912,
      "TR": 7913,
      "iff": 7914,
      "Western": 7915,
      "County": 7916,
      "Israeli": 7917,
      "version": 7918,
      "officers": 7919,
      "brings": 7920,
      "technology": 7921,
      "block": 7922,
      "region": 7923,
      "claimed": 7924,
      "Scot": 7925,
      "typ": 7926,
      "ple": 7927,
      "sexual": 7928,
      "abort": 7929,
      "ously": 7930,
      "levels": 7931,
      "mail": 7932,
      "па": 7933,
      "pic": 7934,
      "encour": 7935,
      "mun": 7936,
      "vil": 7937,
      "Council": 7938,
      "currently": 7939,
      "lad": 7940,
      "largest": 7941,
      "insurance": 7942,
      "development": 7943,
      "iple": 7944,
      "School": 7945,
      "ering": 7946,
      "vast": 7947,
      "chain": 7948,
      "чи": 7949,
      "Ken": 7950,
      "agreement": 7951,
      "surve": 7952,
      "comments": 7953,
      "sea": 7954,
      "summer": 7955,
      "Pri": 7956,
      "acted": 7957,
      "Eng": 7958,
      "costs": 7959,
      "couple": 7960,
      "assistance": 7961,
      "Ret": 7962,
      "southern": 7963,
      "Navy": 7964,
      "encies": 7965,
      "radio": 7966,
      "Media": 7967,
      "areas": 7968,
      "inations": 7969,
      "zy": 7970,
      "crime": 7971,
      "Germany": 7972,
      "WH": 7973,
      "programs": 7974,
      "IG": 7975,
      "ры": 7976,
      "Jack": 7977,
      "****": 7978,
      "Trade": 7979,
      "lawy": 7980,
      "vest": 7981,
      "iting": 7982,
      "Rel": 7983,
      "strugg": 7984,
      "Since": 7985,
      "justice": 7986,
      "apol": 7987,
      "various": 7988,
      "log": 7989,
      "Flor": 7990,
      "perhaps": 7991,
      "inside": 7992,
      "Who": 7993,
      "earth": 7994,
      "yst": 7995,
      "Get": 7996,
      "ledge": 7997,
      "vie": 7998,
      "felt": 7999,
      "90": 8000,
      "protest": 8001,
      "boy": 8002,
      "German": 8003,
      "beyond": 8004,
      "sales": 8005,
      "posted": 8006,
      "imag": 8007,
      "obvious": 8008,
      "lyn": 8009,
      "prosecut": 8010,
      "alone": 8011,
      "expansion": 8012,
      "Elect": 8013,
      "rules": 8014,
      "Military": 8015,
      "spr": 8016,
      "central": 8017,
      "necessary": 8018,
      "walk": 8019,
      "CIA": 8020,
      "nar": 8021,
      "depart": 8022,
      "fast": 8023,
      "Mer": 8024,
      "noted": 8025,
      "milit": 8026,
      "corporate": 8027,
      "easy": 8028,
      "rise": 8029,
      "paper": 8030,
      "medicine": 8031,
      "benefits": 8032,
      "Wik": 8033,
      "Earth": 8034,
      "parliament": 8035,
      "Vir": 8036,
      "hands": 8037,
      "arily": 8038,
      "arian": 8039,
      "ду": 8040,
      "extreme": 8041,
      "France": 8042,
      "particularly": 8043,
      "introd": 8044,
      "senior": 8045,
      "bri": 8046,
      "Church": 8047,
      "ux": 8048,
      "LY": 8049,
      "decades": 8050,
      "regular": 8051,
      "vention": 8052,
      "Britain": 8053,
      "ked": 8054,
      "organiz": 8055,
      "pack": 8056,
      "neg": 8057,
      "cancer": 8058,
      "attr": 8059,
      "standing": 8060,
      "join": 8061,
      "college": 8062,
      "assa": 8063,
      "Ukraine": 8064,
      "voted": 8065,
      "sad": 8066,
      "placed": 8067,
      "omen": 8068,
      "eight": 8069,
      "pun": 8070,
      "choice": 8071,
      "pretty": 8072,
      "door": 8073,
      "bes": 8074,
      "moving": 8075,
      "9999": 8076,
      "named": 8077,
      "culture": 8078,
      "recomm": 8079,
      "restr": 8080,
      "calling": 8081,
      "enforce": 8082,
      "except": 8083,
      "ires": 8084,
      "included": 8085,
      "taxes": 8086,
      "release": 8087,
      "forman": 8088,
      "theater": 8089,
      "prior": 8090,
      "doub": 8091,
      "fal": 8092,
      "exam": 8093,
      "described": 8094,
      "cents": 8095,
      "FO": 8096,
      "33": 8097,
      "ATE": 8098,
      "suspect": 8099,
      "estic": 8100,
      "Park": 8101,
      "Sal": 8102,
      "rupt": 8103,
      "opt": 8104,
      "Florida": 8105,
      "draw": 8106,
      "owners": 8107,
      "https": 8108,
      "character": 8109,
      "views": 8110,
      "candidates": 8111,
      "opposition": 8112,
      "endment": 8113,
      "GET": 8114,
      "primary": 8115,
      "modern": 8116,
      "plant": 8117,
      "ram": 8118,
      "liberal": 8119,
      "Because": 8120,
      "Like": 8121,
      "eth": 8122,
      "Clo": 8123,
      "Medic": 8124,
      "Ron": 8125,
      "mitted": 8126,
      "Palestin": 8127,
      "eff": 8128,
      "finally": 8129,
      "DV": 8130,
      "Follow": 8131,
      "App": 8132,
      "Bern": 8133,
      "pressure": 8134,
      "gone": 8135,
      "cul": 8136,
      "separ": 8137,
      "faith": 8138,
      "Politics": 8139,
      "Government": 8140,
      "avi": 8141,
      "Mat": 8142,
      "construct": 8143,
      "Coast": 8144,
      "original": 8145,
      "fighting": 8146,
      "ologist": 8147,
      "playing": 8148,
      "kids": 8149,
      "Middle": 8150,
      "Chic": 8151,
      "spot": 8152,
      "ander": 8153,
      "ease": 8154,
      "supports": 8155,
      "dy": 8156,
      "certainly": 8157,
      "correct": 8158,
      "rine": 8159,
      "UR": 8160,
      "Brown": 8161,
      "appears": 8162,
      "ado": 8163,
      "ingly": 8164,
      "Ay": 8165,
      "remains": 8166,
      "Fed": 8167,
      "profit": 8168,
      "Lin": 8169,
      "looks": 8170,
      "earch": 8171,
      "Saudi": 8172,
      "sey": 8173,
      "Constitution": 8174,
      "fol": 8175,
      "Reg": 8176,
      "quickly": 8177,
      "havi": 8178,
      "perfect": 8179,
      "Found": 8180,
      "antic": 8181,
      "Sto": 8182,
      "terrorism": 8183,
      "acity": 8184,
      "Police": 8185,
      "trust": 8186,
      "~~": 8187,
      "saf": 8188,
      "thinking": 8189,
      "books": 8190,
      "challeng": 8191,
      "trial": 8192,
      "Sw": 8193,
      "AID": 8194,
      "arms": 8195,
      "AF": 8196,
      "yesterday": 8197,
      "tor": 8198,
      "estim": 8199,
      "ufact": 8200,
      "Jewish": 8201,
      "NOT": 8202,
      "stated": 8203,
      "ension": 8204,
      "Jes": 8205,
      "na": 8206,
      "obtained": 8207,
      "powerful": 8208,
      "нно": 8209,
      "iction": 8210,
      "learn": 8211,
      "apparen": 8212,
      "Ital": 8213,
      "rowser": 8214,
      "bassy": 8215,
      "Bak": 8216,
      "Fore": 8217,
      "enced": 8218,
      "Gree": 8219,
      "CNN": 8220,
      "conference": 8221,
      "Intern": 8222,
      "useum": 8223,
      "aling": 8224,
      "Alex": 8225,
      "Obam": 8226,
      "Angel": 8227,
      "DVD": 8228,
      "Big": 8229,
      "officer": 8230,
      "Chicago": 8231,
      "uters": 8232,
      "beginning": 8233,
      "SH": 8234,
      "Jam": 8235,
      "worse": 8236,
      "elected": 8237,
      "Organization": 8238,
      "establish": 8239,
      "victory": 8240,
      "type": 8241,
      "sof": 8242,
      "upcoming": 8243,
      "reli": 8244,
      "rule": 8245,
      "Liber": 8246,
      "birth": 8247,
      "langu": 8248,
      "marriage": 8249,
      "copy": 8250,
      "supposed": 8251,
      "focus": 8252,
      "daily": 8253,
      "cise": 8254,
      "olute": 8255,
      "Saf": 8256,
      "slow": 8257,
      "performan": 8258,
      "launched": 8259,
      "это": 8260,
      "ification": 8261,
      "charge": 8262,
      "му": 8263,
      "COM": 8264,
      "complain": 8265,
      "mical": 8266,
      "throughout": 8267,
      "vacc": 8268,
      "hus": 8269,
      "crow": 8270,
      "GB": 8271,
      "send": 8272,
      "cross": 8273,
      "advoc": 8274,
      "ще": 8275,
      "ASS": 8276,
      "biggest": 8277,
      "opportunity": 8278,
      "writing": 8279,
      "career": 8280,
      "strengthen": 8281,
      "ouch": 8282,
      "Say": 8283,
      "DE": 8284,
      "alleged": 8285,
      "showed": 8286,
      "ek": 8287,
      "submission": 8288,
      "purch": 8289,
      "enjo": 8290,
      "completely": 8291,
      "Fact": 8292,
      "consum": 8293,
      "Life": 8294,
      "exactly": 8295,
      "ele": 8296,
      "caused": 8297,
      "ahead": 8298,
      "enda": 8299,
      "Social": 8300,
      "incident": 8301,
      "deliver": 8302,
      "markets": 8303,
      "legislation": 8304,
      "gar": 8305,
      "interests": 8306,
      "isk": 8307,
      "speaker": 8308,
      "mist": 8309,
      "impact": 8310,
      "gypt": 8311,
      "ique": 8312,
      "erry": 8313,
      "marks": 8314,
      "wish": 8315,
      "nik": 8316,
      "behavi": 8317,
      "Mill": 8318,
      "charges": 8319,
      "fem": 8320,
      "daughter": 8321,
      "safety": 8322,
      "196": 8323,
      "parts": 8324,
      "helped": 8325,
      "AB": 8326,
      "Afghanistan": 8327,
      "IAL": 8328,
      "simple": 8329,
      "troops": 8330,
      "looked": 8331,
      "coal": 8332,
      "Egypt": 8333,
      "trait": 8334,
      "details": 8335,
      "universities": 8336,
      "trou": 8337,
      "ims": 8338,
      "tre": 8339,
      "brain": 8340,
      "club": 8341,
      "Jihad": 8342,
      "IP": 8343,
      "thus": 8344,
      "Another": 8345,
      "training": 8346,
      "NAT": 8347,
      "oring": 8348,
      "employees": 8349,
      "Iv": 8350,
      "serve": 8351,
      "WE": 8352,
      "secure": 8353,
      "counts": 8354,
      "icted": 8355,
      "sens": 8356,
      "authorities": 8357,
      "smo": 8358,
      "Att": 8359,
      "Free": 8360,
      "Vo": 8361,
      "whom": 8362,
      "print": 8363,
      "knows": 8364,
      "Turkey": 8365,
      "ну": 8366,
      "consideration": 8367,
      "iment": 8368,
      "false": 8369,
      "plomacy": 8370,
      "da": 8371,
      "atever": 8372,
      "fare": 8373,
      "addition": 8374,
      "Allah": 8375,
      "supporters": 8376,
      "inn": 8377,
      "surpris": 8378,
      "minor": 8379,
      "produc": 8380,
      "announce": 8381,
      "stage": 8382,
      "confir": 8383,
      "television": 8384,
      "Richard": 8385,
      "increased": 8386,
      "guy": 8387,
      "36": 8388,
      "USB": 8389,
      "High": 8390,
      "sid": 8391,
      "built": 8392,
      "dig": 8393,
      "LO": 8394,
      "Sci": 8395,
      "investment": 8396,
      "hate": 8397,
      "cry": 8398,
      "sets": 8399,
      "GETTY": 8400,
      "altern": 8401,
      "includes": 8402,
      "reflect": 8403,
      "yal": 8404,
      "armed": 8405,
      "Jeff": 8406,
      "advertis": 8407,
      "neighbor": 8408,
      "avoid": 8409,
      "Yet": 8410,
      "GO": 8411,
      "Report": 8412,
      "nature": 8413,
      "responsible": 8414,
      "sle": 8415,
      "acare": 8416,
      "clearly": 8417,
      "gay": 8418,
      "reasons": 8419,
      "poses": 8420,
      "note": 8421,
      "Those": 8422,
      "Ke": 8423,
      "flow": 8424,
      "lands": 8425,
      "clean": 8426,
      "battle": 8427,
      "purpose": 8428,
      "DC": 8429,
      "Virgin": 8430,
      "store": 8431,
      "figure": 8432,
      "Sam": 8433,
      "nationally": 8434,
      "Lou": 8435,
      "union": 8436,
      "implementation": 8437,
      "EST": 8438,
      "essential": 8439,
      "asc": 8440,
      "airs": 8441,
      "prise": 8442,
      "acies": 8443,
      "gency": 8444,
      "Cath": 8445,
      "opinion": 8446,
      "ultim": 8447,
      "Obamacare": 8448,
      "African": 8449,
      "aware": 8450,
      "burn": 8451,
      "ctions": 8452,
      "75": 8453,
      "Lat": 8454,
      "wards": 8455,
      "path": 8456,
      "refuge": 8457,
      "Economy": 8458,
      "sort": 8459,
      "ос": 8460,
      "Miss": 8461,
      "beat": 8462,
      "please": 8463,
      "stra": 8464,
      "Mexico": 8465,
      "THAT": 8466,
      "husband": 8467,
      "yn": 8468,
      "status": 8469,
      "ries": 8470,
      "church": 8471,
      "individuals": 8472,
      "iving": 8473,
      "green": 8474,
      "44": 8475,
      "voting": 8476,
      "continues": 8477,
      "immediately": 8478,
      "experi": 8479,
      "Institute": 8480,
      "employment": 8481,
      "nic": 8482,
      "cum": 8483,
      "votes": 8484,
      "Kay": 8485,
      "leadership": 8486,
      "Direct": 8487,
      "Army": 8488,
      "Play": 8489,
      "sources": 8490,
      "match": 8491,
      "elections": 8492,
      "cis": 8493,
      "Internet": 8494,
      "die": 8495,
      "mising": 8496,
      "raised": 8497,
      "Engl": 8498,
      "traffic": 8499,
      "anonymising": 8500,
      "Val": 8501,
      "ку": 8502,
      "agon": 8503,
      "nations": 8504,
      "icial": 8505,
      "improve": 8506,
      "tic": 8507,
      "veh": 8508,
      "AIDS": 8509,
      ".’": 8510,
      "га": 8511,
      "extra": 8512,
      "agreed": 8513,
      "хо": 8514,
      "porter": 8515,
      "McCain": 8516,
      "sometimes": 8517,
      "capacity": 8518,
      "leaves": 8519,
      "happy": 8520,
      "UT": 8521,
      "cam": 8522,
      "exc": 8523,
      "strateg": 8524,
      "Round": 8525,
      "pression": 8526,
      "defend": 8527,
      "acqu": 8528,
      "Johnson": 8529,
      "Yes": 8530,
      "Cub": 8531,
      "write": 8532,
      "meaning": 8533,
      "request": 8534,
      "documents": 8535,
      "Rad": 8536,
      "apolis": 8537,
      "movie": 8538,
      "phen": 8539,
      "vices": 8540,
      "anda": 8541,
      "Muslims": 8542,
      "signed": 8543,
      "conflict": 8544,
      "cash": 8545,
      "hab": 8546,
      "massive": 8547,
      "abortion": 8548,
      "spirit": 8549,
      "During": 8550,
      "enge": 8551,
      "feed": 8552,
      "India": 8553,
      "limited": 8554,
      "fat": 8555,
      "ta": 8556,
      "Good": 8557,
      "ateg": 8558,
      "although": 8559,
      "Human": 8560,
      "doctrine": 8561,
      "tocol": 8562,
      "Ros": 8563,
      "!!": 8564,
      "IF": 8565,
      "consist": 8566,
      "nut": 8567,
      "idge": 8568,
      "Conserv": 8569,
      "DO": 8570,
      "Two": 8571,
      "lic": 8572,
      "conditions": 8573,
      "VER": 8574,
      "USA": 8575,
      "engine": 8576,
      "cities": 8577,
      "expand": 8578,
      "save": 8579,
      "Watch": 8580,
      "fuel": 8581,
      "embassy": 8582,
      "Alf": 8583,
      "determin": 8584,
      "belief": 8585,
      "La": 8586,
      "sched": 8587,
      "craft": 8588,
      "PRO": 8589,
      "Bu": 8590,
      "parties": 8591,
      "Mu": 8592,
      "spend": 8593,
      "Any": 8594,
      "MA": 8595,
      "Culture": 8596,
      "acting": 8597,
      "raise": 8598,
      "Frank": 8599,
      "regime": 8600,
      "lay": 8601,
      "----------------": 8602,
      "Fire": 8603,
      "iant": 8604,
      "ieve": 8605,
      "Indian": 8606,
      "exchanges": 8607,
      "throw": 8608,
      "NATO": 8609,
      "funds": 8610,
      "iced": 8611,
      "ancy": 8612,
      "victims": 8613,
      "fit": 8614,
      "capt": 8615,
      "chemical": 8616,
      "directly": 8617,
      "district": 8618,
      "Ahmad": 8619,
      "practice": 8620,
      "Ev": 8621,
      "Carol": 8622,
      "fortun": 8623,
      "gent": 8624,
      "flag": 8625,
      "systems": 8626,
      "newsp": 8627,
      "pled": 8628,
      "trip": 8629,
      "hundreds": 8630,
      "reject": 8631,
      "сь": 8632,
      "enforcement": 8633,
      "student": 8634,
      "visa": 8635,
      "interior": 8636,
      "pul": 8637,
      "operations": 8638,
      "Los": 8639,
      "Cam": 8640,
      "seemed": 8641,
      "Mad": 8642,
      "places": 8643,
      "critical": 8644,
      "ping": 8645,
      "icy": 8646,
      "Pak": 8647,
      "Jose": 8648,
      "Care": 8649,
      "hospital": 8650,
      "Mag": 8651,
      "shall": 8652,
      "manufact": 8653,
      "closed": 8654,
      "ses": 8655,
      "doubt": 8656,
      "absolute": 8657,
      "lob": 8658,
      "screen": 8659,
      "Comp": 8660,
      "card": 8661,
      "disease": 8662,
      "minimal": 8663,
      "Although": 8664,
      "unch": 8665,
      "demonstr": 8666,
      "politicians": 8667,
      "beaut": 8668,
      "aces": 8669,
      "нны": 8670,
      "explained": 8671,
      "Mass": 8672,
      "girl": 8673,
      "required": 8674,
      "evil": 8675,
      "English": 8676,
      "amin": 8677,
      "inte": 8678,
      "collap": 8679,
      "Great": 8680,
      "Jim": 8681,
      "Mal": 8682,
      "MS": 8683,
      "sites": 8684,
      "BS": 8685,
      "commer": 8686,
      "Conspir": 8687,
      "committee": 8688,
      "Joe": 8689,
      "Canada": 8690,
      "brief": 8691,
      "dark": 8692,
      "advisor": 8693,
      "yourself": 8694,
      "oted": 8695,
      "makers": 8696,
      "sess": 8697,
      "controll": 8698,
      "Global": 8699,
      "ги": 8700,
      "strategy": 8701,
      "wind": 8702,
      "submar": 8703,
      "ield": 8704,
      "Research": 8705,
      "oral": 8706,
      "teen": 8707,
      "stein": 8708,
      "Sheik": 8709,
      "hav": 8710,
      "holidays": 8711,
      "ί": 8712,
      "Romney": 8713,
      "owner": 8714,
      "treatment": 8715,
      "Out": 8716,
      "owers": 8717,
      "cat": 8718,
      "warns": 8719,
      "normal": 8720,
      "38": 8721,
      "highly": 8722,
      "Smith": 8723,
      "informs": 8724,
      "democracy": 8725,
      "Right": 8726,
      "sun": 8727,
      "\",": 8728,
      "influence": 8729,
      "image": 8730,
      "table": 8731,
      "34": 8732,
      "ου": 8733,
      "usually": 8734,
      "Web": 8735,
      "Brook": 8736,
      "positive": 8737,
      "weekend": 8738,
      "wouldn": 8739,
      "Shar": 8740,
      "England": 8741,
      "Del": 8742,
      "Camp": 8743,
      "Cathol": 8744,
      "Wil": 8745,
      "killing": 8746,
      "starting": 8747,
      "greater": 8748,
      "EX": 8749,
      "Under": 8750,
      "GC": 8751,
      "раз": 8752,
      "analysis": 8753,
      "judge": 8754,
      "2006": 8755,
      "…]": 8756,
      "Cal": 8757,
      "terrorists": 8758,
      "worst": 8759,
      "exer": 8760,
      "scious": 8761,
      "55": 8762,
      "cuts": 8763,
      "ville": 8764,
      "language": 8765,
      "independent": 8766,
      "offered": 8767,
      "lock": 8768,
      "TS": 8769,
      "League": 8770,
      "Africa": 8771,
      "drugs": 8772,
      "WI": 8773,
      "stain": 8774,
      "Scott": 8775,
      "asking": 8776,
      "Au": 8777,
      "ota": 8778,
      "shooting": 8779,
      "ют": 8780,
      "sky": 8781,
      "insu": 8782,
      "basis": 8783,
      "style": 8784,
      "jad": 8785,
      "resh": 8786,
      "lose": 8787,
      "Pakistan": 8788,
      "accused": 8789,
      "responsibility": 8790,
      "maintain": 8791,
      "text": 8792,
      "37": 8793,
      "miral": 8794,
      "Moore": 8795,
      "Christmas": 8796,
      "revealed": 8797,
      "HE": 8798,
      "LD": 8799,
      "prem": 8800,
      "ILL": 8801,
      "contract": 8802,
      "coverage": 8803,
      "domestic": 8804,
      "це": 8805,
      "atter": 8806,
      "concerns": 8807,
      "Central": 8808,
      "Thomas": 8809,
      "[…]": 8810,
      "Cond": 8811,
      "ito": 8812,
      "weak": 8813,
      "maybe": 8814,
      "internationally": 8815,
      "afford": 8816,
      "followed": 8817,
      "believed": 8818,
      "meth": 8819,
      "picture": 8820,
      "ost": 8821,
      "Their": 8822,
      "socially": 8823,
      "Issue": 8824,
      "song": 8825,
      "funding": 8826,
      "asco": 8827,
      "atol": 8828,
      "Tri": 8829,
      "Francis": 8830,
      "rend": 8831,
      "verse": 8832,
      "damage": 8833,
      "occup": 8834,
      "sch": 8835,
      "ially": 8836,
      "custom": 8837,
      "Mosc": 8838,
      "Jones": 8839,
      "performance": 8840,
      "Defense": 8841,
      "32": 8842,
      "environment": 8843,
      "pted": 8844,
      "olf": 8845,
      "48": 8846,
      "inner": 8847,
      "reached": 8848,
      "Hab": 8849,
      "witness": 8850,
      "theid": 8851,
      "talks": 8852,
      "ano": 8853,
      "Admiral": 8854,
      "тель": 8855,
      "Foundation": 8856,
      "mob": 8857,
      "SO": 8858,
      "bomb": 8859,
      "writer": 8860,
      "Additional": 8861,
      "organizations": 8862,
      "iev": 8863,
      "Mur": 8864,
      "Star": 8865,
      "telling": 8866,
      "Commission": 8867,
      "Virginia": 8868,
      "Sanders": 8869,
      "Bra": 8870,
      "assu": 8871,
      "Hel": 8872,
      "zing": 8873,
      "issued": 8874,
      "moral": 8875,
      "inejad": 8876,
      "additional": 8877,
      "reactors": 8878,
      "Jesus": 8879,
      "Other": 8880,
      "bled": 8881,
      "size": 8882,
      "winning": 8883,
      "designed": 8884,
      "dem": 8885,
      "Azer": 8886,
      "бе": 8887,
      "Mike": 8888,
      "Peter": 8889,
      "drive": 8890,
      "Instead": 8891,
      "usual": 8892,
      "agencies": 8893,
      "Austral": 8894,
      "Risk": 8895,
      "Ahmadinejad": 8896,
      "fraud": 8897,
      "leaving": 8898,
      "planet": 8899,
      "egal": 8900,
      "uction": 8901,
      "homes": 8902,
      "resources": 8903,
      "rick": 8904,
      "ented": 8905,
      "agan": 8906,
      "psychologist": 8907,
      "Office": 8908,
      "arrested": 8909,
      "Group": 8910,
      "convers": 8911,
      "benefit": 8912,
      "effects": 8913,
      "Martin": 8914,
      "Administration": 8915,
      "unless": 8916,
      "Moscow": 8917,
      "NC": 8918,
      "seeing": 8919,
      "eyes": 8920,
      "knowledge": 8921,
      "ин": 8922,
      "holding": 8923,
      "inks": 8924,
      "constitutional": 8925,
      "challenge": 8926,
      "bling": 8927,
      "PM": 8928,
      "sla": 8929,
      "Sey": 8930,
      "fellow": 8931,
      "Trans": 8932,
      "automat": 8933,
      "umn": 8934,
      "ideas": 8935,
      "iation": 8936,
      "meant": 8937,
      "detailed": 8938,
      "2004": 8939,
      "2000": 8940,
      "Time": 8941,
      "Invest": 8942,
      "andi": 8943,
      "Gl": 8944,
      "authority": 8945,
      "agenda": 8946,
      "atollah": 8947,
      "residents": 8948,
      "environments": 8949,
      "repeated": 8950,
      "concerned": 8951,
      "model": 8952,
      "gather": 8953,
      "Adel": 8954,
      "pilgr": 8955,
      "articles": 8956,
      "LA": 8957,
      "appropri": 8958,
      "soldiers": 8959,
      "isions": 8960,
      "harder": 8961,
      "interesting": 8962,
      "icts": 8963,
      "analyst": 8964,
      "condition": 8965,
      "”,": 8966,
      "rating": 8967,
      "consequ": 8968,
      "——": 8969,
      "Kham": 8970,
      "successful": 8971,
      "iled": 8972,
      "39": 8973,
      "standard": 8974,
      "eda": 8975,
      "Protocol": 8976,
      "Ayatollah": 8977,
      "aggress": 8978,
      "submarines": 8979,
      "nel": 8980,
      "domin": 8981,
      "emot": 8982,
      "doz": 8983,
      "kn": 8984,
      "SP": 8985,
      "trict": 8986,
      "scen": 8987,
      "gives": 8988,
      "happens": 8989,
      "baby": 8990,
      "integr": 8991,
      "ureau": 8992,
      "violent": 8993,
      "spokesman": 8994,
      "Wiki": 8995,
      "names": 8996,
      "ME": 8997,
      "annel": 8998,
      "onto": 8999,
      "eye": 9000,
      "fiasco": 9001,
      "Journal": 9002,
      "dream": 9003,
      "figh": 9004,
      "advant": 9005,
      "Also": 9006,
      "vari": 9007,
      "Tal": 9008,
      "65": 9009,
      "47": 9010,
      "confirmed": 9011,
      "ht": 9012,
      "liter": 9013,
      "assault": 9014,
      "environmental": 9015,
      "effective": 9016,
      "crimes": 9017,
      "Yaz": 9018,
      "mainstream": 9019,
      "Senegal": 9020,
      "governments": 9021,
      "49": 9022,
      "MENT": 9023,
      "Mary": 9024,
      "stuff": 9025,
      "Ivory": 9026,
      "300": 9027,
      "religion": 9028,
      "wall": 9029,
      "Bay": 9030,
      "lude": 9031,
      "seek": 9032,
      "activity": 9033,
      "seeking": 9034,
      "difference": 9035,
      "malls": 9036,
      "frequ": 9037,
      "failure": 9038,
      "understanding": 9039,
      "Next": 9040,
      "Jamal": 9041,
      "Jews": 9042,
      "Paris": 9043,
      "Sur": 9044,
      "ня": 9045,
      "́n": 9046,
      "Sou": 9047,
      "weight": 9048,
      "experts": 9049,
      "citizen": 9050,
      "uit": 9051,
      "compared": 9052,
      "GN": 9053,
      "comfort": 9054,
      "physical": 9055,
      "whatever": 9056,
      "Strait": 9057,
      "spread": 9058,
      "Background": 9059,
      "Yah": 9060,
      "feet": 9061,
      "towards": 9062,
      "Sub": 9063,
      "Sovi": 9064,
      "forms": 9065,
      "complex": 9066,
      "iful": 9067,
      "Added": 9068,
      "machinations": 9069,
      "About": 9070,
      "entail": 9071,
      "Real": 9072,
      "Prof": 9073,
      "Returning": 9074,
      "pilgrims": 9075,
      "Horm": 9076,
      "itz": 9077,
      "ruption": 9078,
      "learned": 9079,
      "warning": 9080,
      "showing": 9081,
      "reporting": 9082,
      "fans": 9083,
      "behavior": 9084,
      "shown": 9085,
      "tough": 9086,
      "uth": 9087,
      "VE": 9088,
      "Rights": 9089,
      "Conditions": 9090,
      "fix": 9091,
      "Apar": 9092,
      "mouthpiece": 9093,
      "strengthens": 9094,
      "farm": 9095,
      "ager": 9096,
      "prelude": 9097,
      "patients": 9098,
      "etro": 9099,
      "tool": 9100,
      "Sayy": 9101,
      "Apartheid": 9102,
      "Hadd": 9103,
      "Far": 9104,
      "ador": 9105,
      "IRGC": 9106,
      "ables": 9107,
      "conv": 9108,
      "hearing": 9109,
      "azine": 9110,
      "thy": 9111,
      "compiling": 9112,
      "concern": 9113,
      "outr": 9114,
      "congress": 9115,
      "resent": 9116,
      "download": 9117,
      "voice": 9118,
      "miles": 9119,
      "Market": 9120,
      "2005": 9121,
      "eventually": 9122,
      "):": 9123,
      "Diplomacy": 9124,
      "су": 9125,
      "docks": 9126,
      "College": 9127,
      "couldn": 9128,
      "formation": 9129,
      "Ari": 9130,
      "Hormuz": 9131,
      "otherwise": 9132,
      "believes": 9133,
      "oneh": 9134,
      "Ko": 9135,
      "ounds": 9136,
      "wal": 9137,
      "ISNA": 9138,
      "strike": 9139,
      "Annapolis": 9140,
      "pool": 9141,
      "myself": 9142,
      "Habib": 9143,
      "mort": 9144,
      "Haddad": 9145,
      "convening": 9146,
      "decadence": 9147,
      "traditional": 9148,
      "virt": 9149,
      "Baku": 9150,
      "prepared": 9151,
      "Associations": 9152,
      "covery": 9153,
      "acknow": 9154,
      "Yahya": 9155,
      "businesses": 9156,
      "ining": 9157,
      "Conspiracies": 9158,
      "west": 9159,
      "hack": 9160,
      "Rem": 9161,
      "iyan": 9162,
      "eat": 9163,
      "nei": 9164,
      "applic": 9165,
      "mere": 9166,
      "professor": 9167,
      "rial": 9168,
      "Ve": 9169,
      "wild": 9170,
      "scientists": 9171,
      "creating": 9172,
      "professional": 9173,
      "accom": 9174,
      "famous": 9175,
      "Seyyed": 9176,
      "Azeri": 9177,
      "pping": 9178,
      "committed": 9179,
      "solution": 9180,
      "ares": 9181,
      "Aft": 9182,
      "option": 9183,
      "healthy": 9184,
      "Closure": 9185,
      "Ghol": 9186,
      "keeping": 9187,
      "investors": 9188,
      "iring": 9189,
      "speed": 9190,
      "annual": 9191,
      "Gholam": 9192,
      "RT": 9193,
      "relative": 9194,
      "Sayyari": 9195,
      "adding": 9196,
      "mostly": 9197,
      "Kayhan": 9198,
      "Alfoneh": 9199,
      "Yazd": 9200,
      "Louis": 9201,
      "Nowruz": 9202,
      "Aftab": 9203,
      "missed": 9204,
      "yes": 9205,
      "speaking": 9206,
      "Liby": 9207,
      "Safavi": 9208,
      "immigrants": 9209,
      "Davar": 9210,
      "Rahimiyan": 9211,
      "Sheikhav": 9212,
      "Khamnei": 9213,
      "Sheikhavandi": 9214,
      "Sha": 9215,
      "spoke": 9216,
      "title": 9217,
      "supported": 9218,
      "сть": 9219,
      "previously": 9220,
      "veter": 9221,
      "CC": 9222,
      "46": 9223,
      "rare": 9224,
      "Rob": 9225,
      "ό": 9226,
      "Nat": 9227,
      "Sar": 9228,
      "fan": 9229,
      "facts": 9230,
      "Mem": 9231,
      "ной": 9232,
      "theory": 9233,
      "drop": 9234,
      "EMB": 9235,
      "supply": 9236,
      "sor": 9237,
      "Open": 9238,
      "liance": 9239,
      "Qa": 9240,
      "ker": 9241,
      "Reuters": 9242,
      "reduce": 9243,
      "Amendment": 9244,
      "eful": 9245,
      "кото": 9246,
      "hatt": 9247,
      "loved": 9248,
      "opened": 9249,
      "los": 9250,
      "army": 9251,
      "Block": 9252,
      "radical": 9253,
      "riot": 9254,
      "swe": 9255,
      "charged": 9256,
      "promise": 9257,
      "Steve": 9258,
      "governor": 9259,
      "harm": 9260,
      "Kur": 9261,
      "jump": 9262,
      "NBC": 9263,
      "commercial": 9264,
      "destruct": 9265,
      "happening": 9266,
      "cook": 9267,
      "numer": 9268,
      "interested": 9269,
      "ican": 9270,
      "chairman": 9271,
      "apparently": 9272,
      "decade": 9273,
      "intended": 9274,
      "ши": 9275,
      "Ryan": 9276,
      "Association": 9277,
      "player": 9278,
      "convict": 9279,
      "Hist": 9280,
      "values": 9281,
      "etc": 9282,
      "lets": 9283,
      "records": 9284,
      "measure": 9285,
      "Child": 9286,
      "none": 9287,
      "hero": 9288,
      "eless": 9289,
      "tribut": 9290,
      "athe": 9291,
      "Tim": 9292,
      "stress": 9293,
      "ips": 9294,
      "жи": 9295,
      "becomes": 9296,
      "flu": 9297,
      "Catholic": 9298,
      "coach": 9299,
      "largely": 9300,
      "achieve": 9301,
      "лу": 9302,
      "ensure": 9303,
      "easily": 9304,
      "shop": 9305,
      "moun": 9306,
      "Nations": 9307,
      "proposed": 9308,
      "Book": 9309,
      "Sil": 9310,
      "twitter": 9311,
      "Lu": 9312,
      "scene": 9313,
      "method": 9314,
      "lor": 9315,
      "assist": 9316,
      "suggested": 9317,
      "Atl": 9318,
      "dict": 9319,
      "truly": 9320,
      "igan": 9321,
      "Bal": 9322,
      "elimin": 9323,
      "rising": 9324,
      "astic": 9325,
      "ERS": 9326,
      "plus": 9327,
      "Service": 9328,
      "excl": 9329,
      "uty": 9330,
      "becoming": 9331,
      "paying": 9332,
      "regarding": 9333,
      "crash": 9334,
      "icide": 9335,
      "District": 9336,
      "apped": 9337,
      "manager": 9338,
      "highest": 9339,
      "Prime": 9340,
      "ifying": 9341,
      "mic": 9342,
      "astro": 9343,
      "Christians": 9344,
      "ange": 9345,
      "gender": 9346,
      "Qaeda": 9347,
      "ration": 9348,
      "tox": 9349,
      "02": 9350,
      "opening": 9351,
      "heav": 9352,
      "Soviet": 9353,
      "gradu": 9354,
      "fine": 9355,
      "exchange": 9356,
      "joined": 9357,
      "Er": 9358,
      "acher": 9359,
      "Foreign": 9360,
      "Bob": 9361,
      "orders": 9362,
      "larger": 9363,
      "porary": 9364,
      "negative": 9365,
      "initi": 9366,
      "vill": 9367,
      "honest": 9368,
      "touch": 9369,
      "signs": 9370,
      "Through": 9371,
      "Palestinian": 9372,
      "Food": 9373,
      "actual": 9374,
      "hattan": 9375,
      "measures": 9376,
      "partners": 9377,
      "2001": 9378,
      "ti": 9379,
      "grant": 9380,
      "bag": 9381,
      "helping": 9382,
      "noon": 9383,
      "alternative": 9384,
      "Island": 9385,
      "breaking": 9386,
      "Manhattan": 9387,
      "Women": 9388,
      "infr": 9389,
      "floor": 9390,
      "scand": 9391,
      "Leaks": 9392,
      "====": 9393,
      "Andrew": 9394,
      "aked": 9395,
      "gree": 9396,
      "contact": 9397,
      "station": 9398,
      "brother": 9399,
      "qui": 9400,
      "mine": 9401,
      "commission": 9402,
      "Angeles": 9403,
      "Director": 9404,
      "insist": 9405,
      "nine": 9406,
      "ты": 9407,
      "prefer": 9408,
      "seat": 9409,
      "onents": 9410,
      "ica": 9411,
      "sustain": 9412,
      "ounder": 9413,
      "uries": 9414,
      "ule": 9415,
      "icated": 9416,
      "pray": 9417,
      "Chief": 9418,
      "BY": 9419,
      "item": 9420,
      "yl": 9421,
      "blue": 9422,
      "produce": 9423,
      "itude": 9424,
      "drink": 9425,
      "fired": 9426,
      "activities": 9427,
      "studies": 9428,
      "ALL": 9429,
      "sud": 9430,
      "Charles": 9431,
      "BO": 9432,
      "iven": 9433,
      "Despite": 9434,
      "audience": 9435,
      "ту": 9436,
      "Bur": 9437,
      "Commun": 9438,
      "Super": 9439,
      "perform": 9440,
      "Bus": 9441,
      "straight": 9442,
      "double": 9443,
      "WITH": 9444,
      "attorney": 9445,
      "setting": 9446,
      "oph": 9447,
      "symp": 9448,
      "haven": 9449,
      "UP": 9450,
      "edge": 9451,
      "equip": 9452,
      "Eric": 9453,
      "Ok": 9454,
      "стра": 9455,
      "relations": 9456,
      "ampion": 9457,
      "selling": 9458,
      "Mrs": 9459,
      "FL": 9460,
      "increasingly": 9461,
      "propag": 9462,
      "putting": 9463,
      "protection": 9464,
      "Gar": 9465,
      "defic": 9466,
      "UL": 9467,
      "WikiLeaks": 9468,
      "notes": 9469,
      "choose": 9470,
      "expressed": 9471,
      "rog": 9472,
      "restaur": 9473,
      "guys": 9474,
      "provides": 9475,
      "Eli": 9476,
      "bid": 9477,
      "brand": 9478,
      "scale": 9479,
      "rated": 9480,
      "fed": 9481,
      "idency": 9482,
      "HO": 9483,
      "мы": 9484,
      "launch": 9485,
      "generation": 9486,
      "Holly": 9487,
      "Again": 9488,
      "lived": 9489,
      "Home": 9490,
      "CA": 9491,
      "rent": 9492,
      "Vide": 9493,
      "anced": 9494,
      "RA": 9495,
      "ads": 9496,
      "appre": 9497,
      "rey": 9498,
      "Both": 9499,
      "andon": 9500,
      "eline": 9501,
      "heavy": 9502,
      "color": 9503,
      "TION": 9504,
      "________": 9505,
      "iders": 9506,
      "Naz": 9507,
      "Je": 9508,
      "Still": 9509,
      "zone": 9510,
      "сле": 9511,
      "anta": 9512,
      "ume": 9513,
      "bles": 9514,
      "institut": 9515,
      "plane": 9516,
      "guard": 9517,
      "diary": 9518,
      "gers": 9519,
      "izes": 9520,
      "ders": 9521,
      "identified": 9522,
      "advance": 9523,
      "Dan": 9524,
      "TA": 9525,
      "Op": 9526,
      "basic": 9527,
      "ams": 9528,
      "Mich": 9529,
      "amed": 9530,
      "surround": 9531,
      "construction": 9532,
      "rol": 9533,
      "circum": 9534,
      "stone": 9535,
      "tick": 9536,
      "Where": 9537,
      "customers": 9538,
      "developed": 9539,
      "2003": 9540,
      "esh": 9541,
      "Second": 9542,
      "multiple": 9543,
      "lawyer": 9544,
      "territ": 9545,
      "degree": 9546,
      "declared": 9547,
      "chester": 9548,
      "planned": 9549,
      "desk": 9550,
      "dress": 9551,
      "Cur": 9552,
      "abuse": 9553,
      "steps": 9554,
      "fundament": 9555,
      "racist": 9556,
      "newspaper": 9557,
      "presents": 9558,
      "Carolina": 9559,
      "department": 9560,
      "Ver": 9561,
      "positions": 9562,
      "conspir": 9563,
      "code": 9564,
      "ght": 9565,
      "itarian": 9566,
      "Fer": 9567,
      "Gov": 9568,
      "uded": 9569,
      "Kar": 9570,
      "Avenue": 9571,
      "esters": 9572,
      "legit": 9573,
      "ashion": 9574,
      "weather": 9575,
      "consul": 9576,
      "removed": 9577,
      "Look": 9578,
      "Boston": 9579,
      "ml": 9580,
      "discussion": 9581,
      "eller": 9582,
      "Ohio": 9583,
      "argument": 9584,
      "proved": 9585,
      "warned": 9586,
      "princ": 9587,
      "gins": 9588,
      "Ir": 9589,
      "advice": 9590,
      "iar": 9591,
      "!”": 9592,
      "allies": 9593,
      "Viet": 9594,
      "communities": 9595,
      "caught": 9596,
      "raising": 9597,
      "Sim": 9598,
      "filed": 9599,
      "vation": 9600,
      "Leg": 9601,
      "protests": 9602,
      "95": 9603,
      "sides": 9604,
      "HA": 9605,
      "guns": 9606,
      "sche": 9607,
      "Mean": 9608,
      "crowd": 9609,
      "Policy": 9610,
      "smart": 9611,
      "istics": 9612,
      "posing": 9613,
      "waiting": 9614,
      "400": 9615,
      "Once": 9616,
      "щи": 9617,
      "refused": 9618,
      "Turk": 9619,
      "CL": 9620,
      "hun": 9621,
      "reporters": 9622,
      "standards": 9623,
      "decisions": 9624,
      "losing": 9625,
      "Lee": 9626,
      "conscious": 9627,
      "transfer": 9628,
      "emen": 9629,
      "mix": 9630,
      "sudden": 9631,
      "kid": 9632,
      "accounts": 9633,
      "minute": 9634,
      "presence": 9635,
      "photograph": 9636,
      "sight": 9637,
      "feeling": 9638,
      "iger": 9639,
      "έ": 9640,
      "pressed": 9641,
      "neighborhood": 9642,
      "usive": 9643,
      "pointed": 9644,
      "WAS": 9645,
      "intercept": 9646,
      "ruling": 9647,
      "nice": 9648,
      "rum": 9649,
      "Arabia": 9650,
      "possibly": 9651,
      "syn": 9652,
      "sleep": 9653,
      "tend": 9654,
      "balance": 9655,
      "Freedom": 9656,
      "management": 9657,
      "Pre": 9658,
      "пи": 9659,
      "limit": 9660,
      "expert": 9661,
      "42": 9662,
      "rig": 9663,
      "portion": 9664,
      "causes": 9665,
      "bow": 9666,
      "Williams": 9667,
      "housing": 9668,
      "AGE": 9669,
      "supporting": 9670,
      "unders": 9671,
      "planning": 9672,
      "Windows": 9673,
      "Ap": 9674,
      "reser": 9675,
      "criticism": 9676,
      "facing": 9677,
      "hat": 9678,
      "Inc": 9679,
      "absolutely": 9680,
      "ape": 9681,
      "astern": 9682,
      "fresh": 9683,
      "window": 9684,
      "sector": 9685,
      "doctors": 9686,
      "predict": 9687,
      "copyright": 9688,
      "carried": 9689,
      "discovered": 9690,
      "NEW": 9691,
      "ute": 9692,
      "Kerry": 9693,
      "Bri": 9694,
      "bra": 9695,
      "core": 9696,
      "married": 9697,
      "disaster": 9698,
      "partner": 9699,
      "bly": 9700,
      "holds": 9701,
      "Fur": 9702,
      "arant": 9703,
      "Jersey": 9704,
      "все": 9705,
      "Only": 9706,
      "fis": 9707,
      "automatically": 9708,
      "itors": 9709,
      "football": 9710,
      "Week": 9711,
      "stopped": 9712,
      "racial": 9713,
      "revolution": 9714,
      "established": 9715,
      "researchers": 9716,
      "section": 9717,
      "Dani": 9718,
      "popul": 9719,
      "gment": 9720,
      "watching": 9721,
      "ronic": 9722,
      "ции": 9723,
      "Kel": 9724,
      "Port": 9725,
      "pm": 9726,
      "iel": 9727,
      "Long": 9728,
      "Asia": 9729,
      "estimated": 9730,
      "preced": 9731,
      "evin": 9732,
      "emergency": 9733,
      "Dec": 9734,
      "QU": 9735,
      "evening": 9736,
      "Tube": 9737,
      "nell": 9738,
      "sanctions": 9739,
      "rally": 9740,
      "Show": 9741,
      "lymp": 9742,
      "runs": 9743,
      "ά": 9744,
      "sis": 9745,
      "female": 9746,
      "Come": 9747,
      "kin": 9748,
      "ero": 9749,
      "sac": 9750,
      "ordinary": 9751,
      "backed": 9752,
      "advantage": 9753,
      "providing": 9754,
      "projects": 9755,
      "tact": 9756,
      "electric": 9757,
      "cro": 9758,
      "03": 9759,
      "conservatives": 9760,
      "apt": 9761,
      "ered": 9762,
      "owned": 9763,
      "activists": 9764,
      "agents": 9765,
      "diplom": 9766,
      "destroy": 9767,
      "options": 9768,
      "Penn": 9769,
      "accur": 9770,
      "mentioned": 9771,
      "icks": 9772,
      "plays": 9773,
      "powers": 9774,
      "Wood": 9775,
      "revenue": 9776,
      "sym": 9777,
      "south": 9778,
      "sco": 9779,
      "cars": 9780,
      "controlled": 9781,
      "ART": 9782,
      "Olymp": 9783,
      "pages": 9784,
      "taxpay": 9785,
      "Sput": 9786,
      "mode": 9787,
      "bell": 9788,
      "Sputnik": 9789,
      "Bet": 9790,
      "igned": 9791,
      "filled": 9792,
      "Hom": 9793,
      "mod": 9794,
      "PO": 9795,
      "lobby": 9796,
      "saving": 9797,
      "tur": 9798,
      "FA": 9799,
      "novel": 9800,
      "2018": 9801,
      "43": 9802,
      "changing": 9803,
      "currency": 9804,
      "dropped": 9805,
      "apers": 9806,
      "promised": 9807,
      "indeed": 9808,
      "orial": 9809,
      "figures": 9810,
      "Ter": 9811,
      "install": 9812,
      "expensive": 9813,
      "collapse": 9814,
      "laugh": 9815,
      "Que": 9816,
      "Ill": 9817,
      "foods": 9818,
      "ding": 9819,
      "constant": 9820,
      "kins": 9821,
      "plat": 9822,
      "fortunately": 9823,
      "aine": 9824,
      "subsid": 9825,
      "statements": 9826,
      "guess": 9827,
      "Georg": 9828,
      "gotten": 9829,
      "possibility": 9830,
      "IE": 9831,
      "aker": 9832,
      "acks": 9833,
      "proceed": 9834,
      "cold": 9835,
      "accident": 9836,
      "ths": 9837,
      "ffic": 9838,
      "catch": 9839,
      "western": 9840,
      "omin": 9841,
      "Force": 9842,
      "skill": 9843,
      "зи": 9844,
      "shared": 9845,
      "emic": 9846,
      "Hu": 9847,
      "Call": 9848,
      "function": 9849,
      "ных": 9850,
      "пра": 9851,
      "infect": 9852,
      "unk": 9853,
      "бу": 9854,
      "decide": 9855,
      "portation": 9856,
      "Prince": 9857,
      "extremely": 9858,
      "ного": 9859,
      "users": 9860,
      "league": 9861,
      "ray": 9862,
      "ara": 9863,
      "command": 9864,
      "laptop": 9865,
      "videos": 9866,
      "generally": 9867,
      "iny": 9868,
      "impossible": 9869,
      "serving": 9870,
      "admitted": 9871,
      "Represent": 9872,
      "fle": 9873,
      "tort": 9874,
      "Hollywood": 9875,
      "Hen": 9876,
      "Radio": 9877,
      "north": 9878,
      "purposes": 9879,
      "distribut": 9880,
      "Cruz": 9881,
      "approved": 9882,
      "YouTube": 9883,
      "seas": 9884,
      "Color": 9885,
      "rant": 9886,
      "returned": 9887,
      "Guard": 9888,
      "rob": 9889,
      "surprise": 9890,
      "Bloom": 9891,
      "212": 9892,
      "blow": 9893,
      "Pac": 9894,
      "Lad": 9895,
      "Educ": 9896,
      "Its": 9897,
      "ipp": 9898,
      "older": 9899,
      "2002": 9900,
      "embr": 9901,
      "focused": 9902,
      "beautiful": 9903,
      "trig": 9904,
      "institutions": 9905,
      "Roy": 9906,
      "goals": 9907,
      "uled": 9908,
      "arrived": 9909,
      "establishment": 9910,
      "bottom": 9911,
      "opposed": 9912,
      "enses": 9913,
      "isan": 9914,
      "fasc": 9915,
      "column": 9916,
      "custo": 9917,
      "explos": 9918,
      "ба": 9919,
      "sugg": 9920,
      "estate": 9921,
      "ctic": 9922,
      "Governor": 9923,
      "guarant": 9924,
      "suggests": 9925,
      "phil": 9926,
      "tweet": 9927,
      "master": 9928,
      "threats": 9929,
      "trillion": 9930,
      "allows": 9931,
      "fox": 9932,
      "gry": 9933,
      "pover": 9934,
      "vement": 9935,
      "SEC": 9936,
      "strikes": 9937,
      "ска": 9938,
      "?\"": 9939,
      "skin": 9940,
      "bound": 9941,
      "Dou": 9942,
      "fashion": 9943,
      "founder": 9944,
      "streets": 9945,
      "tructure": 9946,
      "Ariz": 9947,
      "update": 9948,
      "assess": 9949,
      "allowing": 9950,
      "Den": 9951,
      "Bund": 9952,
      "driving": 9953,
      "nest": 9954,
      "лю": 9955,
      "browser": 9956,
      "secretary": 9957,
      "broke": 9958,
      "pra": 9959,
      "dish": 9960,
      "Mil": 9961,
      "Lef": 9962,
      "ni": 9963,
      "refugees": 9964,
      "Kim": 9965,
      "shock": 9966,
      "wage": 9967,
      "inflation": 9968,
      "direction": 9969,
      "combat": 9970,
      "shar": 9971,
      "Braz": 9972,
      "fake": 9973,
      "τη": 9974,
      "coin": 9975,
      "instruct": 9976,
      "blame": 9977,
      "ря": 9978,
      "cha": 9979,
      "inent": 9980,
      "Blog": 9981,
      "background": 9982,
      "77": 9983,
      "Brooklyn": 9984,
      "под": 9985,
      "roots": 9986,
      "inct": 9987,
      "bought": 9988,
      "Congressional": 9989,
      "Assad": 9990,
      "bac": 9991,
      "Reagan": 9992,
      "fourth": 9993,
      "reportedly": 9994,
      "concept": 9995,
      "Civil": 9996,
      "tle": 9997,
      "protesters": 9998,
      "41": 9999,
      "vac": 10000,
      "Fund": 10001,
      "corruption": 10002,
      "Museum": 10003,
      "66": 10004,
      "Tra": 10005,
      "так": 10006,
      "itation": 10007,
      "deaths": 10008,
      "faced": 10009,
      "shoot": 10010,
      "Gul": 10011,
      "Meanwhile": 10012,
      "cient": 10013,
      "creation": 10014,
      "ato": 10015,
      "numerous": 10016,
      "Paren": 10017,
      "linked": 10018,
      "Ty": 10019,
      "denied": 10020,
      "05": 10021,
      "itely": 10022,
      "nings": 10023,
      "intent": 10024,
      "nomine": 10025,
      "lean": 10026,
      "managed": 10027,
      "1990": 10028,
      "Greg": 10029,
      "ody": 10030,
      "CR": 10031,
      "slight": 10032,
      "conducted": 10033,
      "plicit": 10034,
      ",’": 10035,
      "illance": 10036,
      "Michigan": 10037,
      "teams": 10038,
      "presented": 10039,
      "Article": 10040,
      "Bernie": 10041,
      "propaganda": 10042,
      "emails": 10043,
      "du": 10044,
      "consequences": 10045,
      "proposal": 10046,
      "possess": 10047,
      "polls": 10048,
      "conce": 10049,
      "Fam": 10050,
      "Ten": 10051,
      "progressive": 10052,
      "aps": 10053,
      "Business": 10054,
      "rible": 10055,
      "images": 10056,
      "fant": 10057,
      "Corpor": 10058,
      "Pet": 10059,
      "usal": 10060,
      "routes": 10061,
      "offering": 10062,
      "finding": 10063,
      "jihad": 10064,
      "broken": 10065,
      "igation": 10066,
      "bia": 10067,
      "Pent": 10068,
      "tect": 10069,
      "Hall": 10070,
      "solid": 10071,
      "Sept": 10072,
      "honor": 10073,
      "astructure": 10074,
      "folks": 10075,
      "familiar": 10076,
      "stag": 10077,
      "prime": 10078,
      "associated": 10079,
      "turns": 10080,
      "inci": 10081,
      "ski": 10082,
      "inger": 10083,
      "Editor": 10084,
      "Blockchain": 10085,
      "realize": 10086,
      "specifically": 10087,
      "Turkish": 10088,
      "Jr": 10089,
      "Video": 10090,
      "кра": 10091,
      "complet": 10092,
      "Reserve": 10093,
      "Sus": 10094,
      "Judge": 10095,
      "zi": 10096,
      "ARE": 10097,
      "Company": 10098,
      "ena": 10099,
      "Haw": 10100,
      "hair": 10101,
      "soft": 10102,
      "Board": 10103,
      "retire": 10104,
      "ships": 10105,
      "fish": 10106,
      "olar": 10107,
      "Perhaps": 10108,
      "ucks": 10109,
      "ini": 10110,
      "appreci": 10111,
      "Does": 10112,
      "OK": 10113,
      "Click": 10114,
      "Science": 10115,
      "anch": 10116,
      "magazine": 10117,
      "aters": 10118,
      "entirely": 10119,
      "euro": 10120,
      "Cit": 10121,
      "Gra": 10122,
      "burg": 10123,
      "ias": 10124,
      "ye": 10125,
      "turning": 10126,
      "Korean": 10127,
      "POR": 10128,
      "remind": 10129,
      "Plan": 10130,
      "1980": 10131,
      "voter": 10132,
      "07": 10133,
      "scandal": 10134,
      "56": 10135,
      "pictures": 10136,
      "html": 10137,
      "Left": 10138,
      "assum": 10139,
      "missile": 10140,
      "overall": 10141,
      "matters": 10142,
      "Maybe": 10143,
      "ucky": 10144,
      "ga": 10145,
      "conversation": 10146,
      "opportun": 10147,
      "heads": 10148,
      "requires": 10149,
      "Greece": 10150,
      "stances": 10151,
      "Chair": 10152,
      "Libya": 10153,
      "ears": 10154,
      "OFF": 10155,
      "Mel": 10156,
      "resol": 10157,
      "Japanese": 10158,
      "USE": 10159,
      "approval": 10160,
      "separate": 10161,
      "ourselves": 10162,
      "Joseph": 10163,
      "olutions": 10164,
      "Italy": 10165,
      "replace": 10166,
      "therefore": 10167,
      "accus": 10168,
      "Gaz": 10169,
      "sitting": 10170,
      "spring": 10171,
      "asser": 10172,
      "59": 10173,
      "acad": 10174,
      "ordered": 10175,
      "thanks": 10176,
      "cool": 10177,
      "Top": 10178,
      "fly": 10179,
      "ode": 10180,
      "temper": 10181,
      "stor": 10182,
      "plants": 10183,
      "equal": 10184,
      "ause": 10185,
      "wars": 10186,
      "thew": 10187,
      "permission": 10188,
      "ko": 10189,
      "Vietnam": 10190,
      "IES": 10191,
      "kick": 10192,
      "discrimin": 10193,
      "Jackson": 10194,
      "aceful": 10195,
      "finance": 10196,
      "prepar": 10197,
      "greatest": 10198,
      "UC": 10199,
      "BR": 10200,
      "aught": 10201,
      "rooms": 10202,
      "emphas": 10203,
      "existing": 10204,
      "sick": 10205,
      "faces": 10206,
      "Though": 10207,
      "vant": 10208,
      "corporations": 10209,
      "arden": 10210,
      "sover": 10211,
      "award": 10212,
      "mil": 10213,
      "ilty": 10214,
      "Power": 10215,
      "CEO": 10216,
      "ivity": 10217,
      "Sher": 10218,
      "doctor": 10219,
      "sale": 10220,
      "TE": 10221,
      "dad": 10222,
      "encry": 10223,
      "apart": 10224,
      "Wis": 10225,
      "industrial": 10226,
      "deleg": 10227,
      "tens": 10228,
      "exercise": 10229,
      "notice": 10230,
      "tray": 10231,
      "trend": 10232,
      "claiming": 10233,
      "confirm": 10234,
      "worry": 10235,
      "encourage": 10236,
      "IVE": 10237,
      "fighters": 10238,
      "obl": 10239,
      "ulate": 10240,
      "stance": 10241,
      "THIS": 10242,
      "missing": 10243,
      "panic": 10244,
      "dex": 10245,
      "tradition": 10246,
      "assets": 10247,
      "asp": 10248,
      "appropriate": 10249,
      "comed": 10250,
      "По": 10251,
      "irt": 10252,
      "innoc": 10253,
      "NSA": 10254,
      "va": 10255,
      "Work": 10256,
      "57": 10257,
      "sports": 10258,
      "Pan": 10259,
      "Four": 10260,
      "bills": 10261,
      "seriously": 10262,
      "Special": 10263,
      "lip": 10264,
      "destruction": 10265,
      "Dear": 10266,
      "ак": 10267,
      "perman": 10268,
      "listen": 10269,
      "determined": 10270,
      "OUR": 10271,
      "Best": 10272,
      "presidency": 10273,
      "susp": 10274,
      "58": 10275,
      "config": 10276,
      "severe": 10277,
      "trading": 10278,
      "Attorney": 10279,
      "buying": 10280,
      "dram": 10281,
      "journalists": 10282,
      "enjoy": 10283,
      "Rock": 10284,
      "passing": 10285,
      "graphy": 10286,
      "suffering": 10287,
      "spl": 10288,
      "ultimately": 10289,
      "Kenned": 10290,
      "shel": 10291,
      "NAS": 10292,
      "favorite": 10293,
      "regulations": 10294,
      "PL": 10295,
      "leag": 10296,
      "gall": 10297,
      "consumers": 10298,
      "citing": 10299,
      "Treas": 10300,
      "iously": 10301,
      "Has": 10302,
      "accompl": 10303,
      "bath": 10304,
      "Arizona": 10305,
      "oing": 10306,
      "male": 10307,
      "silver": 10308,
      "Cuba": 10309,
      "Truth": 10310,
      "mut": 10311,
      "imagine": 10312,
      "coalition": 10313,
      "99999999": 10314,
      "entertain": 10315,
      "bringing": 10316,
      "Bit": 10317,
      "Brazil": 10318,
      "devast": 10319,
      "Ref": 10320,
      "helps": 10321,
      "traces": 10322,
      "whel": 10323,
      "embar": 10324,
      "anc": 10325,
      "Stephen": 10326,
      "champion": 10327,
      "bran": 10328,
      "hurt": 10329,
      "Should": 10330,
      "infrastructure": 10331,
      "etary": 10332,
      "bels": 10333,
      "Services": 10334,
      "rative": 10335,
      "Daniel": 10336,
      "MP": 10337,
      "shares": 10338,
      "deploy": 10339,
      "considering": 10340,
      "seed": 10341,
      "agent": 10342,
      "Pentagon": 10343,
      "unte": 10344,
      "instance": 10345,
      "remove": 10346,
      "argued": 10347,
      "buildings": 10348,
      "rub": 10349,
      "agement": 10350,
      "suicide": 10351,
      "Priv": 10352,
      "Kennedy": 10353,
      "pattern": 10354,
      "endor": 10355,
      "recommend": 10356,
      "ITY": 10357,
      "reaction": 10358,
      "ansas": 10359,
      "twice": 10360,
      "стве": 10361,
      "ные": 10362,
      "publicly": 10363,
      "legally": 10364,
      "categ": 10365,
      "Theater": 10366,
      "aspect": 10367,
      "trouble": 10368,
      "Election": 10369,
      "lights": 10370,
      "sphere": 10371,
      "Hor": 10372,
      "incred": 10373,
      "Brad": 10374,
      "intel": 10375,
      "acknowled": 10376,
      "iew": 10377,
      "GE": 10378,
      "glass": 10379,
      "ours": 10380,
      "Grand": 10381,
      "leads": 10382,
      ".'": 10383,
      "08": 10384,
      "Lar": 10385,
      "decline": 10386,
      "weapon": 10387,
      "Author": 10388,
      "Rod": 10389,
      "rif": 10390,
      "sole": 10391,
      "collection": 10392,
      "Project": 10393,
      "hang": 10394,
      "eper": 10395,
      "eign": 10396,
      "photos": 10397,
      "insp": 10398,
      "uster": 10399,
      "Profess": 10400,
      "Whe": 10401,
      "gri": 10402,
      "bin": 10403,
      "rapid": 10404,
      "жа": 10405,
      "injured": 10406,
      "restrict": 10407,
      "rush": 10408,
      "Did": 10409,
      "recr": 10410,
      "HS": 10411,
      "storm": 10412,
      "defeat": 10413,
      "ipal": 10414,
      "prohib": 10415,
      "offensive": 10416,
      "ор": 10417,
      "symbol": 10418,
      "Land": 10419,
      "Matthew": 10420,
      "kel": 10421,
      "Pres": 10422,
      "Ram": 10423,
      "deeply": 10424,
      "guilty": 10425,
      "proof": 10426,
      "Australia": 10427,
      "zon": 10428,
      "06": 10429,
      "Tax": 10430,
      "Alab": 10431,
      "BBC": 10432,
      "originally": 10433,
      "bear": 10434,
      "Finan": 10435,
      "cher": 10436,
      "….": 10437,
      "compar": 10438,
      "mayor": 10439,
      "prospect": 10440,
      "demands": 10441,
      "lit": 10442,
      "Рос": 10443,
      "нт": 10444,
      "reporter": 10445,
      "thood": 10446,
      "Spr": 10447,
      "Eastern": 10448,
      "funded": 10449,
      "ox": 10450,
      "arg": 10451,
      "effic": 10452,
      "perspect": 10453,
      "quiet": 10454,
      "democratic": 10455,
      "River": 10456,
      "houses": 10457,
      "amb": 10458,
      "exhib": 10459,
      "epis": 10460,
      "excited": 10461,
      "overwhel": 10462,
      "competition": 10463,
      "Chel": 10464,
      "unique": 10465,
      "machine": 10466,
      "connection": 10467,
      "edia": 10468,
      "extr": 10469,
      "penal": 10470,
      "conspiracy": 10471,
      "ifth": 10472,
      "empts": 10473,
      "би": 10474,
      "он": 10475,
      "cession": 10476,
      "desper": 10477,
      "aircraft": 10478,
      "Oct": 10479,
      "condem": 10480,
[...]
