{
  "version": "1.0",
  "truncation": null,
  "padding": null,
  "added_tokens": [
    {
      "id": 0,
      "content": "[PAD]",
      "single_word": false,
      "lstrip": false,
      "rstrip": false,
      "normalized": false,
      "special": true
    },
    {
      "id": 1,
      "content": "[UNK]",
      "single_word": false,
      "lstrip": false,
      "rstrip": false,
      "normalized": false,
      "special": true
    },
    {
      "id": 2,
      "content": "[CLS]",
      "single_word": false,
      "lstrip": false,
      "rstrip": false,
      "normalized": false,
      "special": true
    },
    {
      "id": 3,
      "content": "[SEP]",
      "single_word": false,
      "lstrip": false,
      "rstrip": false,
      "normalized": false,
      "special": true
    },
    {
      "id": 4,
      "content": "[MASK]",
      "single_word": false,
      "lstrip": false,
      "rstrip": false,
      "normalized": false,
      "special": true
    }
  ],
  "normalizer": {
    "type": "NFD"
  },
  "pre_tokenizer": {
    "type": "Whitespace"
  },
  "post_processor": null,
  "decoder": null,
  "model": {
    "type": "BPE",
    "dropout": null,
    "unk_token": null,
    "continuing_subword_prefix": null,
    "end_of_word_suffix": null,
    "fuse_unk": false,
    "byte_fallback": false,
    "ignore_merges": false,
    "vocab": {
      "[PAD]": 0,
      "[UNK]": 1,
      "[CLS]": 2,
      "[SEP]": 3,
      "[MASK]": 4,
      "!": 5,
      "\"": 6,
      "#": 7,
      "$": 8,
      "%": 9,
      "&": 10,
      "'": 11,
      "(": 12,
      ")": 13,
      "*": 14,
      "+": 15,
      ",": 16,
      "-": 17,
      ".": 18,
      "/": 19,
      "0": 20,
      "1": 21,
      "2": 22,
      "3": 23,
      "4": 24,
      "5": 25,
      "6": 26,
      "7": 27,
      "8": 28,
      "9": 29,
      ":": 30,
      ";": 31,
      "<": 32,
      "=": 33,
      ">": 34,
      "?": 35,
      "@": 36,
      "A": 37,
      "B": 38,
      "C": 39,
      "D": 40,
      "E": 41,
      "F": 42,
      "G": 43,
      "H": 44,
      "I": 45,
      "J": 46,
      "K": 47,
      "L": 48,
      "M": 49,
      "N": 50,
      "O": 51,
      "P": 52,
      "Q": 53,
      "R": 54,
      "S": 55,
      "T": 56,
      "U": 57,
      "V": 58,
      "W": 59,
      "X": 60,
      "Y": 61,
      "Z": 62,
      "[": 63,
      "\\": 64,
      "]": 65,
      "^": 66,
      "_": 67,
      "`": 68,
      "a": 69,
      "b": 70,
      "c": 71,
      "d": 72,
      "e": 73,
      "f": 74,
      "g": 75,
      "h": 76,
      "i": 77,
      "j": 78,
      "k": 79,
      "l": 80,
      "m": 81,
      "n": 82,
      "o": 83,
      "p": 84,
      "q": 85,
      "r": 86,
      "s": 87,
      "t": 88,
      "u": 89,
      "v": 90,
      "w": 91,
      "x": 92,
      "y": 93,
      "z": 94,
      "{": 95,
      "|": 96,
      "}": 97,
      "~": 98,
      "": 99,
      "": 100,
      "": 101,
      "": 102,
      "": 103,
      "": 104,
      "": 105,
      "": 106,
      "": 107,
      "": 108,
      "¡": 109,
      "¢": 110,
      "£": 111,
      "§": 112,
      "¨": 113,
      "©": 114,
      "ª": 115,
      "«": 116,
      "¬": 117,
      "­": 118,
      "®": 119,
      "¯": 120,
      "°": 121,
      "±": 122,
      "²": 123,
      "³": 124,
      "´": 125,
      "¶": 126,
      "·": 127,
      "¹": 128,
      "º": 129,
      "»": 130,
      "¼": 131,
      "½": 132,
      "¾": 133,
      "¿": 134,
      "×": 135,
      "Ø": 136,
      "ß": 137,
      "æ": 138,
      "ð": 139,
      "ø": 140,
      "þ": 141,
      "ı": 142,
      "ł": 143,
      "œ": 144,
      "̀": 145,
      "́": 146,
      "̂": 147,
      "̃": 148,
      "̄": 149,
      "̆": 150,
      "̇": 151,
      "̈": 152,
      "̊": 153,
      "̌": 154,
      "̣": 155,
      "̧": 156,
      "Α": 157,
      "Β": 158,
      "Γ": 159,
      "Δ": 160,
      "Ε": 161,
      "Ζ": 162,
      "Η": 163,
      "Θ": 164,
      "Ι": 165,
      "Κ": 166,
      "Λ": 167,
      "Μ": 168,
      "Ν": 169,
      "Ξ": 170,
      "Ο": 171,
      "Π": 172,
      "Ρ": 173,
      "Σ": 174,
      "Τ": 175,
      "Υ": 176,
      "Φ": 177,
      "Χ": 178,
      "Ψ": 179,
      "Ω": 180,
      "α": 181,
      "β": 182,
      "γ": 183,
      "δ": 184,
      "ε": 185,
      "ζ": 186,
      "η": 187,
      "θ": 188,
      "ι": 189,
      "κ": 190,
      "λ": 191,
      "μ": 192,
      "ν": 193,
      "ξ": 194,
      "ο": 195,
      "π": 196,
      "ρ": 197,
      "ς": 198,
      "σ": 199,
      "τ": 200,
      "υ": 201,
      "φ": 202,
      "χ": 203,
      "ψ": 204,
      "ω": 205,
      "А": 206,
      "Б": 207,
      "В": 208,
      "Г": 209,
      "Д": 210,
      "Е": 211,
      "Ж": 212,
      "З": 213,
      "И": 214,
      "К": 215,
      "Л": 216,
      "М": 217,
      "Н": 218,
      "О": 219,
      "П": 220,
      "Р": 221,
      "С": 222,
      "Т": 223,
      "У": 224,
      "Ф": 225,
      "Х": 226,
      "Ц": 227,
      "Ч": 228,
      "Ш": 229,
      "Щ": 230,
      "Ы": 231,
      "Э": 232,
      "Ю": 233,
      "Я": 234,
      "а": 235,
      "б": 236,
      "в": 237,
      "г": 238,
      "д": 239,
      "е": 240,
      "ж": 241,
      "з": 242,
      "и": 243,
      "к": 244,
      "л": 245,
      "м": 246,
      "н": 247,
      "о": 248,
      "п": 249,
      "р": 250,
      "с": 251,
      "т": 252,
      "у": 253,
      "ф": 254,
      "х": 255,
      "ц": 256,
      "ч": 257,
      "ш": 258,
      "щ": 259,
      "ъ": 260,
      "ы": 261,
      "ь": 262,
      "э": 263,
      "ю": 264,
      "я": 265,
      "ѕ": 266,
      "֣": 267,
      "ֲ": 268,
      "ִ": 269,
      "ָ": 270,
      "ּ": 271,
      "א": 272,
      "ה": 273,
      "ו": 274,
      "ז": 275,
      "ח": 276,
      "י": 277,
      "פ": 278,
      "צ": 279,
      "،": 280,
      "ء": 281,
      "ا": 282,
      "ب": 283,
      "ة": 284,
      "ت": 285,
      "ث": 286,
      "ج": 287,
      "ح": 288,
      "خ": 289,
      "د": 290,
      "ذ": 291,
      "ر": 292,
      "ز": 293,
      "س": 294,
      "ش": 295,
      "ص": 296,
      "ض": 297,
      "ط": 298,
      "ع": 299,
      "غ": 300,
      "ـ": 301,
      "ف": 302,
      "ق": 303,
      "ك": 304,
      "ل": 305,
      "م": 306,
      "ن": 307,
      "ه": 308,
      "و": 309,
      "ى": 310,
      "ي": 311,
      "ً": 312,
      "ٓ": 313,
      "ٔ": 314,
      "ٕ": 315,
      "پ": 316,
      "گ": 317,
      "ی": 318,
      "​": 319,
      "‍": 320,
      "‎": 321,
      "‏": 322,
      "‐": 323,
      "‒": 324,
      "–": 325,
      "—": 326,
      "―": 327,
      "‘": 328,
      "’": 329,
      "‚": 330,
      "“": 331,
      "”": 332,
      "„": 333,
      "†": 334,
      "•": 335,
      "…": 336,
      "‪": 337,
      "‬": 338,
      "′": 339,
      "″": 340,
      "›": 341,
      "₂": 342,
      "€": 343,
      "ℓ": 344,
      "№": 345,
      "™": 346,
      "⅔": 347,
      "←": 348,
      "↑": 349,
      "→": 350,
      "−": 351,
      "∼": 352,
      "∾": 353,
      "≈": 354,
      "■": 355,
      "●": 356,
      "★": 357,
      "♀": 358,
      "♍": 359,
      "♔": 360,
      "♕": 361,
      "♚": 362,
      "♛": 363,
      "♞": 364,
      "♡": 365,
      "♥": 366,
      "♦": 367,
      "⚰": 368,
      "⚽": 369,
      "✌": 370,
      "✏": 371,
      "✔": 372,
      "✨": 373,
      "❄": 374,
      "❌": 375,
      "❤": 376,
      "ツ": 377,
      "喷": 378,
      "嚔": 379,
      "打": 380,
      "ﷺ": 381,
      "️": 382,
      "﻿": 383,
      "�": 384,
      "🇩": 385,
      "🇪": 386,
      "🇰": 387,
      "🇸": 388,
      "🇺": 389,
      "🌈": 390,
      "🎩": 391,
      "🎯": 392,
      "🏻": 393,
      "🏽": 394,
      "🐇": 395,
      "🐐": 396,
      "🐰": 397,
      "👊": 398,
      "👋": 399,
      "👑": 400,
      "👒": 401,
      "👻": 402,
      "💀": 403,
      "💋": 404,
      "💎": 405,
      "💚": 406,
      "🔊": 407,
      "🔍": 408,
      "🗳": 409,
      "😁": 410,
      "😂": 411,
      "😉": 412,
      "😍": 413,
      "🙂": 414,
      "🚨": 415,
      "🤓": 416,
      "🤷": 417,
      "th": 418,
      "in": 419,
      "er": 420,
      "an": 421,
      "on": 422,
      "the": 423,
      "re": 424,
      "at": 425,
      "en": 426,
      "or": 427,
      "st": 428,
      "al": 429,
      "ed": 430,
      "ou": 431,
      "ing": 432,
      "to": 433,
      "is": 434,
      "ar": 435,
      "es": 436,
      "of": 437,
      "it": 438,
      "and": 439,
      "as": 440,
      "ic": 441,
      "le": 442,
      "ion": 443,
      "om": 444,
      "ent": 445,
      "he": 446,
      "il": 447,
      "se": 448,
      "ac": 449,
      "ve": 450,
      "be": 451,
      "ad": 452,
      "id": 453,
      "ly": 454,
      "ro": 455,
      "for": 456,
      "am": 457,
      "that": 458,
      "ol": 459,
      "wh": 460,
      "ow": 461,
      "ay": 462,
      "ch": 463,
      "ig": 464,
      "im": 465,
      "ver": 466,
      "ot": 467,
      "ation": 468,
      "ter": 469,
      "de": 470,
      "un": 471,
      "ur": 472,
      "ut": 473,
      "are": 474,
      "ce": 475,
      "ir": 476,
      "ag": 477,
      "ct": 478,
      "con": 479,
      "us": 480,
      "The": 481,
      "ne": 482,
      "li": 483,
      "ab": 484,
      "ith": 485,
      "pe": 486,
      "res": 487,
      "em": 488,
      "com": 489,
      "ill": 490,
      "ers": 491,
      "su": 492,
      "et": 493,
      "ha": 494,
      "op": 495,
      "with": 496,
      "el": 497,
      "ri": 498,
      "ere": 499,
      "our": 500,
      "ate": 501,
      "ld": 502,
      "all": 503,
      "mo": 504,
      "pro": 505,
      "ul": 506,
      "out": 507,
      "lo": 508,
      "ain": 509,
      "ist": 510,
      "ke": 511,
      "was": 512,
      "oun": 513,
      "ment": 514,
      "we": 515,
      "fr": 516,
      "by": 517,
      "tr": 518,
      "ex": 519,
      "ht": 520,
      "not": 521,
      "ap": 522,
      "one": 523,
      "sh": 524,
      "his": 525,
      "have": 526,
      "so": 527,
      "ity": 528,
      "ther": 529,
      "if": 530,
      "art": 531,
      "pl": 532,
      "po": 533,
      "ess": 534,
      "um": 535,
      "from": 536,
      "ant": 537,
      "est": 538,
      "ould": 539,
      "sa": 540,
      "ew": 541,
      "la": 542,
      "you": 543,
      "has": 544,
      "ive": 545,
      "over": 546,
      "ort": 547,
      "this": 548,
      "ight": 549,
      "end": 550,
      "up": 551,
      "ci": 552,
      "do": 553,
      "ust": 554,
      "act": 555,
      "20": 556,
      "ear": 557,
      "qu": 558,
      "In": 559,
      "ack": 560,
      "per": 561,
      "od": 562,
      "ies": 563,
      "wor": 564,
      "who": 565,
      "man": 566,
      "bl": 567,
      "ally": 568,
      "ak": 569,
      "said": 570,
      "ep": 571,
      "they": 572,
      "ans": 573,
      "ge": 574,
      "ore": 575,
      "au": 576,
      "der": 577,
      "te": 578,
      "pr": 579,
      "gr": 580,
      "mer": 581,
      "will": 582,
      "Th": 583,
      "ome": 584,
      "me": 585,
      "cl": 586,
      "ast": 587,
      "but": 588,
      "port": 589,
      "ich": 590,
      "ard": 591,
      "ra": 592,
      "ia": 593,
      "ran": 594,
      "ev": 595,
      "can": 596,
      "their": 597,
      "iv": 598,
      "day": 599,
      "ous": 600,
      "ong": 601,
      "ud": 602,
      "ind": 603,
      "ber": 604,
      "oug": 605,
      "now": 606,
      "cr": 607,
      "go": 608,
      "ign": 609,
      "off": 610,
      "ary": 611,
      "ice": 612,
      "fe": 613,
      "..": 614,
      "new": 615,
      ".”": 616,
      "ail": 617,
      "red": 618,
      "no": 619,
      "ions": 620,
      "ine": 621,
      "more": 622,
      "ide": 623,
      "St": 624,
      "about": 625,
      "ian": 626,
      "its": 627,
      "ok": 628,
      "ef": 629,
      "ound": 630,
      "af": 631,
      "An": 632,
      "ass": 633,
      "bo": 634,
      "age": 635,
      "iz": 636,
      "her": 637,
      "int": 638,
      "00": 639,
      "which": 640,
      "year": 641,
      "It": 642,
      "had": 643,
      "New": 644,
      "ated": 645,
      "ck": 646,
      "would": 647,
      "ell": 648,
      "any": 649,
      "ress": 650,
      "cent": 651,
      "--": 652,
      "ence": 653,
      "ue": 654,
      "own": 655,
      "ople": 656,
      "tim": 657,
      "vi": 658,
      "been": 659,
      "ubl": 660,
      "were": 661,
      "co": 662,
      "ure": 663,
      "other": 664,
      "Wh": 665,
      "pre": 666,
      "ite": 667,
      "ident": 668,
      "Ch": 669,
      "ates": 670,
      "201": 671,
      "ory": 672,
      "pol": 673,
      "some": 674,
      "ire": 675,
      "ough": 676,
      "ake": 677,
      "ase": 678,
      "people": 679,
      "ial": 680,
      "like": 681,
      "av": 682,
      "ll": 683,
      "ations": 684,
      "sp": 685,
      "He": 686,
      "cre": 687,
      "thing": 688,
      "cont": 689,
      "Amer": 690,
      "ace": 691,
      "ser": 692,
      "ame": 693,
      "very": 694,
      "ical": 695,
      "Americ": 696,
      "ren": 697,
      "ish": 698,
      "way": 699,
      "able": 700,
      "ts": 701,
      "ublic": 702,
      "att": 703,
      "pos": 704,
      "get": 705,
      "dis": 706,
      "part": 707,
      "than": 708,
      "inter": 709,
      "comp": 710,
      "old": 711,
      "ru": 712,
      "ach": 713,
      "ree": 714,
      "coun": 715,
      "what": 716,
      "work": 717,
      "Re": 718,
      "ip": 719,
      "''": 720,
      "ho": 721,
      "cor": 722,
      "med": 723,
      "lect": 724,
      "Iran": 725,
      "ick": 726,
      "read": 727,
      "min": 728,
      "cur": 729,
      "ance": 730,
      "my": 731,
      "Un": 732,
      "Con": 733,
      "pt": 734,
      "Tr": 735,
      "ble": 736,
      "them": 737,
      "ens": 738,
      "ark": 739,
      ",”": 740,
      "just": 741,
      "when": 742,
      "your": 743,
      "there": 744,
      "ors": 745,
      "We": 746,
      "pres": 747,
      "spe": 748,
      "ink": 749,
      "overn": 750,
      "Is": 751,
      "wo": 752,
      "fore": 753,
      "ob": 754,
      "again": 755,
      "ile": 756,
      "du": 757,
      "low": 758,
      "os": 759,
      "br": 760,
      "ade": 761,
      "also": 762,
      "ang": 763,
      "ump": 764,
      "time": 765,
      "ose": 766,
      "mon": 767,
      "fir": 768,
      "ater": 769,
      "know": 770,
      "try": 771,
      "sy": 772,
      "ama": 773,
      "cau": 774,
      "she": 775,
      "Mr": 776,
      "19": 777,
      "most": 778,
      "say": 779,
      "into": 780,
      "fer": 781,
      "ition": 782,
      "ty": 783,
      "But": 784,
      "him": 785,
      "Ob": 786,
      "oc": 787,
      "enc": 788,
      "after": 789,
      "form": 790,
      "how": 791,
      "cause": 792,
      "sub": 793,
      "ult": 794,
      "og": 795,
      "ict": 796,
      "ning": 797,
      "row": 798,
      "TH": 799,
      "IN": 800,
      "This": 801,
      "pp": 802,
      "let": 803,
      "right": 804,
      "govern": 805,
      "As": 806,
      "And": 807,
      "only": 808,
      "sel": 809,
      "sc": 810,
      "ild": 811,
      "cial": 812,
      "ON": 813,
      "amp": 814,
      "lear": 815,
      "reg": 816,
      "ry": 817,
      "under": 818,
      "ank": 819,
      "ful": 820,
      "comm": 821,
      "vers": 822,
      "add": 823,
      "ited": 824,
      "US": 825,
      "main": 826,
      "could": 827,
      "ating": 828,
      "Rep": 829,
      "nation": 830,
      "Obama": 831,
      "Trump": 832,
      "ie": 833,
      "Ad": 834,
      "ek": 835,
      "back": 836,
      "leg": 837,
      "even": 838,
      "ement": 839,
      "RE": 840,
      "two": 841,
      "iss": 842,
      "vel": 843,
      "uss": 844,
      "serv": 845,
      "You": 846,
      "come": 847,
      "ons": 848,
      "cess": 849,
      "government": 850,
      "many": 851,
      "call": 852,
      "don": 853,
      "igh": 854,
      "use": 855,
      "years": 856,
      "war": 857,
      "law": 858,
      "cer": 859,
      "...": 860,
      "where": 861,
      "itt": 862,
      "ction": 863,
      "Se": 864,
      "des": 865,
      "report": 866,
      "reat": 867,
      "Al": 868,
      "because": 869,
      "did": 870,
      "fin": 871,
      "col": 872,
      "ash": 873,
      "vis": 874,
      "alth": 875,
      "rough": 876,
      "uc": 877,
      "first": 878,
      "200": 879,
      "down": 880,
      "bet": 881,
      "ork": 882,
      "ual": 883,
      "fl": 884,
      "news": 885,
      "want": 886,
      "incl": 887,
      "ters": 888,
      "ins": 889,
      "ener": 890,
      "ings": 891,
      "urn": 892,
      "oup": 893,
      "illion": 894,
      "ism": 895,
      "IS": 896,
      "ative": 897,
      "str": 898,
      "ities": 899,
      "think": 900,
      "ents": 901,
      "every": 902,
      "air": 903,
      "hel": 904,
      "bu": 905,
      "ph": 906,
      "against": 907,
      "AT": 908,
      "last": 909,
      "ving": 910,
      "cord": 911,
      "ven": 912,
      "world": 913,
      "News": 914,
      "being": 915,
      "gu": 916,
      "ath": 917,
      "AN": 918,
      "less": 919,
      "mu": 920,
      "may": 921,
      "those": 922,
      "ER": 923,
      "tain": 924,
      "through": 925,
      "ced": 926,
      "ved": 927,
      "ics": 928,
      "ments": 929,
      "need": 930,
      "Le": 931,
      "American": 932,
      "then": 933,
      "und": 934,
      "arch": 935,
      "ise": 936,
      "produ": 937,
      "ст": 938,
      "conom": 939,
      "lead": 940,
      "je": 941,
      "story": 942,
      "these": 943,
      "di": 944,
      "stem": 945,
      "rel": 946,
      "resident": 947,
      "dec": 948,
      "point": 949,
      "If": 950,
      "cho": 951,
      "play": 952,
      "see": 953,
      "lar": 954,
      "Republic": 955,
      "vot": 956,
      "ouse": 957,
      "gan": 958,
      "imp": 959,
      "York": 960,
      "So": 961,
      "ious": 962,
      "ting": 963,
      "used": 964,
      "ces": 965,
      "alk": 966,
      "lease": 967,
      "ever": 968,
      "rit": 969,
      "aking": 970,
      "ists": 971,
      "sup": 972,
      "long": 973,
      "ton": 974,
      "should": 975,
      "polit": 976,
      "does": 977,
      "land": 978,
      "ax": 979,
      "No": 980,
      "make": 981,
      "cons": 982,
      "self": 983,
      "pect": 984,
      "well": 985,
      "ves": 986,
      "ann": 987,
      "cut": 988,
      "week": 989,
      "ib": 990,
      "ince": 991,
      "ices": 992,
      "mark": 993,
      "state": 994,
      "Russ": 995,
      "public": 996,
      "made": 997,
      "tri": 998,
      "sur": 999,
      "mem": 1000,
      "pers": 1001,
      "10": 1002,
      "before": 1003,
      "uring": 1004,
      "system": 1005,
      "elect": 1006,
      "als": 1007,
      "THE": 1008,
      "Ar": 1009,
      "look": 1010,
      "imes": 1011,
      "й": 1012,
      "ys": 1013,
      "For": 1014,
      "ject": 1015,
      "ily": 1016,
      "much": 1017,
      "view": 1018,
      "ft": 1019,
      "led": 1020,
      "ower": 1021,
      "such": 1022,
      "crat": 1023,
      "ner": 1024,
      "turn": 1025,
      "includ": 1026,
      "io": 1027,
      "They": 1028,
      "stand": 1029,
      "ific": 1030,
      "exp": 1031,
      "President": 1032,
      "Jo": 1033,
      "show": 1034,
      "here": 1035,
      "che": 1036,
      "----": 1037,
      "istr": 1038,
      "emp": 1039,
      "offic": 1040,
      "car": 1041,
      "going": 1042,
      "Dem": 1043,
      "vest": 1044,
      "put": 1045,
      "ss": 1046,
      "ask": 1047,
      "ister": 1048,
      "ional": 1049,
      "ood": 1050,
      "United": 1051,
      "ased": 1052,
      "val": 1053,
      "inue": 1054,
      "ma": 1055,
      "ror": 1056,
      "AL": 1057,
      "book": 1058,
      "fam": 1059,
      "Com": 1060,
      "econom": 1061,
      "EN": 1062,
      "cour": 1063,
      "miss": 1064,
      "fact": 1065,
      "while": 1066,
      "ency": 1067,
      "gy": 1068,
      "aw": 1069,
      "support": 1070,
      "beli": 1071,
      "ush": 1072,
      "son": 1073,
      ".\"": 1074,
      "De": 1075,
      "ible": 1076,
      "ense": 1077,
      "help": 1078,
      "Iranian": 1079,
      "par": 1080,
      "но": 1081,
      "fect": 1082,
      "на": 1083,
      "olog": 1084,
      "take": 1085,
      "real": 1086,
      "percent": 1087,
      "ww": 1088,
      "000": 1089,
      "mil": 1090,
      "lam": 1091,
      "country": 1092,
      "ility": 1093,
      "national": 1094,
      "order": 1095,
      "head": 1096,
      "ms": 1097,
      "group": 1098,
      "Cl": 1099,
      "ра": 1100,
      "set": 1101,
      "sure": 1102,
      "good": 1103,
      "There": 1104,
      "les": 1105,
      "high": 1106,
      "dif": 1107,
      "ought": 1108,
      "Demo": 1109,
      "inst": 1110,
      "fi": 1111,
      "line": 1112,
      "ivers": 1113,
      "Cont": 1114,
      "то": 1115,
      "stud": 1116,
      "ave": 1117,
      "ular": 1118,
      "clo": 1119,
      "requ": 1120,
      "cond": 1121,
      "ason": 1122,
      "president": 1123,
      "irect": 1124,
      "def": 1125,
      "ris": 1126,
      "child": 1127,
      "cover": 1128,
      "chan": 1129,
      "soci": 1130,
      "person": 1131,
      "issu": 1132,
      "cla": 1133,
      ").": 1134,
      "test": 1135,
      "Democrat": 1136,
      "Sen": 1137,
      "ward": 1138,
      "ни": 1139,
      "pri": 1140,
      "ollow": 1141,
      "Please": 1142,
      "America": 1143,
      "wom": 1144,
      "vert": 1145,
      "She": 1146,
      "That": 1147,
      "power": 1148,
      "life": 1149,
      "ost": 1150,
      "uro": 1151,
      "aren": 1152,
      "mar": 1153,
      "ied": 1154,
      "ines": 1155,
      "ext": 1156,
      "gg": 1157,
      "camp": 1158,
      "same": 1159,
      "top": 1160,
      "ually": 1161,
      "sign": 1162,
      "cap": 1163,
      "found": 1164,
      "ро": 1165,
      "plan": 1166,
      "cs": 1167,
      "11": 1168,
      "claim": 1169,
      "invest": 1170,
      "run": 1171,
      "OR": 1172,
      "resp": 1173,
      "Islam": 1174,
      "month": 1175,
      "still": 1176,
      "mat": 1177,
      "oper": 1178,
      "Pro": 1179,
      "reading": 1180,
      "attack": 1181,
      "big": 1182,
      "Ira": 1183,
      "//": 1184,
      "acy": 1185,
      "Be": 1186,
      "ah": 1187,
      "oney": 1188,
      "Recs": 1189,
      "Iraq": 1190,
      "On": 1191,
      "ik": 1192,
      "pay": 1193,
      "during": 1194,
      "care": 1195,
      "gram": 1196,
      "eral": 1197,
      "million": 1198,
      "ider": 1199,
      "happ": 1200,
      "Up": 1201,
      "bus": 1202,
      "num": 1203,
      "start": 1204,
      "ives": 1205,
      "net": 1206,
      "itut": 1207,
      "States": 1208,
      "ES": 1209,
      "uclear": 1210,
      "prov": 1211,
      "ween": 1212,
      "vol": 1213,
      "appe": 1214,
      "ff": 1215,
      "curren": 1216,
      "enter": 1217,
      "ub": 1218,
      "cording": 1219,
      "tp": 1220,
      "iness": 1221,
      "Times": 1222,
      "ues": 1223,
      "Ro": 1224,
      ",\"": 1225,
      "ants": 1226,
      "://": 1227,
      "Pl": 1228,
      "http": 1229,
      "rist": 1230,
      "por": 1231,
      "cept": 1232,
      "tax": 1233,
      "coming": 1234,
      "since": 1235,
      "ime": 1236,
      "chool": 1237,
      "three": 1238,
      "cal": 1239,
      "ко": 1240,
      "ically": 1241,
      "AR": 1242,
      "must": 1243,
      "),": 1244,
      "ures": 1245,
      "called": 1246,
      "vent": 1247,
      "hand": 1248,
      "got": 1249,
      "bers": 1250,
      "$$": 1251,
      "between": 1252,
      "Sh": 1253,
      "hoto": 1254,
      "post": 1255,
      "At": 1256,
      "ds": 1257,
      "ger": 1258,
      "char": 1259,
      "ared": 1260,
      "another": 1261,
      "ten": 1262,
      "lim": 1263,
      "including": 1264,
      "sm": 1265,
      "contro": 1266,
      "To": 1267,
      "inform": 1268,
      "itary": 1269,
      "recent": 1270,
      "told": 1271,
      "15": 1272,
      "по": 1273,
      "trans": 1274,
      "commun": 1275,
      "stat": 1276,
      "hn": 1277,
      "ern": 1278,
      "ames": 1279,
      "market": 1280,
      "AS": 1281,
      "Fr": 1282,
      "find": 1283,
      "stru": 1284,
      "loy": 1285,
      "thor": 1286,
      "En": 1287,
      "ness": 1288,
      "12": 1289,
      "health": 1290,
      "few": 1291,
      "around": 1292,
      "vertis": 1293,
      "ized": 1294,
      "blo": 1295,
      "ians": 1296,
      "chang": 1297,
      "jo": 1298,
      "IT": 1299,
      "talk": 1300,
      "side": 1301,
      "den": 1302,
      "bal": 1303,
      "far": 1304,
      "kill": 1305,
      "poss": 1306,
      "ina": 1307,
      "Continue": 1308,
      "What": 1309,
      "ug": 1310,
      "rece": 1311,
      "hum": 1312,
      "place": 1313,
      "House": 1314,
      "list": 1315,
      "aign": 1316,
      "political": 1317,
      "OF": 1318,
      "direct": 1319,
      "Euro": 1320,
      "icle": 1321,
      "money": 1322,
      "akes": 1323,
      "dep": 1324,
      "app": 1325,
      "Mar": 1326,
      "ages": 1327,
      "How": 1328,
      "ety": 1329,
      "never": 1330,
      "ре": 1331,
      "rest": 1332,
      "ways": 1333,
      "pass": 1334,
      "Don": 1335,
      "Sup": 1336,
      "both": 1337,
      "too": 1338,
      "program": 1339,
      "az": 1340,
      "ls": 1341,
      "ago": 1342,
      "letter": 1343,
      "John": 1344,
      "jor": 1345,
      "ington": 1346,
      "prof": 1347,
      "wit": 1348,
      "curity": 1349,
      "ship": 1350,
      "ural": 1351,
      "ION": 1352,
      "atch": 1353,
      "official": 1354,
      "incre": 1355,
      "xt": 1356,
      "prom": 1357,
      "ED": 1358,
      "Pol": 1359,
      "wr": 1360,
      "bre": 1361,
      "tra": 1362,
      "former": 1363,
      "polic": 1364,
      "follow": 1365,
      "exper": 1366,
      "ather": 1367,
      "quest": 1368,
      "ederal": 1369,
      "eng": 1370,
      "light": 1371,
      "IC": 1372,
      "really": 1373,
      "Sy": 1374,
      "interest": 1375,
      "seem": 1376,
      "ale": 1377,
      "gener": 1378,
      "Te": 1379,
      "differ": 1380,
      "came": 1381,
      "search": 1382,
      "Af": 1383,
      "says": 1384,
      "reme": 1385,
      "ital": 1386,
      "won": 1387,
      "scri": 1388,
      "tell": 1389,
      "vir": 1390,
      "Or": 1391,
      "move": 1392,
      "50": 1393,
      "pur": 1394,
      "ready": 1395,
      "bro": 1396,
      "cas": 1397,
      "30": 1398,
      "bor": 1399,
      "ator": 1400,
      "When": 1401,
      "might": 1402,
      "не": 1403,
      "hist": 1404,
      "cy": 1405,
      "stitut": 1406,
      "opp": 1407,
      "campaign": 1408,
      "current": 1409,
      "ails": 1410,
      "home": 1411,
      "unt": 1412,
      "Russia": 1413,
      "ational": 1414,
      "ned": 1415,
      "ond": 1416,
      "organ": 1417,
      "change": 1418,
      "allow": 1419,
      "keep": 1420,
      "Co": 1421,
      "Nor": 1422,
      "го": 1423,
      "ref": 1424,
      "ministr": 1425,
      "proble": 1426,
      "Europe": 1427,
      "ross": 1428,
      "outh": 1429,
      "Islamic": 1430,
      "appro": 1431,
      "ize": 1432,
      "bank": 1433,
      "later": 1434,
      "sing": 1435,
      "grow": 1436,
      "sol": 1437,
      "TO": 1438,
      "children": 1439,
      "ars": 1440,
      "business": 1441,
      "job": 1442,
      "ling": 1443,
      "next": 1444,
      "ately": 1445,
      "pop": 1446,
      "without": 1447,
      "ody": 1448,
      "ude": 1449,
      "lot": 1450,
      "ral": 1451,
      "riend": 1452,
      "ization": 1453,
      "ending": 1454,
      "consider": 1455,
      "free": 1456,
      "Isra": 1457,
      "vertisement": 1458,
      "fil": 1459,
      "iversity": 1460,
      "Christ": 1461,
      "school": 1462,
      "case": 1463,
      "cu": 1464,
      "present": 1465,
      "comes": 1466,
      "today": 1467,
      "author": 1468,
      "ix": 1469,
      "ont": 1470,
      "left": 1471,
      "ret": 1472,
      "open": 1473,
      "ли": 1474,
      "ca": 1475,
      "men": 1476,
      "major": 1477,
      "ier": 1478,
      "hold": 1479,
      "terror": 1480,
      "Bo": 1481,
      "giv": 1482,
      "media": 1483,
      "deb": 1484,
      "ING": 1485,
      "using": 1486,
      "Car": 1487,
      "ify": 1488,
      "Pr": 1489,
      "least": 1490,
      "win": 1491,
      "Ex": 1492,
      "dr": 1493,
      "OP": 1494,
      "something": 1495,
      "Go": 1496,
      "days": 1497,
      "Cong": 1498,
      "Wash": 1499,
      "State": 1500,
      "near": 1501,
      "ided": 1502,
      "ald": 1503,
      "great": 1504,
      "ief": 1505,
      "things": 1506,
      "во": 1507,
      "ony": 1508,
      "mber": 1509,
      "ittle": 1510,
      "Pe": 1511,
      "West": 1512,
      "late": 1513,
      "Mc": 1514,
      "Americans": 1515,
      "Col": 1516,
      "adv": 1517,
      "ric": 1518,
      "military": 1519,
      "Washington": 1520,
      "2016": 1521,
      "Li": 1522,
      "class": 1523,
      "ished": 1524,
      "Mo": 1525,
      "Advertisement": 1526,
      "fund": 1527,
      "igr": 1528,
      "eve": 1529,
      "friend": 1530,
      "ended": 1531,
      "product": 1532,
      "iday": 1533,
      "company": 1534,
      "site": 1535,
      "fort": 1536,
      "ID": 1537,
      "mand": 1538,
      "del": 1539,
      "Congress": 1540,
      "gre": 1541,
      "family": 1542,
      "thers": 1543,
      "aff": 1544,
      "sum": 1545,
      "Republican": 1546,
      "aid": 1547,
      "subscri": 1548,
      "18": 1549,
      "ministration": 1550,
      "information": 1551,
      "plain": 1552,
      "May": 1553,
      "vil": 1554,
      "Sign": 1555,
      "UN": 1556,
      "oot": 1557,
      "black": 1558,
      "best": 1559,
      "clear": 1560,
      "acc": 1561,
      "prote": 1562,
      "cret": 1563,
      "gin": 1564,
      "legal": 1565,
      "pat": 1566,
      "ground": 1567,
      "imm": 1568,
      "import": 1569,
      "ior": 1570,
      "Bar": 1571,
      "expect": 1572,
      "hal": 1573,
      "velop": 1574,
      "ably": 1575,
      "Clint": 1576,
      "One": 1577,
      "four": 1578,
      "viol": 1579,
      "ord": 1580,
      "build": 1581,
      "nuclear": 1582,
      "feel": 1583,
      "level": 1584,
      "ва": 1585,
      "why": 1586,
      "away": 1587,
      "human": 1588,
      "foreign": 1589,
      "ney": 1590,
      "team": 1591,
      "special": 1592,
      "ps": 1593,
      "partic": 1594,
      "que": 1595,
      "posed": 1596,
      "mission": 1597,
      "whe": 1598,
      "AND": 1599,
      "gress": 1600,
      "cost": 1601,
      "employ": 1602,
      "sci": 1603,
      "Now": 1604,
      "Thank": 1605,
      "effect": 1606,
      "Dav": 1607,
      "little": 1608,
      "uck": 1609,
      "Dep": 1610,
      "rad": 1611,
      "though": 1612,
      "ury": 1613,
      "night": 1614,
      "War": 1615,
      "ets": 1616,
      "ones": 1617,
      "vious": 1618,
      "sex": 1619,
      "writ": 1620,
      "де": 1621,
      "Min": 1622,
      "number": 1623,
      "CO": 1624,
      "believe": 1625,
      "inal": 1626,
      "Ag": 1627,
      "har": 1628,
      "Clinton": 1629,
      "ired": 1630,
      "sever": 1631,
      "University": 1632,
      "police": 1633,
      "cit": 1634,
      "count": 1635,
      "cri": 1636,
      "better": 1637,
      "women": 1638,
      "ль": 1639,
      "nor": 1640,
      "ides": 1641,
      "past": 1642,
      "second": 1643,
      "tract": 1644,
      "mor": 1645,
      "hard": 1646,
      "Hill": 1647,
      "ese": 1648,
      "each": 1649,
      "Syri": 1650,
      "article": 1651,
      "water": 1652,
      ",''": 1653,
      "ben": 1654,
      "known": 1655,
      "gun": 1656,
      "states": 1657,
      "bill": 1658,
      "become": 1659,
      "White": 1660,
      "--------": 1661,
      "already": 1662,
      "ns": 1663,
      "nat": 1664,
      "contin": 1665,
      "bar": 1666,
      "liam": 1667,
      "ali": 1668,
      "By": 1669,
      "address": 1670,
      "Supreme": 1671,
      "ution": 1672,
      "17": 1673,
      "Ac": 1674,
      "Coun": 1675,
      "те": 1676,
      "happen": 1677,
      "AC": 1678,
      "supp": 1679,
      "bed": 1680,
      "large": 1681,
      "14": 1682,
      "Inter": 1683,
      "Med": 1684,
      "fac": 1685,
      "deal": 1686,
      "nal": 1687,
      "itor": 1688,
      "reported": 1689,
      "www": 1690,
      "More": 1691,
      "ны": 1692,
      "body": 1693,
      "Fran": 1694,
      "federal": 1695,
      "aily": 1696,
      "Man": 1697,
      "eld": 1698,
      "services": 1699,
      "ged": 1700,
      "ither": 1701,
      "anger": 1702,
      "ched": 1703,
      "Just": 1704,
      "hour": 1705,
      "develop": 1706,
      "25": 1707,
      "hol": 1708,
      "crit": 1709,
      "With": 1710,
      "ham": 1711,
      "ource": 1712,
      "ENT": 1713,
      "force": 1714,
      "lobal": 1715,
      "ision": 1716,
      "ideo": 1717,
      "ste": 1718,
      "ecut": 1719,
      "Vi": 1720,
      "reed": 1721,
      "nes": 1722,
      "members": 1723,
      "chief": 1724,
      "Wor": 1725,
      "sit": 1726,
      "economic": 1727,
      "bot": 1728,
      "likely": 1729,
      "control": 1730,
      "liber": 1731,
      "All": 1732,
      "mind": 1733,
      "Brit": 1734,
      "remain": 1735,
      "based": 1736,
      "та": 1737,
      "face": 1738,
      "sk": 1739,
      "bing": 1740,
      "different": 1741,
      "ader": 1742,
      "comple": 1743,
      "AM": 1744,
      "ET": 1745,
      "Part": 1746,
      "according": 1747,
      "cks": 1748,
      "thought": 1749,
      "give": 1750,
      "13": 1751,
      "Fe": 1752,
      "ка": 1753,
      "equ": 1754,
      "ла": 1755,
      "research": 1756,
      "election": 1757,
      "gether": 1758,
      "empt": 1759,
      "city": 1760,
      "ster": 1761,
      "whether": 1762,
      "mis": 1763,
      "ри": 1764,
      "upd": 1765,
      "spir": 1766,
      "16": 1767,
      "RO": 1768,
      "chn": 1769,
      "Add": 1770,
      "ley": 1771,
      "Photo": 1772,
      "didn": 1773,
      "making": 1774,
      "simp": 1775,
      "dri": 1776,
      "ified": 1777,
      "Mon": 1778,
      ".,": 1779,
      "took": 1780,
      "itions": 1781,
      "gh": 1782,
      "ories": 1783,
      "ted": 1784,
      "small": 1785,
      "Gr": 1786,
      "pris": 1787,
      "investig": 1788,
      "room": 1789,
      "aken": 1790,
      "meet": 1791,
      "non": 1792,
      "ле": 1793,
      "aged": 1794,
      "announ": 1795,
      "Res": 1796,
      "cult": 1797,
      "rug": 1798,
      "death": 1799,
      "until": 1800,
      "Mus": 1801,
      "position": 1802,
      "security": 1803,
      "ability": 1804,
      "email": 1805,
      "policy": 1806,
      "stre": 1807,
      "After": 1808,
      "course": 1809,
      "among": 1810,
      "concer": 1811,
      "reason": 1812,
      "2017": 1813,
      "key": 1814,
      "suc": 1815,
      "trad": 1816,
      "action": 1817,
      "mit": 1818,
      "Jan": 1819,
      "enough": 1820,
      "idd": 1821,
      "oil": 1822,
      "une": 1823,
      "house": 1824,
      "anti": 1825,
      "vote": 1826,
      ".''": 1827,
      "name": 1828,
      "always": 1829,
      "ST": 1830,
      "together": 1831,
      "Not": 1832,
      "Russian": 1833,
      "Ge": 1834,
      "aph": 1835,
      "leaders": 1836,
      "cand": 1837,
      "administration": 1838,
      "social": 1839,
      "viron": 1840,
      "Mic": 1841,
      "activ": 1842,
      "certain": 1843,
      "lack": 1844,
      "ball": 1845,
      "food": 1846,
      "gl": 1847,
      "sent": 1848,
      "pet": 1849,
      "fight": 1850,
      "ured": 1851,
      "agree": 1852,
      "ulation": 1853,
      "important": 1854,
      "went": 1855,
      "199": 1856,
      "Ali": 1857,
      "Tor": 1858,
      "EC": 1859,
      "eas": 1860,
      "Bush": 1861,
      "artment": 1862,
      "ology": 1863,
      "fail": 1864,
      "oung": 1865,
      "ife": 1866,
      "plac": 1867,
      "tru": 1868,
      "record": 1869,
      "possible": 1870,
      "Ind": 1871,
      "kes": 1872,
      "half": 1873,
      "changes": 1874,
      "billion": 1875,
      "turned": 1876,
      "anal": 1877,
      "ribut": 1878,
      "priv": 1879,
      "да": 1880,
      "ined": 1881,
      "idence": 1882,
      "Donald": 1883,
      "weap": 1884,
      "His": 1885,
      "strong": 1886,
      "question": 1887,
      "ks": 1888,
      "times": 1889,
      "white": 1890,
      "statement": 1891,
      "Israel": 1892,
      "National": 1893,
      "ey": 1894,
      "cast": 1895,
      "threat": 1896,
      "ences": 1897,
      "member": 1898,
      "North": 1899,
      "Ju": 1900,
      "Ms": 1901,
      "tar": 1902,
      "Health": 1903,
      "witter": 1904,
      "aring": 1905,
      "offer": 1906,
      "finan": 1907,
      "once": 1908,
      "execut": 1909,
      "doesn": 1910,
      "rac": 1911,
      "kind": 1912,
      "occur": 1913,
      "officials": 1914,
      "rights": 1915,
      "history": 1916,
      "ird": 1917,
      "Do": 1918,
      "Ser": 1919,
      "ari": 1920,
      "several": 1921,
      "Dr": 1922,
      "pot": 1923,
      "press": 1924,
      "office": 1925,
      "fall": 1926,
      "det": 1927,
      "lies": 1928,
      "Can": 1929,
      "party": 1930,
      "ators": 1931,
      "ove": 1932,
      "often": 1933,
      "doing": 1934,
      "dist": 1935,
      "dest": 1936,
      "full": 1937,
      "protest": 1938,
      "decl": 1939,
      "issue": 1940,
      "Har": 1941,
      "dom": 1942,
      "proper": 1943,
      "aul": 1944,
      "bas": 1945,
      "IR": 1946,
      "24": 1947,
      "Sun": 1948,
      "ges": 1949,
      "pain": 1950,
      "live": 1951,
      "World": 1952,
      "hom": 1953,
      "box": 1954,
      "Am": 1955,
      "Ger": 1956,
      "inc": 1957,
      "local": 1958,
      "Pal": 1959,
      "sen": 1960,
      "uture": 1961,
      "products": 1962,
      "offers": 1963,
      "benef": 1964,
      "Br": 1965,
      "My": 1966,
      "lement": 1967,
      "Ed": 1968,
      "close": 1969,
      "indust": 1970,
      "others": 1971,
      "spo": 1972,
      "having": 1973,
      "candid": 1974,
      "invol": 1975,
      "compan": 1976,
      "ве": 1977,
      "months": 1978,
      "mean": 1979,
      "working": 1980,
      "uses": 1981,
      "protect": 1982,
      "met": 1983,
      "ivid": 1984,
      "cle": 1985,
      "tries": 1986,
      "process": 1987,
      "seen": 1988,
      "share": 1989,
      "**": 1990,
      "ban": 1991,
      "bit": 1992,
      "depend": 1993,
      "ential": 1994,
      "tee": 1995,
      "speak": 1996,
      "video": 1997,
      "ло": 1998,
      "ox": 1999,
      "за": 2000,
      "EL": 2001,
      "bur": 2002,
      "ler": 2003,
      "gest": 2004,
      "ying": 2005,
      "fire": 2006,
      "early": 2007,
      "ept": 2008,
      "China": 2009,
      "bad": 2010,
      "short": 2011,
      "asked": 2012,
      "ata": 2013,
      "pan": 2014,
      "IL": 2015,
      "five": 2016,
      "pie": 2017,
      "Stud": 2018,
      "los": 2019,
      "plic": 2020,
      "tow": 2021,
      "Leader": 2022,
      "given": 2023,
      "Republicans": 2024,
      "Wil": 2025,
      "urch": 2026,
      "spec": 2027,
      "ots": 2028,
      "gen": 2029,
      "ived": 2030,
      "mp": 2031,
      "infl": 2032,
      "makes": 2033,
      "select": 2034,
      "techn": 2035,
      "understand": 2036,
      "Me": 2037,
      "uge": 2038,
      "ме": 2039,
      "ggest": 2040,
      "either": 2041,
      "fic": 2042,
      "experi": 2043,
      "Ph": 2044,
      "done": 2045,
      "East": 2046,
      "dol": 2047,
      "stop": 2048,
      "docu": 2049,
      "Hillary": 2050,
      "rul": 2051,
      "ock": 2052,
      "saying": 2053,
      "ium": 2054,
      "nothing": 2055,
      "Muslim": 2056,
      ".)": 2057,
      "dro": 2058,
      "itional": 2059,
      "Democrats": 2060,
      "ised": 2061,
      "icking": 2062,
      "environ": 2063,
      "unity": 2064,
      "suggest": 2065,
      "selves": 2066,
      "court": 2067,
      "jud": 2068,
      "sal": 2069,
      "tal": 2070,
      "conf": 2071,
      "rele": 2072,
      "result": 2073,
      "nam": 2074,
      "yet": 2075,
      "problem": 2076,
      "gir": 2077,
      "citiz": 2078,
      "disc": 2079,
      "receive": 2080,
      "along": 2081,
      "ingly": 2082,
      "actually": 2083,
      "term": 2084,
      "drug": 2085,
      "hig": 2086,
      "rup": 2087,
      "imate": 2088,
      "civil": 2089,
      "immigr": 2090,
      "means": 2091,
      "Department": 2092,
      "Cor": 2093,
      "avail": 2094,
      "hip": 2095,
      "ть": 2096,
      "future": 2097,
      "economy": 2098,
      "Senate": 2099,
      "ait": 2100,
      "ient": 2101,
      "ards": 2102,
      "woman": 2103,
      "God": 2104,
      "ки": 2105,
      "thern": 2106,
      "ination": 2107,
      "Some": 2108,
      "mass": 2109,
      "Day": 2110,
      "energy": 2111,
      "Nove": 2112,
      "claims": 2113,
      "front": 2114,
      "across": 2115,
      "stri": 2116,
      "raw": 2117,
      "added": 2118,
      "100": 2119,
      "iddle": 2120,
      "sell": 2121,
      "within": 2122,
      "trying": 2123,
      "EM": 2124,
      "Geor": 2125,
      "leave": 2126,
      "paren": 2127,
      "taken": 2128,
      "While": 2129,
      "November": 2130,
      "dollar": 2131,
      "urther": 2132,
      "graph": 2133,
      "weapons": 2134,
      "young": 2135,
      "ron": 2136,
      "pose": 2137,
      "OS": 2138,
      "error": 2139,
      "getting": 2140,
      "risk": 2141,
      "danger": 2142,
      "global": 2143,
      "web": 2144,
      "Friday": 2145,
      "event": 2146,
      "reach": 2147,
      "rote": 2148,
      "urs": 2149,
      "anything": 2150,
      "Democratic": 2151,
      "countries": 2152,
      "Sept": 2153,
      "vo": 2154,
      "enn": 2155,
      "soon": 2156,
      "Gu": 2157,
      "watch": 2158,
      "ality": 2159,
      "ATION": 2160,
      "step": 2161,
      "demand": 2162,
      "season": 2163,
      "wrote": 2164,
      "UR": 2165,
      "lah": 2166,
      "minister": 2167,
      "ember": 2168,
      "bi": 2169,
      "crim": 2170,
      "Face": 2171,
      "subject": 2172,
      "available": 2173,
      "companies": 2174,
      "BC": 2175,
      "mom": 2176,
      "reports": 2177,
      "aper": 2178,
      "ford": 2179,
      "2013": 2180,
      "2015": 2181,
      "Im": 2182,
      "love": 2183,
      "doct": 2184,
      "descri": 2185,
      "ech": 2186,
      "NO": 2187,
      "fun": 2188,
      "game": 2189,
      "mess": 2190,
      "vision": 2191,
      "AP": 2192,
      "South": 2193,
      "ute": 2194,
      "uel": 2195,
      "train": 2196,
      "taking": 2197,
      "scient": 2198,
      "ividual": 2199,
      "discuss": 2200,
      "Stre": 2201,
      "fully": 2202,
      "success": 2203,
      "sus": 2204,
      "issues": 2205,
      "explain": 2206,
      "Blo": 2207,
      "wide": 2208,
      "2012": 2209,
      "Ab": 2210,
      "City": 2211,
      "CON": 2212,
      "че": 2213,
      "bring": 2214,
      "Of": 2215,
      "Cour": 2216,
      "ми": 2217,
      "design": 2218,
      "decision": 2219,
      "particular": 2220,
      "almost": 2221,
      "sim": 2222,
      "Ra": 2223,
      "groups": 2224,
      "respons": 2225,
      "23": 2226,
      "publ": 2227,
      "ти": 2228,
      "Paul": 2229,
      "rown": 2230,
      "Feb": 2231,
      "2014": 2232,
      "formed": 2233,
      "reedom": 2234,
      "ogle": 2235,
      "UT": 2236,
      "itive": 2237,
      "до": 2238,
      "above": 2239,
      "ried": 2240,
      "со": 2241,
      "held": 2242,
      "ample": 2243,
      "individual": 2244,
      "Act": 2245,
      "40": 2246,
      "occas": 2247,
      "__": 2248,
      "Agency": 2249,
      "ane": 2250,
      "isl": 2251,
      "opping": 2252,
      "financial": 2253,
      "60": 2254,
      "conne": 2255,
      "View": 2256,
      "Ne": 2257,
      "Wed": 2258,
      "cris": 2259,
      "firm": 2260,
      "RI": 2261,
      "uation": 2262,
      "ournal": 2263,
      "interview": 2264,
      "host": 2265,
      "hind": 2266,
      "mother": 2267,
      "ibility": 2268,
      "22": 2269,
      "occurred": 2270,
      "advis": 2271,
      "Facebook": 2272,
      "rain": 2273,
      "Daily": 2274,
      "wer": 2275,
      "gn": 2276,
      "defense": 2277,
      "21": 2278,
      "ensive": 2279,
      "relig": 2280,
      "access": 2281,
      "updates": 2282,
      "project": 2283,
      "link": 2284,
      "feat": 2285,
      "itted": 2286,
      "Bro": 2287,
      "photo": 2288,
      "online": 2289,
      "ican": 2290,
      "Syria": 2291,
      "According": 2292,
      "vic": 2293,
      "conserv": 2294,
      "LE": 2295,
      "dou": 2296,
      "complete": 2297,
      "previous": 2298,
      "following": 2299,
      "European": 2300,
      "bom": 2301,
      "ults": 2302,
      "break": 2303,
      "area": 2304,
      "strate": 2305,
      "hy": 2306,
      "stay": 2307,
      "unch": 2308,
      "six": 2309,
      "refer": 2310,
      "ene": 2311,
      "believ": 2312,
      "However": 2313,
      "educ": 2314,
      "demo": 2315,
      "rather": 2316,
      "Per": 2317,
      "assist": 2318,
      "valid": 2319,
      "Afr": 2320,
      "CE": 2321,
      "private": 2322,
      "cop": 2323,
      "cell": 2324,
      "atives": 2325,
      "argu": 2326,
      "avy": 2327,
      "recently": 2328,
      "profess": 2329,
      "Post": 2330,
      "cing": 2331,
      "mus": 2332,
      "David": 2333,
      "Sat": 2334,
      "се": 2335,
      "Associ": 2336,
      "inste": 2337,
      "Twitter": 2338,
      "ai": 2339,
      "These": 2340,
      "efore": 2341,
      "Before": 2342,
      "II": 2343,
      "ats": 2344,
      "ands": 2345,
      "ources": 2346,
      "true": 2347,
      "corpor": 2348,
      "Govern": 2349,
      "gold": 2350,
      "ially": 2351,
      "ention": 2352,
      "cies": 2353,
      "audi": 2354,
      "continue": 2355,
      "70": 2356,
      "prob": 2357,
      "matter": 2358,
      "Google": 2359,
      "AG": 2360,
      "pract": 2361,
      "Street": 2362,
      "data": 2363,
      "lap": 2364,
      "tion": 2365,
      "orig": 2366,
      "entire": 2367,
      "exist": 2368,
      "indow": 2369,
      "border": 2370,
      "fair": 2371,
      "lost": 2372,
      "appoint": 2373,
      "bert": 2374,
      "director": 2375,
      "ви": 2376,
      "cially": 2377,
      "abl": 2378,
      "Here": 2379,
      "ilar": 2380,
      "ming": 2381,
      "field": 2382,
      "killed": 2383,
      "cred": 2384,
      "ceed": 2385,
      "Court": 2386,
      "foc": 2387,
      "ctions": 2388,
      "behind": 2389,
      "letters": 2390,
      "famil": 2391,
      "account": 2392,
      "else": 2393,
      "commit": 2394,
      "collect": 2395,
      "ids": 2396,
      "someone": 2397,
      "communic": 2398,
      "community": 2399,
      "cil": 2400,
      "vict": 2401,
      "pite": 2402,
      "hope": 2403,
      "ery": 2404,
      "words": 2405,
      "compu": 2406,
      "про": 2407,
      "seems": 2408,
      "expected": 2409,
      "Mark": 2410,
      "gets": 2411,
      "vice": 2412,
      "manag": 2413,
      "van": 2414,
      "heart": 2415,
      "ored": 2416,
      "serious": 2417,
      "fig": 2418,
      "mail": 2419,
      "Char": 2420,
      "personal": 2421,
      "piece": 2422,
      "Ste": 2423,
      "require": 2424,
      "hael": 2425,
      "increas": 2426,
      "AD": 2427,
      "fav": 2428,
      "lier": 2429,
      "Off": 2430,
      "Party": 2431,
      "Oc": 2432,
      "race": 2433,
      "lives": 2434,
      "Wednes": 2435,
      "March": 2436,
      "ся": 2437,
      "study": 2438,
      "sl": 2439,
      "From": 2440,
      "Tur": 2441,
      "duct": 2442,
      "Minister": 2443,
      "toward": 2444,
      "begin": 2445,
      "idea": 2446,
      "students": 2447,
      "simply": 2448,
      "27": 2449,
      "28": 2450,
      "pen": 2451,
      "represent": 2452,
      "IM": 2453,
      "whose": 2454,
      "robot": 2455,
      "everyone": 2456,
      "agency": 2457,
      "comment": 2458,
      "legisl": 2459,
      "Wednesday": 2460,
      "Tues": 2461,
      "uary": 2462,
      "lege": 2463,
      "evidence": 2464,
      "(@": 2465,
      "Her": 2466,
      "phone": 2467,
      "himself": 2468,
      "looking": 2469,
      "fear": 2470,
      "round": 2471,
      "mental": 2472,
      "pret": 2473,
      "26": 2474,
      "treat": 2475,
      "TV": 2476,
      "мо": 2477,
      "accept": 2478,
      "aster": 2479,
      "further": 2480,
      "decad": 2481,
      "July": 2482,
      "igence": 2483,
      "example": 2484,
      "sych": 2485,
      "third": 2486,
      "ances": 2487,
      "themselves": 2488,
      "GOP": 2489,
      "living": 2490,
      "rate": 2491,
      "tor": 2492,
      "zer": 2493,
      "ends": 2494,
      "cannot": 2495,
      "needs": 2496,
      "hours": 2497,
      "Tuesday": 2498,
      "King": 2499,
      "due": 2500,
      "moved": 2501,
      "Tails": 2502,
      "mot": 2503,
      "seek": 2504,
      "town": 2505,
      "Hol": 2506,
      "capital": 2507,
      "mater": 2508,
      "sou": 2509,
      "secret": 2510,
      "ively": 2511,
      "Par": 2512,
      "dam": 2513,
      "flo": 2514,
      "Plus": 2515,
      "Michael": 2516,
      "hor": 2517,
      "́n": 2518,
      "wrong": 2519,
      "George": 2520,
      "izing": 2521,
      "ruary": 2522,
      "industry": 2523,
      "February": 2524,
      "Ear": 2525,
      "June": 2526,
      "~~": 2527,
      "role": 2528,
      "abor": 2529,
      "elt": 2530,
      "Monday": 2531,
      "ague": 2532,
      "meas": 2533,
      "leav": 2534,
      "chall": 2535,
      "dead": 2536,
      "emy": 2537,
      "же": 2538,
      "iding": 2539,
      "international": 2540,
      "Gener": 2541,
      "gas": 2542,
      "began": 2543,
      "wanted": 2544,
      "hit": 2545,
      "sw": 2546,
      "Why": 2547,
      "however": 2548,
      "reas": 2549,
      "reve": 2550,
      "dangerous": 2551,
      "games": 2552,
      "roll": 2553,
      "continu": 2554,
      "80": 2555,
      "isn": 2556,
      "FO": 2557,
      "lor": 2558,
      "mal": 2559,
      "Aug": 2560,
      "nia": 2561,
      "ци": 2562,
      "forces": 2563,
      "jobs": 2564,
      "Nuclear": 2565,
      "alter": 2566,
      "prevent": 2567,
      "respect": 2568,
      "Even": 2569,
      "ada": 2570,
      "shopping": 2571,
      "clicking": 2572,
      "utin": 2573,
      "shot": 2574,
      "tele": 2575,
      "Read": 2576,
      "respon": 2577,
      "FOR": 2578,
      "Thurs": 2579,
      "speech": 2580,
      "newsletter": 2581,
      "Polit": 2582,
      "truth": 2583,
      "father": 2584,
      "irst": 2585,
      "started": 2586,
      "ging": 2587,
      "nel": 2588,
      "Press": 2589,
      "aver": 2590,
      "common": 2591,
      "itself": 2592,
      "necess": 2593,
      "ull": 2594,
      "Tex": 2595,
      "div": 2596,
      "istan": 2597,
      "reng": 2598,
      "Mil": 2599,
      "Spe": 2600,
      "aut": 2601,
      "haps": 2602,
      "executive": 2603,
      "hran": 2604,
      "yed": 2605,
      "establ": 2606,
      "hood": 2607,
      "berg": 2608,
      "Jew": 2609,
      "Tehran": 2610,
      "crisis": 2611,
      "sense": 2612,
      "British": 2613,
      "January": 2614,
      "amoun": 2615,
      "higher": 2616,
      "ple": 2617,
      "push": 2618,
      "Thursday": 2619,
      "Sch": 2620,
      "streng": 2621,
      "utes": 2622,
      "whole": 2623,
      "quar": 2624,
      "latest": 2625,
      "readers": 2626,
      "material": 2627,
      "points": 2628,
      "fell": 2629,
      "ino": 2630,
      "Tod": 2631,
      "han": 2632,
      "anyone": 2633,
      "single": 2634,
      "Bank": 2635,
      "CH": 2636,
      "ped": 2637,
      "voters": 2638,
      "Pat": 2639,
      "pict": 2640,
      "sold": 2641,
      "ди": 2642,
      "ently": 2643,
      "word": 2644,
      "probably": 2645,
      "IA": 2646,
      "alleg": 2647,
      "subscribe": 2648,
      "king": 2649,
      "foot": 2650,
      "espe": 2651,
      "verify": 2652,
      "visit": 2653,
      "September": 2654,
      "Econom": 2655,
      "ica": 2656,
      "workers": 2657,
      "Apr": 2658,
      "cot": 2659,
      "mir": 2660,
      "general": 2661,
      "band": 2662,
      "loss": 2663,
      "provide": 2664,
      "cir": 2665,
      "iod": 2666,
      "worth": 2667,
      "struct": 2668,
      "Cali": 2669,
      "everything": 2670,
      "super": 2671,
      "plans": 2672,
      "weeks": 2673,
      "problems": 2674,
      "Right": 2675,
      "era": 2676,
      "defin": 2677,
      "occasional": 2678,
      "Ho": 2679,
      "draw": 2680,
      "below": 2681,
      "yan": 2682,
      "ze": 2683,
      "ples": 2684,
      "medi": 2685,
      "Secret": 2686,
      "wait": 2687,
      "contract": 2688,
      "Califor": 2689,
      "Gre": 2690,
      "computer": 2691,
      "coup": 2692,
      "urning": 2693,
      "istrict": 2694,
      "star": 2695,
      "register": 2696,
      "especially": 2697,
      "inv": 2698,
      "shoot": 2699,
      "prim": 2700,
      "Security": 2701,
      "board": 2702,
      "building": 2703,
      "Student": 2704,
      "include": 2705,
      "similar": 2706,
      "Bill": 2707,
      "increase": 2708,
      "announced": 2709,
      "ners": 2710,
      "editor": 2711,
      "psych": 2712,
      "thous": 2713,
      "space": 2714,
      "friends": 2715,
      "natural": 2716,
      "Source": 2717,
      "apan": 2718,
      "ference": 2719,
      "Newsletter": 2720,
      "road": 2721,
      "First": 2722,
      "ico": 2723,
      "ffer": 2724,
      "outside": 2725,
      "attle": 2726,
      "newsletters": 2727,
      "buy": 2728,
      "sil": 2729,
      "walk": 2730,
      "arm": 2731,
      "regard": 2732,
      "scre": 2733,
      "shows": 2734,
      "attacks": 2735,
      "iter": 2736,
      "Are": 2737,
      "Our": 2738,
      "west": 2739,
      "tained": 2740,
      "California": 2741,
      "SA": 2742,
      "SO": 2743,
      "wood": 2744,
      "signific": 2745,
      "ken": 2746,
      "cogn": 2747,
      "minim": 2748,
      "Po": 2749,
      "response": 2750,
      "attempt": 2751,
      "lower": 2752,
      "2007": 2753,
      "Sunday": 2754,
      "ded": 2755,
      "mad": 2756,
      "create": 2757,
      "си": 2758,
      "meeting": 2759,
      "BI": 2760,
      "бо": 2761,
      "plom": 2762,
      "Japan": 2763,
      "ya": 2764,
      "works": 2765,
      "medic": 2766,
      "running": 2767,
      "SU": 2768,
      "consu": 2769,
      "comb": 2770,
      "ester": 2771,
      "appear": 2772,
      "effort": 2773,
      "website": 2774,
      "ops": 2775,
      "People": 2776,
      "loc": 2777,
      "mill": 2778,
      "check": 2779,
      "pred": 2780,
      "saw": 2781,
      "contribut": 2782,
      "sed": 2783,
      "stories": 2784,
      "secut": 2785,
      "riage": 2786,
      "ERS": 2787,
      "William": 2788,
      "29": 2789,
      "total": 2790,
      "agre": 2791,
      "lie": 2792,
      "Arab": 2793,
      "Center": 2794,
      "stick": 2795,
      "final": 2796,
      "debt": 2797,
      "subscribing": 2798,
      "staff": 2799,
      "hot": 2800,
      "lin": 2801,
      "Invalid": 2802,
      "intell": 2803,
      "Thanks": 2804,
      "James": 2805,
      "return": 2806,
      "price": 2807,
      "property": 2808,
      "phys": 2809,
      "respond": 2810,
      "Texas": 2811,
      "NA": 2812,
      "mach": 2813,
      "constitut": 2814,
      "instead": 2815,
      "service": 2816,
      "ру": 2817,
      "deep": 2818,
      "bass": 2819,
      "2011": 2820,
      "ee": 2821,
      "load": 2822,
      "quick": 2823,
      "insur": 2824,
      "nearly": 2825,
      "April": 2826,
      "wife": 2827,
      "laws": 2828,
      "page": 2829,
      "express": 2830,
      "presidential": 2831,
      "General": 2832,
      "Kore": 2833,
      "tro": 2834,
      "itch": 2835,
      "lied": 2836,
      "prove": 2837,
      "ny": 2838,
      "Phil": 2839,
      "document": 2840,
      "бы": 2841,
      "ilt": 2842,
      "conduct": 2843,
      "covered": 2844,
      "upon": 2845,
      "leader": 2846,
      "cra": 2847,
      "uff": 2848,
      "Then": 2849,
      "produced": 2850,
      "violence": 2851,
      "parents": 2852,
      "released": 2853,
      "itten": 2854,
      "relation": 2855,
      "spending": 2856,
      "contain": 2857,
      "Qu": 2858,
      "experience": 2859,
      "Putin": 2860,
      "rich": 2861,
      "longer": 2862,
      "Gold": 2863,
      "oud": 2864,
      "popular": 2865,
      "Rom": 2866,
      "var": 2867,
      "emer": 2868,
      "calls": 2869,
      "liament": 2870,
      "Many": 2871,
      "decided": 2872,
      "citizens": 2873,
      "Lo": 2874,
      "prison": 2875,
      "reveal": 2876,
      "mult": 2877,
      "tw": 2878,
      "period": 2879,
      "regul": 2880,
      "Rahim": 2881,
      "IV": 2882,
      "Kos": 2883,
      "auto": 2884,
      "specific": 2885,
      "cust": 2886,
      "fill": 2887,
      "actions": 2888,
      "augh": 2889,
      "cancer": 2890,
      "situation": 2891,
      "itting": 2892,
      "See": 2893,
      "growth": 2894,
      "Octo": 2895,
      "Mor": 2896,
      "bon": 2897,
      "repe": 2898,
      "ender": 2899,
      "aud": 2900,
      "created": 2901,
      "Satur": 2902,
      "Jer": 2903,
      "mag": 2904,
      "init": 2905,
      "omet": 2906,
      "October": 2907,
      "BE": 2908,
      "Head": 2909,
      "moment": 2910,
      "ature": 2911,
      "Ann": 2912,
      "girls": 2913,
      "IG": 2914,
      "Well": 2915,
      "gain": 2916,
      "indic": 2917,
      "suffer": 2918,
      "opport": 2919,
      "played": 2920,
      "cup": 2921,
      "ees": 2922,
      "gal": 2923,
      "ties": 2924,
      "concl": 2925,
      "liver": 2926,
      "center": 2927,
      "Justice": 2928,
      "Sp": 2929,
      "bud": 2930,
      "moder": 2931,
      "range": 2932,
      "surv": 2933,
      "received": 2934,
      "Mex": 2935,
      "icles": 2936,
      "freedom": 2937,
      "shut": 2938,
      "central": 2939,
      "fa": 2940,
      "mur": 2941,
      "arrest": 2942,
      "ays": 2943,
      "goes": 2944,
      "population": 2945,
      "Di": 2946,
      "IAL": 2947,
      "eli": 2948,
      "victim": 2949,
      "sound": 2950,
      "ма": 2951,
      "ising": 2952,
      "bel": 2953,
      "became": 2954,
      "usion": 2955,
      "minutes": 2956,
      "zon": 2957,
      "anned": 2958,
      "film": 2959,
      "bol": 2960,
      "tit": 2961,
      "2008": 2962,
      "вы": 2963,
      "forts": 2964,
      "iling": 2965,
      "implement": 2966,
      "Today": 2967,
      "Black": 2968,
      "paid": 2969,
      "ened": 2970,
      "diffic": 2971,
      "giving": 2972,
      "potential": 2973,
      "500": 2974,
      "Ale": 2975,
      "lebr": 2976,
      "prices": 2977,
      "undred": 2978,
      "ста": 2979,
      "gar": 2980,
      "rem": 2981,
      "recogn": 2982,
      "grad": 2983,
      "internet": 2984,
      "blog": 2985,
      "communications": 2986,
      "bab": 2987,
      "lying": 2988,
      "answer": 2989,
      "ption": 2990,
      "operating": 2991,
      "changed": 2992,
      "cases": 2993,
      "debate": 2994,
      "stream": 2995,
      "CN": 2996,
      "born": 2997,
      "majority": 2998,
      "Ener": 2999,
      "Mac": 3000,
      "что": 3001,
      "forward": 3002,
      "Public": 3003,
      "SE": 3004,
      "Iraqi": 3005,
      "Aust": 3006,
      "series": 3007,
      "Every": 3008,
      "sha": 3009,
      "cracy": 3010,
      "request": 3011,
      "Palest": 3012,
      "sty": 3013,
      "sequ": 3014,
      "Saturday": 3015,
      "gave": 3016,
      "mak": 3017,
      "avo": 3018,
      "charac": 3019,
      "Barack": 3020,
      "Back": 3021,
      "Let": 3022,
      "rench": 3023,
      "compet": 3024,
      "progress": 3025,
      "allowed": 3026,
      "----------------": 3027,
      "EU": 3028,
      "Jud": 3029,
      "neigh": 3030,
      "alls": 3031,
      "published": 3032,
      "takes": 3033,
      "heard": 3034,
      "wants": 3035,
      "movement": 3036,
      "involved": 3037,
      "Energy": 3038,
      "Bre": 3039,
      "independ": 3040,
      "analy": 3041,
      "ado": 3042,
      "sue": 3043,
      "grand": 3044,
      "significant": 3045,
      "ihad": 3046,
      "review": 3047,
      "ening": 3048,
      "earch": 3049,
      "demon": 3050,
      "ring": 3051,
      "inj": 3052,
      "bey": 3053,
      "ival": 3054,
      "via": 3055,
      "suit": 3056,
      "struction": 3057,
      "morning": 3058,
      "favor": 3059,
      "Window": 3060,
      "earlier": 3061,
      "target": 3062,
      "agreement": 3063,
      "nom": 3064,
      "attend": 3065,
      "written": 3066,
      "critic": 3067,
      "candidate": 3068,
      "connect": 3069,
      "cultural": 3070,
      "Christian": 3071,
      "scientific": 3072,
      "Ma": 3073,
      "ruz": 3074,
      "marriage": 3075,
      "happened": 3076,
      "ет": 3077,
      "ites": 3078,
      "uk": 3079,
      "worked": 3080,
      "spect": 3081,
      "Dan": 3082,
      "influ": 3083,
      "gel": 3084,
      "promot": 3085,
      "org": 3086,
      "termin": 3087,
      "El": 3088,
      "Law": 3089,
      "efforts": 3090,
      "died": 3091,
      "Bl": 3092,
      "journal": 3093,
      "lines": 3094,
      "rew": 3095,
      "Dece": 3096,
      "travel": 3097,
      "tells": 3098,
      "Year": 3099,
      "erve": 3100,
      "needed": 3101,
      "writes": 3102,
      "01": 3103,
      "Bern": 3104,
      "pil": 3105,
      "pick": 3106,
      "sem": 3107,
      "prop": 3108,
      "trade": 3109,
      "teach": 3110,
      "medical": 3111,
      "sett": 3112,
      "families": 3113,
      "intelligence": 3114,
      "Church": 3115,
      "August": 3116,
      "aim": 3117,
      "tly": 3118,
      "wel": 3119,
      "atory": 3120,
      "aries": 3121,
      "surve": 3122,
      "questions": 3123,
      "December": 3124,
      "McC": 3125,
      "destro": 3126,
      "registered": 3127,
      "Lon": 3128,
      "NE": 3129,
      "date": 3130,
      "?”": 3131,
      "sec": 3132,
      "chance": 3133,
      "poll": 3134,
      "Soci": 3135,
      "Federal": 3136,
      "mid": 3137,
      "arri": 3138,
      "society": 3139,
      "ov": 3140,
      "za": 3141,
      "Robert": 3142,
      "approach": 3143,
      "Cent": 3144,
      "immedi": 3145,
      "univers": 3146,
      "propos": 3147,
      "Fin": 3148,
      "Mart": 3149,
      "ams": 3150,
      "umb": 3151,
      "inci": 3152,
      "react": 3153,
      "ously": 3154,
      "atter": 3155,
      "pread": 3156,
      "counter": 3157,
      "investigation": 3158,
      "Rich": 3159,
      "policies": 3160,
      "relationship": 3161,
      "Red": 3162,
      "UL": 3163,
      "wonder": 3164,
      "income": 3165,
      "ological": 3166,
      "average": 3167,
      "DA": 3168,
      "wise": 3169,
      "production": 3170,
      "French": 3171,
      "пе": 3172,
      "erson": 3173,
      "Constitut": 3174,
      "ordin": 3175,
      "San": 3176,
      "nar": 3177,
      "olution": 3178,
      "spent": 3179,
      "music": 3180,
      "appointed": 3181,
      "\".": 3182,
      "results": 3183,
      "ailed": 3184,
      "angu": 3185,
      "criminal": 3186,
      "Elect": 3187,
      "hundred": 3188,
      "wasn": 3189,
      "safe": 3190,
      "RES": 3191,
      "leading": 3192,
      "Israeli": 3193,
      "inese": 3194,
      "dollars": 3195,
      "Hor": 3196,
      "от": 3197,
      "despite": 3198,
      "suppor": 3199,
      "holiday": 3200,
      "Uk": 3201,
      "anony": 3202,
      "hear": 3203,
      "redu": 3204,
      "Chinese": 3205,
      "90": 3206,
      "huge": 3207,
      "benefits": 3208,
      "HO": 3209,
      "cli": 3210,
      "squ": 3211,
      "areas": 3212,
      "opin": 3213,
      "quite": 3214,
      "growing": 3215,
      "FBI": 3216,
      "amount": 3217,
      "rates": 3218,
      "recomm": 3219,
      "ida": 3220,
      "exact": 3221,
      "content": 3222,
      "appeared": 3223,
      "immigration": 3224,
      "esterday": 3225,
      "Jack": 3226,
      "Your": 3227,
      "affect": 3228,
      "century": 3229,
      "banks": 3230,
      "Ah": 3231,
      "Cap": 3232,
      "ght": 3233,
      "forced": 3234,
      "aging": 3235,
      "conven": 3236,
      "particip": 3237,
      "enemy": 3238,
      "Pri": 3239,
      "Sm": 3240,
      "middle": 3241,
      "rout": 3242,
      "endment": 3243,
      "currently": 3244,
      "difficult": 3245,
      "bul": 3246,
      "network": 3247,
      "Western": 3248,
      "conservative": 3249,
      "base": 3250,
      "source": 3251,
      "chair": 3252,
      "uni": 3253,
      "2010": 3254,
      "organization": 3255,
      "PA": 3256,
      "labor": 3257,
      "sat": 3258,
      "rect": 3259,
      "reality": 3260,
      "Most": 3261,
      "object": 3262,
      "ISIS": 3263,
      "spokes": 3264,
      "message": 3265,
      "Art": 3266,
      "talking": 3267,
      "Dis": 3268,
      "Fox": 3269,
      "levels": 3270,
      "Council": 3271,
      "London": 3272,
      "Che": 3273,
      "cow": 3274,
      "terms": 3275,
      "lif": 3276,
      "assistance": 3277,
      "45": 3278,
      "mouth": 3279,
      "ert": 3280,
      "ana": 3281,
      "events": 3282,
      "development": 3283,
      "Society": 3284,
      "Sand": 3285,
      "bs": 3286,
      "bir": 3287,
      "daugh": 3288,
      "Commit": 3289,
      "considered": 3290,
      "terrorist": 3291,
      "ETT": 3292,
      "inde": 3293,
      "reform": 3294,
      "mention": 3295,
      "ysis": 3296,
      "35": 3297,
      "Jam": 3298,
      "ско": 3299,
      "thousands": 3300,
      "Mu": 3301,
      "ube": 3302,
      "vast": 3303,
      "rules": 3304,
      "ometimes": 3305,
      "MO": 3306,
      "Wall": 3307,
      "informed": 3308,
      "associ": 3309,
      "Ukrain": 3310,
      "celebr": 3311,
      "climate": 3312,
      "ATE": 3313,
      "UK": 3314,
      "hur": 3315,
      "Last": 3316,
      "stock": 3317,
      "ilities": 3318,
      "politics": 3319,
      "Def": 3320,
      "Thom": 3321,
      "County": 3322,
      "custom": 3323,
      "asc": 3324,
      "ports": 3325,
      "couple": 3326,
      "NY": 3327,
      "об": 3328,
      "istic": 3329,
      "Report": 3330,
      "provided": 3331,
      "histor": 3332,
      "summer": 3333,
      "rid": 3334,
      "zy": 3335,
      "anim": 3336,
      "Media": 3337,
      "beyond": 3338,
      "value": 3339,
      "Rev": 3340,
      "bes": 3341,
      "hop": 3342,
      "ients": 3343,
      "tried": 3344,
      "sexual": 3345,
      "stead": 3346,
      "Tom": 3347,
      "Organ": 3348,
      "ulture": 3349,
      "iel": 3350,
      "sn": 3351,
      "ison": 3352,
      "ental": 3353,
      "illegal": 3354,
      "chain": 3355,
      "numbers": 3356,
      "International": 3357,
      "millions": 3358,
      "strict": 3359,
      "included": 3360,
      "Senator": 3361,
      "Rad": 3362,
      "hous": 3363,
      "ander": 3364,
      "aks": 3365,
      "MA": 3366,
      "vie": 3367,
      "brought": 3368,
      "broad": 3369,
      "Government": 3370,
      "AID": 3371,
      "Follow": 3372,
      "yer": 3373,
      "197": 3374,
      "impact": 3375,
      "politic": 3376,
      "Park": 3377,
      "ча": 3378,
      "intro": 3379,
      "hosp": 3380,
      "typ": 3381,
      "players": 3382,
      "chem": 3383,
      "technology": 3384,
      "necessary": 3385,
      "Committee": 3386,
      "ike": 3387,
      "swe": 3388,
      "region": 3389,
      "costs": 3390,
      "ram": 3391,
      "release": 3392,
      "seven": 3393,
      "attention": 3394,
      "expans": 3395,
      "boys": 3396,
      "native": 3397,
      "encies": 3398,
      "separ": 3399,
      "Germany": 3400,
      "hib": 3401,
      "rap": 3402,
      "schools": 3403,
      "DE": 3404,
      "Over": 3405,
      "ires": 3406,
      "programs": 3407,
      "Britain": 3408,
      "southern": 3409,
      "various": 3410,
      "Cha": 3411,
      "La": 3412,
      "wing": 3413,
      "iting": 3414,
      "noted": 3415,
      "operation": 3416,
      "san": 3417,
      "....": 3418,
      "vention": 3419,
      "Mos": 3420,
      "”.": 3421,
      "poor": 3422,
      "perhaps": 3423,
      "princi": 3424,
      "stitute": 3425,
      "credit": 3426,
      "fast": 3427,
      "strugg": 3428,
      "passed": 3429,
      "religious": 3430,
      "Union": 3431,
      "Secretary": 3432,
      "Green": 3433,
      "Fed": 3434,
      "Ron": 3435,
      "door": 3436,
      "ishing": 3437,
      "learn": 3438,
      "kept": 3439,
      "Ben": 3440,
      "atic": 3441,
      "doub": 3442,
      "murder": 3443,
      "Palestin": 3444,
      "Oh": 3445,
      "PRO": 3446,
      "paper": 3447,
      "earth": 3448,
      "33": 3449,
      "felt": 3450,
      "ift": 3451,
      "prep": 3452,
      "related": 3453,
      "claimed": 3454,
      "Ret": 3455,
      "senior": 3456,
      "mun": 3457,
      "inations": 3458,
      "rief": 3459,
      "venue": 3460,
      "LO": 3461,
      "Saf": 3462,
      "Since": 3463,
      "ises": 3464,
      "traff": 3465,
      "cru": 3466,
      "ME": 3467,
      "theater": 3468,
      "encour": 3469,
      "Gree": 3470,
      "avi": 3471,
      "tre": 3472,
      "ugh": 3473,
      "training": 3474,
      "knew": 3475,
      "ля": 3476,
      "union": 3477,
      "contact": 3478,
      "quarter": 3479,
      "verse": 3480,
      "apol": 3481,
      "pped": 3482,
      "regular": 3483,
      "carry": 3484,
      "insurance": 3485,
      "ij": 3486,
      "ky": 3487,
      "brings": 3488,
      "France": 3489,
      "Navy": 3490,
      "ί": 3491,
      "ining": 3492,
      "opt": 3493,
      "exam": 3494,
      "failed": 3495,
      "continued": 3496,
      "sort": 3497,
      "пре": 3498,
      "при": 3499,
      "ung": 3500,
      "largest": 3501,
      "organiz": 3502,
      "education": 3503,
      "Ber": 3504,
      "Jes": 3505,
      "Vir": 3506,
      "boy": 3507,
      "Nov": 3508,
      "posted": 3509,
      "mas": 3510,
      "ouch": 3511,
      "served": 3512,
      "placed": 3513,
      "GO": 3514,
      "Wik": 3515,
      "pic": 3516,
      "sto": 3517,
      "stage": 3518,
      "parliament": 3519,
      "ologist": 3520,
      "Indian": 3521,
      "Ham": 3522,
      "eight": 3523,
      "ду": 3524,
      "imag": 3525,
      "track": 3526,
      "iff": 3527,
      "198": 3528,
      "abort": 3529,
      "finally": 3530,
      "sof": 3531,
      "except": 3532,
      "blood": 3533,
      "radio": 3534,
      "introdu": 3535,
      "tegr": 3536,
      "pack": 3537,
      "spr": 3538,
      "iction": 3539,
      "ledge": 3540,
      "standing": 3541,
      "copy": 3542,
      "gay": 3543,
      "goti": 3544,
      "block": 3545,
      "Bel": 3546,
      "Clo": 3547,
      "playing": 3548,
      "peace": 3549,
      "crime": 3550,
      "built": 3551,
      "supports": 3552,
      "LY": 3553,
      "Net": 3554,
      "stant": 3555,
      "willing": 3556,
      "liberal": 3557,
      "easy": 3558,
      "particularly": 3559,
      "confl": 3560,
      "purch": 3561,
      "ux": 3562,
      "remember": 3563,
      "sea": 3564,
      "Trade": 3565,
      "Fact": 3566,
      "WE": 3567,
      "iers": 3568,
      "Who": 3569,
      "terrorism": 3570,
      "Liber": 3571,
      "expansion": 3572,
      "AF": 3573,
      "App": 3574,
      "Big": 3575,
      "PR": 3576,
      "inated": 3577,
      "depart": 3578,
      "saf": 3579,
      "inside": 3580,
      "employees": 3581,
      "Lou": 3582,
      "WH": 3583,
      "cam": 3584,
      "kids": 3585,
      "sad": 3586,
      "па": 3587,
      "ше": 3588,
      "assa": 3589,
      "sect": 3590,
      "Earth": 3591,
      "Ay": 3592,
      "daily": 3593,
      "ries": 3594,
      "goal": 3595,
      "Get": 3596,
      "neg": 3597,
      "https": 3598,
      "budget": 3599,
      "PO": 3600,
      "cise": 3601,
      "hus": 3602,
      "migr": 3603,
      "stor": 3604,
      "unched": 3605,
      "negoti": 3606,
      "rowser": 3607,
      "views": 3608,
      "taxes": 3609,
      "gone": 3610,
      "из": 3611,
      "cents": 3612,
      "described": 3613,
      "circ": 3614,
      "Constitution": 3615,
      "Des": 3616,
      "adm": 3617,
      "Eng": 3618,
      "HA": 3619,
      "Obam": 3620,
      "Mer": 3621,
      "arily": 3622,
      "Angel": 3623,
      "counts": 3624,
      "AIDS": 3625,
      "Gen": 3626,
      "Rel": 3627,
      "Su": 3628,
      "pressure": 3629,
      "thinking": 3630,
      "profit": 3631,
      "German": 3632,
      "Cr": 3633,
      "langu": 3634,
      "moving": 3635,
      "ibly": 3636,
      "officers": 3637,
      "extreme": 3638,
      "pretty": 3639,
      "decades": 3640,
      "Flor": 3641,
      "fal": 3642,
      "arms": 3643,
      "forman": 3644,
      "atever": 3645,
      "cry": 3646,
      "rule": 3647,
      "culture": 3648,
      "named": 3649,
      "WI": 3650,
      "nik": 3651,
      "repor": 3652,
      "quot": 3653,
      "INT": 3654,
      "looks": 3655,
      "appears": 3656,
      "rise": 3657,
      "yesterday": 3658,
      "Syrian": 3659,
      "cross": 3660,
      "ры": 3661,
      "rock": 3662,
      "church": 3663,
      "comments": 3664,
      "Military": 3665,
      "Alex": 3666,
      "Found": 3667,
      "Mag": 3668,
      "Say": 3669,
      "Val": 3670,
      "trou": 3671,
      "active": 3672,
      "spot": 3673,
      "institut": 3674,
      "trait": 3675,
      "AB": 3676,
      "Bu": 3677,
      "Ken": 3678,
      "ked": 3679,
      "wish": 3680,
      "acity": 3681,
      "voting": 3682,
      "Scot": 3683,
      "tom": 3684,
      "ultim": 3685,
      "obvious": 3686,
      "corporate": 3687,
      "medicine": 3688,
      "analyst": 3689,
      "CC": 3690,
      "ta": 3691,
      "justice": 3692,
      "rupt": 3693,
      "husband": 3694,
      "knows": 3695,
      "sales": 3696,
      "African": 3697,
      "avoid": 3698,
      "ease": 3699,
      "ό": 3700,
      "stated": 3701,
      "alone": 3702,
      "enda": 3703,
      "obtained": 3704,
      "type": 3705,
      "strengthen": 3706,
      "daughter": 3707,
      "omen": 3708,
      "sey": 3709,
      "prosecut": 3710,
      "ression": 3711,
      "fighting": 3712,
      "!!": 3713,
      "original": 3714,
      "supporters": 3715,
      "Care": 3716,
      "School": 3717,
      "Will": 3718,
      "sid": 3719,
      "aly": 3720,
      "eff": 3721,
      "simple": 3722,
      "suspect": 3723,
      "Korea": 3724,
      "anda": 3725,
      "correct": 3726,
      "Police": 3727,
      "Air": 3728,
      "Fore": 3729,
      "GB": 3730,
      "hon": 3731,
      "dog": 3732,
      "Coast": 3733,
      "advoc": 3734,
      "NOT": 3735,
      "antic": 3736,
      "voted": 3737,
      "powerful": 3738,
      "character": 3739,
      "safety": 3740,
      "fol": 3741,
      "consum": 3742,
      "note": 3743,
      "performan": 3744,
      "version": 3745,
      "remains": 3746,
      "leadership": 3747,
      "speaker": 3748,
      "Hum": 3749,
      "ски": 3750,
      "els": 3751,
      "milit": 3752,
      "BS": 3753,
      "sens": 3754,
      "log": 3755,
      "сти": 3756,
      "choice": 3757,
      "announce": 3758,
      "India": 3759,
      "31": 3760,
      "lad": 3761,
      "worse": 3762,
      "evil": 3763,
      "Politics": 3764,
      "vices": 3765,
      "enforce": 3766,
      "trust": 3767,
      "Social": 3768,
      "marks": 3769,
      "Like": 3770,
      "certainly": 3771,
      "faith": 3772,
      "McCain": 3773,
      "Bak": 3774,
      "DV": 3775,
      "Egy": 3776,
      "fare": 3777,
      "quality": 3778,
      "owners": 3779,
      "submission": 3780,
      "Engl": 3781,
      "candidates": 3782,
      "yn": 3783,
      "entially": 3784,
      "wealth": 3785,
      "GETT": 3786,
      "хо": 3787,
      "lyn": 3788,
      "authorities": 3789,
      "doctr": 3790,
      "victory": 3791,
      "Egypt": 3792,
      "send": 3793,
      "ου": 3794,
      "deliver": 3795,
      "сто": 3796,
      "elected": 3797,
      "Florida": 3798,
      "exc": 3799,
      "ghan": 3800,
      "sla": 3801,
      "beha": 3802,
      "includes": 3803,
      "Because": 3804,
      "Sto": 3805,
      "му": 3806,
      "ims": 3807,
      "coal": 3808,
      "Island": 3809,
      "charge": 3810,
      "details": 3811,
      "completely": 3812,
      "Life": 3813,
      "vacc": 3814,
      "rep": 3815,
      "prise": 3816,
      "MS": 3817,
      "са": 3818,
      "integr": 3819,
      "upcoming": 3820,
      "enced": 3821,
      "committee": 3822,
      "Organization": 3823,
      "Ke": 3824,
      "Reg": 3825,
      "refuge": 3826,
      "quickly": 3827,
      "Los": 3828,
      "Middle": 3829,
      "smo": 3830,
      "launched": 3831,
      "print": 3832,
      "Good": 3833,
      "plant": 3834,
      "ishment": 3835,
      "THAT": 3836,
      "calling": 3837,
      "ASS": 3838,
      "implementation": 3839,
      "Iv": 3840,
      "ahead": 3841,
      "pi": 3842,
      "determin": 3843,
      "ification": 3844,
      "focus": 3845,
      "DVD": 3846,
      "lic": 3847,
      "acies": 3848,
      "movie": 3849,
      "college": 3850,
      "increased": 3851,
      "drugs": 3852,
      "na": 3853,
      "acare": 3854,
      "nationally": 3855,
      "books": 3856,
      "continues": 3857,
      "English": 3858,
      "GETTY": 3859,
      "Fire": 3860,
      "ering": 3861,
      "isk": 3862,
      "figure": 3863,
      "Brown": 3864,
      "Kay": 3865,
      "hands": 3866,
      "slow": 3867,
      "conference": 3868,
      "196": 3869,
      "reflect": 3870,
      "baby": 3871,
      "exactly": 3872,
      "Obamacare": 3873,
      "acqu": 3874,
      "complain": 3875,
      "2009": 3876,
      "looked": 3877,
      "helped": 3878,
      "biggest": 3879,
      "leaves": 3880,
      "DO": 3881,
      "TR": 3882,
      "dig": 3883,
      "whom": 3884,
      "ountain": 3885,
      "neighbor": 3886,
      "universities": 3887,
      "DC": 3888,
      "ние": 3889,
      "ния": 3890,
      "apparen": 3891,
      "purpose": 3892,
      "Sw": 3893,
      "Two": 3894,
      "fle": 3895,
      "thus": 3896,
      "COM": 3897,
      "Pak": 3898,
      "mist": 3899,
      "spread": 3900,
      "armed": 3901,
      "Institute": 3902,
      "lled": 3903,
      "surpris": 3904,
      "makers": 3905,
      "battle": 3906,
      "vari": 3907,
      "supposed": 3908,
      "markets": 3909,
      "individuals": 3910,
      "pul": 3911,
      "stra": 3912,
      "required": 3913,
      "consideration": 3914,
      "bassy": 3915,
      "Ahmad": 3916,
      "Wal": 3917,
      "cities": 3918,
      "hab": 3919,
      "poses": 3920,
      "showed": 3921,
      "career": 3922,
      "caused": 3923,
      "ville": 3924,
      "science": 3925,
      "incident": 3926,
      "challeng": 3927,
      "Virgin": 3928,
      "behavi": 3929,
      "fo": 3930,
      "veh": 3931,
      "riot": 3932,
      "Chic": 3933,
      "useum": 3934,
      "standard": 3935,
      "officer": 3936,
      "02": 3937,
      "Saudi": 3938,
      "crow": 3939,
      "ateg": 3940,
      "estim": 3941,
      "explo": 3942,
      "asking": 3943,
      "Johnson": 3944,
      "spirit": 3945,
      "picture": 3946,
      "Free": 3947,
      "чи": 3948,
      "extra": 3949,
      "cient": 3950,
      "brain": 3951,
      "Play": 3952,
      "directly": 3953,
      "plomacy": 3954,
      "CNN": 3955,
      "secure": 3956,
      "false": 3957,
      "CIA": 3958,
      "Mill": 3959,
      "MENT": 3960,
      "dark": 3961,
      "iced": 3962,
      "icial": 3963,
      "opposition": 3964,
      "ension": 3965,
      "Joe": 3966,
      "nature": 3967,
      "Group": 3968,
      "Austral": 3969,
      "raised": 3970,
      "documents": 3971,
      "traffic": 3972,
      "Jihad": 3973,
      "ной": 3974,
      "Afghan": 3975,
      "primary": 3976,
      "opportunity": 3977,
      "Chicago": 3978,
      ".’": 3979,
      "beaut": 3980,
      "cious": 3981,
      "Moore": 3982,
      "writing": 3983,
      "Office": 3984,
      "legislation": 3985,
      "Ano": 3986,
      "edge": 3987,
      "arian": 3988,
      "addition": 3989,
      "guy": 3990,
      "throughout": 3991,
      "prior": 3992,
      "terrorists": 3993,
      "reasons": 3994,
      "Sal": 3995,
      "eth": 3996,
      "charges": 3997,
      "predict": 3998,
      "Miss": 3999,
      "gent": 4000,
      "sle": 4001,
      "owers": 4002,
      "improve": 4003,
      "USB": 4004,
      "clearly": 4005,
      "alleged": 4006,
      "hundreds": 4007,
      "VER": 4008,
      "Yet": 4009,
      "ufact": 4010,
      "prem": 4011,
      "Allah": 4012,
      "defend": 4013,
      "Shar": 4014,
      "practice": 4015,
      "Economy": 4016,
      "ще": 4017,
      "reli": 4018,
      "owner": 4019,
      "collap": 4020,
      "belief": 4021,
      "EST": 4022,
      "Medic": 4023,
      "99": 4024,
      "flow": 4025,
      "ну": 4026,
      "limited": 4027,
      "Carol": 4028,
      "green": 4029,
      "responsible": 4030,
      "Jewish": 4031,
      "modern": 4032,
      "immediately": 4033,
      "chemical": 4034,
      "WITH": 4035,
      "Another": 4036,
      "Lin": 4037,
      "Ros": 4038,
      "Sar": 4039,
      "uters": 4040,
      "Those": 4041,
      "Ukraine": 4042,
      "36": 4043,
      "complex": 4044,
      "independent": 4045,
      "rend": 4046,
      "visa": 4047,
      "34": 4048,
      "Direct": 4049,
      "rating": 4050,
      "mising": 4051,
      "Canada": 4052,
      "citizen": 4053,
      "sometimes": 4054,
      "wind": 4055,
      "tocol": 4056,
      "ases": 4057,
      "sets": 4058,
      "qual": 4059,
      "iving": 4060,
      "scen": 4061,
      "Alf": 4062,
      "anonymising": 4063,
      "sor": 4064,
      "shall": 4065,
      "judge": 4066,
      "Culture": 4067,
      "highly": 4068,
      "happy": 4069,
      "revealed": 4070,
      "Richard": 4071,
      "RT": 4072,
      "revol": 4073,
      "isions": 4074,
      "minor": 4075,
      "Hab": 4076,
      "Jeff": 4077,
      "egal": 4078,
      "agencies": 4079,
      "aware": 4080,
      "girl": 4081,
      "ele": 4082,
      "flight": 4083,
      "icy": 4084,
      "image": 4085,
      "feed": 4086,
      "Under": 4087,
      "benefit": 4088,
      "Str": 4089,
      "jad": 4090,
      "sched": 4091,
      "enge": 4092,
      "resist": 4093,
      "exer": 4094,
      "parts": 4095,
      "interior": 4096,
      "trial": 4097,
      "places": 4098,
      "apolis": 4099,
      "Jose": 4100,
      "sess": 4101,
      "estic": 4102,
      "empor": 4103,
      "operations": 4104,
      "doubt": 4105,
      "PM": 4106,
      "park": 4107,
      "table": 4108,
      "lob": 4109,
      "club": 4110,
      "positive": 4111,
      "IST": 4112,
      "write": 4113,
      "normal": 4114,
      "advisor": 4115,
      "television": 4116,
      "Hel": 4117,
      "Round": 4118,
      "die": 4119,
      "ream": 4120,
      "ches": 4121,
      "save": 4122,
      "flag": 4123,
      "funds": 4124,
      "analysis": 4125,
      "****": 4126,
      "doctrine": 4127,
      "burn": 4128,
      "fat": 4129,
      "critical": 4130,
      "Nations": 4131,
      "SS": 4132,
      "Watch": 4133,
      "nut": 4134,
      "tic": 4135,
      "istry": 4136,
      "warns": 4137,
      "status": 4138,
      "Peter": 4139,
      "troops": 4140,
      "iles": 4141,
      "beat": 4142,
      "exchanges": 4143,
      "Muslims": 4144,
      "48": 4145,
      "Camp": 4146,
      "Out": 4147,
      "cat": 4148,
      "enjo": 4149,
      "hest": 4150,
      "spend": 4151,
      "interests": 4152,
      "basis": 4153,
      "language": 4154,
      "Pakistan": 4155,
      "gency": 4156,
      "inejad": 4157,
      "2004": 4158,
      "strateg": 4159,
      "~~~~": 4160,
      "abortion": 4161,
      "hen": 4162,
      "accused": 4163,
      "patients": 4164,
      "strategy": 4165,
      "beginning": 4166,
      "birth": 4167,
      "Ahmadinejad": 4168,
      "path": 4169,
      "greater": 4170,
      "holidays": 4171,
      "card": 4172,
      "please": 4173,
      "atol": 4174,
      "launch": 4175,
      "Conspir": 4176,
      "miles": 4177,
      "seemed": 4178,
      "massive": 4179,
      "restrict": 4180,
      "pool": 4181,
      "Sheik": 4182,
      "signed": 4183,
      "killing": 4184,
      "Christmas": 4185,
      "fortun": 4186,
      "EMB": 4187,
      "minimal": 4188,
      "demonstr": 4189,
      "37": 4190,
      "Em": 4191,
      "Mur": 4192,
      "zing": 4193,
      "perfect": 4194,
      "although": 4195,
      "systems": 4196,
      "capacity": 4197,
      "____": 4198,
      "believed": 4199,
      "constitutional": 4200,
      "Sam": 4201,
      "nations": 4202,
      "tour": 4203,
      "сь": 4204,
      "inner": 4205,
      "stood": 4206,
      "serve": 4207,
      "disease": 4208,
      "issued": 4209,
      "Research": 4210,
      "Mexico": 4211,
      "brief": 4212,
      "district": 4213,
      "inno": 4214,
      "store": 4215,
      "idge": 4216,
      "appropri": 4217,
      "effective": 4218,
      "opinion": 4219,
      "aling": 4220,
      "olf": 4221,
      "Chan": 4222,
      "Reuters": 4223,
      "Issue": 4224,
      "instru": 4225,
      "EX": 4226,
      "Other": 4227,
      "fuel": 4228,
      "έ": 4229,
      "erry": 4230,
      "ancy": 4231,
      "Their": 4232,
      "Star": 4233,
      "investment": 4234,
      "reached": 4235,
      "lay": 4236,
      "embassy": 4237,
      "Invest": 4238,
      "consist": 4239,
      "conditions": 4240,
      "Prof": 4241,
      "treatment": 4242,
      "reactors": 4243,
      "Louis": 4244,
      "talks": 4245,
      "employment": 4246,
      "democracy": 4247,
      "Thomas": 4248,
      "Au": 4249,
      "las": 4250,
      "song": 4251,
      "olic": 4252,
      "model": 4253,
      "internationally": 4254,
      "homes": 4255,
      "bomb": 4256,
      "Turkey": 4257,
      "confir": 4258,
      "resent": 4259,
      "mob": 4260,
      "iful": 4261,
      "raise": 4262,
      "feet": 4263,
      "afford": 4264,
      "closed": 4265,
      "Service": 4266,
      "meaning": 4267,
      "gather": 4268,
      "hav": 4269,
      "Conserv": 4270,
      "student": 4271,
      "Senegal": 4272,
      "businesses": 4273,
      "authority": 4274,
      "pilgr": 4275,
      "Global": 4276,
      "High": 4277,
      "agon": 4278,
      "shock": 4279,
      "elections": 4280,
      "socially": 4281,
      "starting": 4282,
      "detailed": 4283,
      "atollah": 4284,
      "Ari": 4285,
      "rick": 4286,
      "это": 4287,
      "Step": 4288,
      "Also": 4289,
      "capt": 4290,
      "ILL": 4291,
      "Cath": 4292,
      "ERE": 4293,
      "PL": 4294,
      "USA": 4295,
      "Sey": 4296,
      "airs": 4297,
      "covery": 4298,
      "informs": 4299,
      "miral": 4300,
      "Jesus": 4301,
      "44": 4302,
      "Great": 4303,
      "Mass": 4304,
      "onto": 4305,
      "ota": 4306,
      "agreed": 4307,
      "pal": 4308,
      "teen": 4309,
      "parties": 4310,
      "submar": 4311,
      "League": 4312,
      "writer": 4313,
      "offered": 4314,
      "drop": 4315,
      "47": 4316,
      "…]": 4317,
      "throw": 4318,
      "whatever": 4319,
      "umn": 4320,
      "reduc": 4321,
      "Any": 4322,
      "ressed": 4323,
      "2006": 4324,
      "concerns": 4325,
      "victims": 4326,
      "da": 4327,
      "theid": 4328,
      "dem": 4329,
      "unless": 4330,
      "agenda": 4331,
      "Roy": 4332,
      "witness": 4333,
      "interesting": 4334,
      "environmental": 4335,
      "physical": 4336,
      "performance": 4337,
      "enforcement": 4338,
      "becomes": 4339,
      "imin": 4340,
      "aggress": 4341,
      "oph": 4342,
      "newsp": 4343,
      "weekend": 4344,
      "expand": 4345,
      "happens": 4346,
      "effects": 4347,
      "explained": 4348,
      "cul": 4349,
      "asco": 4350,
      "lose": 4351,
      "ideas": 4352,
      "opped": 4353,
      "solute": 4354,
      "Internet": 4355,
      "Ayatollah": 4356,
      "names": 4357,
      "ту": 4358,
      "lock": 4359,
      "eller": 4360,
      "protection": 4361,
      "sources": 4362,
      "”,": 4363,
      "theory": 4364,
      "fraud": 4365,
      "holding": 4366,
      "strike": 4367,
      "Africa": 4368,
      "England": 4369,
      "Mad": 4370,
      "TION": 4371,
      "hate": 4372,
      "text": 4373,
      "iment": 4374,
      "meant": 4375,
      "reporting": 4376,
      "planet": 4377,
      "Time": 4378,
      "andi": 4379,
      "occup": 4380,
      "Admiral": 4381,
      "electric": 4382,
      "Amendment": 4383,
      "automat": 4384,
      "Jamal": 4385,
      "Human": 4386,
      "Adel": 4387,
      "Bra": 4388,
      "Lu": 4389,
      "east": 4390,
      "fem": 4391,
      "sight": 4392,
      "zz": 4393,
      "telling": 4394,
      "believes": 4395,
      "damage": 4396,
      "psychologist": 4397,
      "Cal": 4398,
      "Yes": 4399,
      "yl": 4400,
      "ares": 4401,
      "values": 4402,
      "engine": 4403,
      "domestic": 4404,
      "hospital": 4405,
      "[…]": 4406,
      "ti": 4407,
      "tem": 4408,
      "aces": 4409,
      "weet": 4410,
      "cuts": 4411,
      "condition": 4412,
      "Additional": 4413,
      "environment": 4414,
      "Block": 4415,
      "Holly": 4416,
      "Kham": 4417,
      "sun": 4418,
      "scr": 4419,
      "га": 4420,
      "insist": 4421,
      "designed": 4422,
      "leaving": 4423,
      "Central": 4424,
      "reduce": 4425,
      "Risk": 4426,
      "frequ": 4427,
      "ά": 4428,
      "contr": 4429,
      "resources": 4430,
      "environments": 4431,
      "politicians": 4432,
      "55": 4433,
      "IP": 4434,
      "inger": 4435,
      "ager": 4436,
      "usually": 4437,
      "worst": 4438,
      "knowledge": 4439,
      "fix": 4440,
      "Virginia": 4441,
      "\",": 4442,
      "Cub": 4443,
      "During": 4444,
      "resh": 4445,
      "comfort": 4446,
      "manufact": 4447,
      "difference": 4448,
      "immigrants": 4449,
      "voice": 4450,
      "fellow": 4451,
      "Mike": 4452,
      "Strait": 4453,
      "fit": 4454,
      "size": 4455,
      "mainstream": 4456,
      "Army": 4457,
      "coverage": 4458,
      "Protocol": 4459,
      "):": 4460,
      "Lat": 4461,
      "Next": 4462,
      "Ve": 4463,
      "hack": 4464,
      "Cond": 4465,
      "Web": 4466,
      "craft": 4467,
      "conflict": 4468,
      "GC": 4469,
      "lude": 4470,
      "bling": 4471,
      "Chris": 4472,
      "Administration": 4473,
      "ALL": 4474,
      "virt": 4475,
      "icts": 4476,
      "commer": 4477,
      "weak": 4478,
      "shown": 4479,
      "meth": 4480,
      "fiasco": 4481,
      "shooting": 4482,
      "influence": 4483,
      "Martin": 4484,
      "Jim": 4485,
      "ano": 4486,
      "Although": 4487,
      "truly": 4488,
      "Charles": 4489,
      "organizations": 4490,
      "BO": 4491,
      "Sim": 4492,
      "malls": 4493,
      "ston": 4494,
      "weight": 4495,
      "ureau": 4496,
      "yourself": 4497,
      "2005": 4498,
      "residents": 4499,
      "moral": 4500,
      "clean": 4501,
      "About": 4502,
      "responsibility": 4503,
      "increasingly": 4504,
      "seeking": 4505,
      "arrested": 4506,
      "Apar": 4507,
      "liter": 4508,
      "ши": 4509,
      "option": 4510,
      "intended": 4511,
      "brother": 4512,
      "keeping": 4513,
      "violent": 4514,
      "cash": 4515,
      "ders": 4516,
      "emot": 4517,
      "Instead": 4518,
      "wouldn": 4519,
      "mostly": 4520,
      "submarines": 4521,
      "Apartheid": 4522,
      "í": 4523,
      "pun": 4524,
      "stain": 4525,
      "acher": 4526,
      "2000": 4527,
      "challenge": 4528,
      "Ivory": 4529,
      "Azer": 4530,
      "Kar": 4531,
      "Sur": 4532,
      "tur": 4533,
      "yers": 4534,
      "entail": 4535,
      "forms": 4536,
      "ITY": 4537,
      "Added": 4538,
      "drive": 4539,
      "Smith": 4540,
      "strengthens": 4541,
      "RA": 4542,
      "TS": 4543,
      "gives": 4544,
      "attract": 4545,
      "itude": 4546,
      "doz": 4547,
      "committed": 4548,
      "Franc": 4549,
      "Associations": 4550,
      "Background": 4551,
      "FA": 4552,
      "Jones": 4553,
      "touch": 4554,
      "weather": 4555,
      "hero": 4556,
      "prelude": 4557,
      "couldn": 4558,
      "join": 4559,
      "Rights": 4560,
      "consul": 4561,
      "spokesman": 4562,
      "Sanders": 4563,
      "Returning": 4564,
      "Foundation": 4565,
      "Sayy": 4566,
      "behavior": 4567,
      "pilgrims": 4568,
      "Du": 4569,
      "WO": 4570,
      "ses": 4571,
      "assu": 4572,
      "ador": 4573,
      "Dec": 4574,
      "followed": 4575,
      "Conditions": 4576,
      "39": 4577,
      "49": 4578,
      "Cam": 4579,
      "Sub": 4580,
      "muz": 4581,
      "supply": 4582,
      "decadence": 4583,
      "machinations": 4584,
      "Hormuz": 4585,
      "mouthpiece": 4586,
      "Que": 4587,
      "mine": 4588,
      "ку": 4589,
      "iring": 4590,
      "oneh": 4591,
      "maintain": 4592,
      "failure": 4593,
      "eye": 4594,
      "previously": 4595,
      "Wiki": 4596,
      "Hadd": 4597,
      "NBC": 4598,
      "reject": 4599,
      "creating": 4600,
      "additional": 4601,
      "Commission": 4602,
      "Frank": 4603,
      "racist": 4604,
      "democrat": 4605,
      "professor": 4606,
      "Je": 4607,
      "Mat": 4608,
      "NAT": 4609,
      "Yaz": 4610,
      "fans": 4611,
      "usual": 4612,
      "notes": 4613,
      "crash": 4614,
      "otherwise": 4615,
      "currency": 4616,
      "sites": 4617,
      "Diplomacy": 4618,
      "Habib": 4619,
      "Ok": 4620,
      "sud": 4621,
      "proposed": 4622,
      "loved": 4623,
      "radical": 4624,
      "ruption": 4625,
      "floor": 4626,
      "style": 4627,
      "Seyyed": 4628,
      "Haddad": 4629,
      "Rob": 4630,
      "VE": 4631,
      "sch": 4632,
      "nei": 4633,
      "rial": 4634,
      "exchange": 4635,
      "attor": 4636,
      "ISNA": 4637,
      "activities": 4638,
      "initi": 4639,
      "Palestinian": 4640,
      "46": 4641,
      "Aft": 4642,
      "Journal": 4643,
      "Yah": 4644,
      "iyan": 4645,
      "twitter": 4646,
      "trig": 4647,
      "docks": 4648,
      "myself": 4649,
      "Trans": 4650,
      "ission": 4651,
      "Nowruz": 4652,
      "understanding": 4653,
      "Conspiracies": 4654,
      "Yahya": 4655,
      "UP": 4656,
      "convers": 4657,
      "partners": 4658,
      "compiling": 4659,
      "seeing": 4660,
      "smart": 4661,
      "advant": 4662,
      "successful": 4663,
      "Steve": 4664,
      "convening": 4665,
      "District": 4666,
      "Ghol": 4667,
      "Home": 4668,
      "Jon": 4669,
      "Show": 4670,
      "army": 4671,
      "pled": 4672,
      "bled": 4673,
      "rising": 4674,
      "Williams": 4675,
      "Annapolis": 4676,
      "Closure": 4677,
      "Yazd": 4678,
      "Aftab": 4679,
      "Gholam": 4680,
      "amed": 4681,
      "formation": 4682,
      "apped": 4683,
      "experts": 4684,
      "funding": 4685,
      "Davar": 4686,
      "equip": 4687,
      "concerned": 4688,
      "IRGC": 4689,
      "Rahimiyan": 4690,
      "title": 4691,
      "Safavi": 4692,
      "Baku": 4693,
      "Kayhan": 4694,
      "straight": 4695,
      "Alfoneh": 4696,
      "Sheikhav": 4697,
      "Khamnei": 4698,
      "Azeri": 4699,
      "Sayyari": 4700,
      "Sheikhavandi": 4701,
      "==": 4702,
      "aur": 4703,
      "stone": 4704,
      "seat": 4705,
      "lawyer": 4706,
      "causes": 4707,
      "ных": 4708,
      "activity": 4709,
      "inflation": 4710,
      "selling": 4711,
      "38": 4712,
      "ape": 4713,
      "accounts": 4714,
      "igan": 4715,
      "congress": 4716,
      "pray": 4717,
      "maybe": 4718,
      "larger": 4719,
      "religion": 4720,
      "assault": 4721,
      "75": 4722,
      "ARE": 4723,
      "gender": 4724,
      "nine": 4725,
      "ping": 4726,
      "rare": 4727,
      "eds": 4728,
      "rog": 4729,
      "amin": 4730,
      "absolute": 4731,
      "anta": 4732,
      "iple": 4733,
      "download": 4734,
      "player": 4735,
      "trip": 4736,
      "spoke": 4737,
      "manager": 4738,
      "Romney": 4739,
      "32": 4740,
      "jump": 4741,
      "etro": 4742,
      "compared": 4743,
      "surround": 4744,
      "Comp": 4745,
      "waiting": 4746,
      "propag": 4747,
      "Moscow": 4748,
      "Hollywood": 4749,
      "BY": 4750,
      "oring": 4751,
      "relative": 4752,
      "records": 4753,
      "function": 4754,
      "towards": 4755,
      "circum": 4756,
      "Scott": 4757,
      "gi": 4758,
      "wall": 4759,
      "сси": 4760,
      "insu": 4761,
      "illance": 4762,
      "novel": 4763,
      "learned": 4764,
      "harm": 4765,
      "measure": 4766,
      "Sha": 4767,
      "htm": 4768,
      "code": 4769,
      "produce": 4770,
      "helping": 4771,
      "Ko": 4772,
      "Mal": 4773,
      "distr": 4774,
      "vement": 4775,
      "champ": 4776,
      "eful": 4777,
      "pted": 4778,
      "defic": 4779,
      "concern": 4780,
      "alternative": 4781,
      "AK": 4782,
      "Open": 4783,
      "athe": 4784,
      "dict": 4785,
      "wild": 4786,
      "advertis": 4787,
      "choose": 4788,
      "ART": 4789,
      "Vot": 4790,
      "ker": 4791,
      "showing": 4792,
      "update": 4793,
      "Paris": 4794,
      "screen": 4795,
      "Radio": 4796,
      "Mich": 4797,
      "zone": 4798,
      "ен": 4799,
      "ют": 4800,
      "speaking": 4801,
      "missed": 4802,
      "Atl": 4803,
      "harder": 4804,
      "repeated": 4805,
      "chairman": 4806,
      "Angeles": 4807,
      "confirmed": 4808,
      "Bal": 4809,
      "Gi": 4810,
      "dire": 4811,
      "ield": 4812,
      "lets": 4813,
      "conv": 4814,
      "joined": 4815,
      "Tru": 4816,
      "ito": 4817,
      "tool": 4818,
      "scale": 4819,
      "orders": 4820,
      "тель": 4821,
      "CONF": 4822,
      "Ap": 4823,
      "dy": 4824,
      "heav": 4825,
      "accom": 4826,
      "prefer": 4827,
      "scand": 4828,
      "adding": 4829,
      "soldiers": 4830,
      "03": 4831,
      "Del": 4832,
      "IF": 4833,
      "Ri": 4834,
      "fan": 4835,
      "стра": 4836,
      "decade": 4837,
      "Association": 4838,
      "Ama": 4839,
      "NC": 4840,
      "Rem": 4841,
      "vation": 4842,
      "лу": 4843,
      "ensure": 4844,
      "cture": 4845,
      "applic": 4846,
      "signs": 4847,
      "IGN": 4848,
      "negative": 4849,
      "Bur": 4850,
      "liance": 4851,
      "proceed": 4852,
      "noon": 4853,
      "voter": 4854,
      "votes": 4855,
      "annual": 4856,
      "famous": 4857,
      "planning": 4858,
      "winning": 4859,
      "street": 4860,
      "Bay": 4861,
      "Naz": 4862,
      "Penn": 4863,
      "bod": 4864,
      "itz": 4865,
      "users": 4866,
      "mod": 4867,
      "losing": 4868,
      "iven": 4869,
      "fired": 4870,
      "promise": 4871,
      "expert": 4872,
      "drink": 4873,
      "sky": 4874,
      "professional": 4875,
      "AGE": 4876,
      "Francis": 4877,
      "Far": 4878,
      "QU": 4879,
      "ня": 4880,
      "outs": 4881,
      "opened": 4882,
      "Defense": 4883,
      "65": 4884,
      "Fl": 4885,
      "bra": 4886,
      "tend": 4887,
      "heavy": 4888,
      "compe": 4889,
      "ounder": 4890,
      "governor": 4891,
      "cold": 4892,
      "thy": 4893,
      "convict": 4894,
      "reser": 4895,
      "scene": 4896,
      "2003": 4897,
      "studies": 4898,
      "largely": 4899,
      "measures": 4900,
      "figh": 4901,
      "τη": 4902,
      "anced": 4903,
      "itarian": 4904,
      "icide": 4905,
      "solution": 4906,
      "eyes": 4907,
      "graphy": 4908,
      "Director": 4909,
      "bly": 4910,
      "consequ": 4911,
      "warning": 4912,
      "ión": 4913,
      "install": 4914,
      "runs": 4915,
      "communities": 4916,
      "options": 4917,
      "Eli": 4918,
      "iet": 4919,
      "mere": 4920,
      "ule": 4921,
      "ги": 4922,
      "Andrew": 4923,
      "plane": 4924,
      "investors": 4925,
      "provides": 4926,
      "Gov": 4927,
      "racial": 4928,
      "ruling": 4929,
      "eventually": 4930,
      "emporary": 4931,
      "Freedom": 4932,
      "Sil": 4933,
      "ani": 4934,
      "aming": 4935,
      "symp": 4936,
      "color": 4937,
      "сть": 4938,
      "раз": 4939,
      "generation": 4940,
      "management": 4941,
      "NEW": 4942,
      "!”": 4943,
      "300": 4944,
      "Cur": 4945,
      "Sou": 4946,
      "Work": 4947,
      "iation": 4948,
      "бе": 4949,
      "lived": 4950,
      "articles": 4951,
      "Conne": 4952,
      "paying": 4953,
      "Prime": 4954,
      "advice": 4955,
      "sudden": 4956,
      "bag": 4957,
      "dut": 4958,
      "yes": 4959,
      "plus": 4960,
      "izes": 4961,
      "brand": 4962,
      "traditional": 4963,
      "origin": 4964,
      "Turk": 4965,
      "Ten": 4966,
      "hat": 4967,
      "ration": 4968,
      "мы": 4969,
      "iled": 4970,
      "accur": 4971,
      "aked": 4972,
      "achie": 4973,
      "Super": 4974,
      "statements": 4975,
      "scientists": 4976,
      "Jews": 4977,
      "uries": 4978,
      "onest": 4979,
      "raising": 4980,
      "wards": 4981,
      "highest": 4982,
      "audience": 4983,
      "Catholic": 4984,
      "Food": 4985,
      "SP": 4986,
      "ray": 4987,
      "lymp": 4988,
      "etc": 4989,
      "Leaks": 4990,
      "opening": 4991,
      "Board": 4992,
      "COUN": 4993,
      "expressed": 4994,
      "multiple": 4995,
      "customers": 4996,
      "Afghanistan": 4997,
      "Mont": 4998,
      "mous": 4999,
      "tox": 5000,
      "hearing": 5001,
      "shop": 5002,
      "crimes": 5003,
      "syn": 5004,
      "advance": 5005,
      "Tim": 5006,
      "сле": 5007,
      "grant": 5008,
      "coach": 5009,
      "presents": 5010,
      "conscious": 5011,
      "healthy": 5012,
      "interested": 5013,
      "distribut": 5014,
      "figures": 5015,
      "regarding": 5016,
      "Carolina": 5017,
      "tip": 5018,
      "tick": 5019,
      "andon": 5020,
      "atest": 5021,
      "proved": 5022,
      "appre": 5023,
      "bles": 5024,
      "clin": 5025,
      "aza": 5026,
      "Brook": 5027,
      "Civ": 5028,
      "Olymp": 5029,
      "fis": 5030,
      "nic": 5031,
      "stag": 5032,
      "acts": 5033,
      "uded": 5034,
      "warned": 5035,
      "expensive": 5036,
      "refused": 5037,
      "steps": 5038,
      "Arizon": 5039,
      "400": 5040,
      "95": 5041,
      "CR": 5042,
      "oral": 5043,
      "section": 5044,
      "commission": 5045,
      "governments": 5046,
      "guys": 5047,
      "CEO": 5048,
      "method": 5049,
      "sco": 5050,
      "су": 5051,
      "roots": 5052,
      "lip": 5053,
      "owned": 5054,
      "Both": 5055,
      "researchers": 5056,
      "Bus": 5057,
      "itation": 5058,
      "asing": 5059,
      "putting": 5060,
      "IDENT": 5061,
      "increasing": 5062,
      "prepared": 5063,
      "commercial": 5064,
      "Haw": 5065,
      "dra": 5066,
      "ered": 5067,
      "onents": 5068,
      "idency": 5069,
      "agan": 5070,
      "construction": 5071,
      "acting": 5072,
      "aught": 5073,
      "rent": 5074,
      "Represent": 5075,
      "cars": 5076,
      "approval": 5077,
      "fundam": 5078,
      "Ev": 5079,
      "Gar": 5080,
      "Ryan": 5081,
      "bac": 5082,
      "core": 5083,
      "ads": 5084,
      "rob": 5085,
      "2001": 5086,
      "supported": 5087,
      "breaking": 5088,
      "Market": 5089,
      "Mary": 5090,
      "Women": 5091,
      "eat": 5092,
      "iar": 5093,
      "infr": 5094,
      "stuff": 5095,
      "ables": 5096,
      "laugh": 5097,
      "perform": 5098,
      "cook": 5099,
      "Mrs": 5100,
      "decide": 5101,
      "ного": 5102,
      "Christians": 5103,
      "soft": 5104,
      "apparently": 5105,
      "05": 5106,
      "FL": 5107,
      "Hom": 5108,
      "SEC": 5109,
      "excl": 5110,
      "sche": 5111,
      "diary": 5112,
      "Book": 5113,
      "protests": 5114,
      "suggested": 5115,
      "gradu": 5116,
      "surveillance": 5117,
      "Ohio": 5118,
      "Op": 5119,
      "WAS": 5120,
      "pages": 5121,
      "orial": 5122,
      "icated": 5123,
      "haven": 5124,
      "actual": 5125,
      "coast": 5126,
      "protesters": 5127,
      "established": 5128,
      "TRI": 5129,
      "bid": 5130,
      "greg": 5131,
      "mort": 5132,
      "anke": 5133,
      "league": 5134,
      "heat": 5135,
      "acknow": 5136,
      "aker": 5137,
      "sym": 5138,
      "guess": 5139,
      "stein": 5140,
      "copyright": 5141,
      "Mem": 5142,
      "Tri": 5143,
      "iev": 5144,
      "iders": 5145,
      "holds": 5146,
      "panic": 5147,
      "Foreign": 5148,
      "neighborhood": 5149,
      "beautiful": 5150,
      "WikiLeaks": 5151,
      "04": 5152,
      "Er": 5153,
      "Gl": 5154,
      "Hist": 5155,
      "Ted": 5156,
      "bound": 5157,
      "hatt": 5158,
      "kins": 5159,
      "mic": 5160,
      "rage": 5161,
      "sustain": 5162,
      "aste": 5163,
      "lands": 5164,
      "charged": 5165,
      "easily": 5166,
      "Mean": 5167,
      "department": 5168,
      "Despite": 5169,
      "Arizona": 5170,
      "CL": 5171,
      "fine": 5172,
      "none": 5173,
      "rif": 5174,
      "identified": 5175,
      "partner": 5176,
      "Commun": 5177,
      "Only": 5178,
      "ffic": 5179,
      "ships": 5180,
      "lights": 5181,
      "dropped": 5182,
      "Look": 5183,
      "lobby": 5184,
      "Ir": 5185,
      "gree": 5186,
      "wage": 5187,
      "ara": 5188,
      "cience": 5189,
      "Inde": 5190,
      "gov": 5191,
      "coin": 5192,
      "appeal": 5193,
      "Plan": 5194,
      "possess": 5195,
      "allows": 5196,
      "faces": 5197,
      "doctors": 5198,
      "Kel": 5199,
      "mix": 5200,
      "resol": 5201,
      "astro": 5202,
      "portion": 5203,
      "Chief": 5204,
      "decisions": 5205,
      "pointed": 5206,
      "setting": 5207,
      "azine": 5208,
      "skin": 5209,
      "broadcast": 5210,
      "Australia": 5211,
      "newspaper": 5212,
      "Has": 5213,
      "Sput": 5214,
      "pm": 5215,
      "match": 5216,
      "bottom": 5217,
      "Blockchain": 5218,
      "BL": 5219,
      "Long": 5220,
      "Vo": 5221,
      "dish": 5222,
      "ode": 5223,
      "sac": 5224,
      "́s": 5225,
      "becoming": 5226,
      "blow": 5227,
      "ashion": 5228,
      "strain": 5229,
      "streets": 5230,
      "Jackson": 5231,
      "trouble": 5232,
      "Sputnik": 5233,
      "Tra": 5234,
      "revenue": 5235,
      "allies": 5236,
      "eda": 5237,
      "abs": 5238,
      "carried": 5239,
      "pictures": 5240,
      "Emp": 5241,
      "NSA": 5242,
      "OM": 5243,
      "dream": 5244,
      "fly": 5245,
      "——": 5246,
      "ths": 5247,
      "conspir": 5248,
      "mode": 5249,
      "assess": 5250,
      "minute": 5251,
      "THIS": 5252,
      "browser": 5253,
      "sides": 5254,
      "zil": 5255,
      "usive": 5256,
      "Still": 5257,
      "2018": 5258,
      "speed": 5259,
      "Second": 5260,
      "regulations": 5261,
      "Daniel": 5262,
      "proposal": 5263,
      "determined": 5264,
      "sleep": 5265,
      "Michigan": 5266,
      "42": 5267,
      "Cruz": 5268,
      "kid": 5269,
      "south": 5270,
      "ты": 5271,
      "intent": 5272,
      "Child": 5273,
      "numer": 5274,
      "possibility": 5275,
      "approved": 5276,
      "Prince": 5277,
      "accident": 5278,
      "facing": 5279,
      "Manhatt": 5280,
      "IVE": 5281,
      "filled": 5282,
      "Manhattan": 5283,
      "Bob": 5284,
      "Nat": 5285,
      "nice": 5286,
      "ented": 5287,
      "rian": 5288,
      "enses": 5289,
      "ensions": 5290,
      "caught": 5291,
      "facts": 5292,
      "married": 5293,
      "Attor": 5294,
      "happening": 5295,
      "declared": 5296,
      "Amazon": 5297,
      "err": 5298,
      "rol": 5299,
      "hair": 5300,
      "ulated": 5301,
      "plat": 5302,
      "ume": 5303,
      "legally": 5304,
      "purposes": 5305,
      "ATIONS": 5306,
      "refugees": 5307,
      "mountain": 5308,
      "powers": 5309,
      "ctic": 5310,
      "abuse": 5311,
      "blue": 5312,
      "195": 5313,
      "desk": 5314,
      "Policy": 5315,
      "filed": 5316,
      "Liby": 5317,
      "Again": 5318,
      "projects": 5319,
      "specifically": 5320,
      "Windows": 5321,
      "collapse": 5322,
      "Sol": 5323,
      "жи": 5324,
      "wash": 5325,
      "estate": 5326,
      "portation": 5327,
      "preced": 5328,
      "deaths": 5329,
      "western": 5330,
      "removed": 5331,
      "veter": 5332,
      "eless": 5333,
      "shared": 5334,
      "planned": 5335,
      "lling": 5336,
      "Alab": 5337,
      "ifying": 5338,
      "driving": 5339,
      "argument": 5340,
      "Arabia": 5341,
      "NATO": 5342,
      "Eric": 5343,
      "bow": 5344,
      "rally": 5345,
      "ба": 5346,
      "stances": 5347,
      "stopped": 5348,
      "itors": 5349,
      "oppos": 5350,
      "reportedly": 5351,
      "Bloom": 5352,
      "double": 5353,
      "indeed": 5354,
      "separate": 5355,
      "?\"": 5356,
      "fed": 5357,
      "older": 5358,
      "ems": 5359,
      "igned": 5360,
      "serving": 5361,
      "guard": 5362,
      "relations": 5363,
      "Once": 5364,
      "possibly": 5365,
      "blacks": 5366,
      "activists": 5367,
      "laptop": 5368,
      "twice": 5369,
      "exercise": 5370,
      "automatically": 5371,
      "ding": 5372,
      "fox": 5373,
      "aters": 5374,
      "impossible": 5375,
      "concept": 5376,
      "Where": 5377,
      "surprise": 5378,
      "supporting": 5379,
      "Bernie": 5380,
      "revolution": 5381,
      "CA": 5382,
      "mers": 5383,
      "inct": 5384,
      "degree": 5385,
      "osex": 5386,
      "кото": 5387,
      "Services": 5388,
      "propaganda": 5389,
      "NAS": 5390,
      "map": 5391,
      "skill": 5392,
      "window": 5393,
      "remind": 5394,
      "devast": 5395,
      "sho": 5396,
      "complet": 5397,
      "Real": 5398,
      "presence": 5399,
      "diplom": 5400,
      "matters": 5401,
      "taxpay": 5402,
      "College": 5403,
      "basic": 5404,
      "cells": 5405,
      "combat": 5406,
      "emergency": 5407,
      "Pan": 5408,
      "Paren": 5409,
      "ин": 5410,
      "arant": 5411,
      "Inc": 5412,
      "legit": 5413,
      "solid": 5414,
      "strikes": 5415,
      "criticism": 5416,
      "attorney": 5417,
      "Tube": 5418,
      "uct": 5419,
      "apart": 5420,
      "pover": 5421,
      "evin": 5422,
      "award": 5423,
      "joint": 5424,
      "generally": 5425,
      "north": 5426,
      "housing": 5427,
      "gins": 5428,
      "все": 5429,
      "constant": 5430,
      "trillion": 5431,
      "Week": 5432,
      "shel": 5433,
      "plays": 5434,
      "Sovi": 5435,
      "offering": 5436,
      "Palin": 5437,
      "minimum": 5438,
      "conducted": 5439,
      "nomine": 5440,
      "arrived": 5441,
      "ordinary": 5442,
      "Greece": 5443,
      "analysts": 5444,
      "Brazil": 5445,
      "Civil": 5446,
      "osexual": 5447,
      "Kur": 5448,
      "Tal": 5449,
      "tank": 5450,
      "aspect": 5451,
      "permission": 5452,
      "Its": 5453,
      "discovered": 5454,
      "pping": 5455,
      "entertain": 5456,
      "ные": 5457,
      "encourage": 5458,
      "Crown": 5459,
      "Port": 5460,
      "bran": 5461,
      "бу": 5462,
      "irt": 5463,
      "proced": 5464,
      "uled": 5465,
      "ears": 5466,
      "pra": 5467,
      "ideos": 5468,
      "Asia": 5469,
      "evening": 5470,
      "column": 5471,
      "2002": 5472,
      "ronic": 5473,
      "collection": 5474,
      "sector": 5475,
      "Talk": 5476,
      "fashion": 5477,
      "inent": 5478,
      "aine": 5479,
      "apt": 5480,
      "phil": 5481,
      "broke": 5482,
      "Congressional": 5483,
      "ucky": 5484,
      "guns": 5485,
      "Reserve": 5486,
      "watching": 5487,
      "linked": 5488,
      "suffering": 5489,
      "equipment": 5490,
      "direction": 5491,
      "OK": 5492,
      "cus": 5493,
      "catch": 5494,
      "founder": 5495,
      "trend": 5496,
      "station": 5497,
      "embr": 5498,
      "rible": 5499,
      "tect": 5500,
      "astic": 5501,
      "subsid": 5502,
      "YouTube": 5503,
      "Corpor": 5504,
      "Guard": 5505,
      "reporters": 5506,
      "EMBASS": 5507,
      "advantage": 5508,
      "Video": 5509,
      "bia": 5510,
      "oing": 5511,
      "wound": 5512,
      "isan": 5513,
      "rose": 5514,
      "essential": 5515,
      "identity": 5516,
      "intercept": 5517,
      "turns": 5518,
      "providing": 5519,
      "denied": 5520,
      "faced": 5521,
      "narr": 5522,
      "crowd": 5523,
      "html": 5524,
      "EMBASSY": 5525,
      "Call": 5526,
      "Come": 5527,
      "Ter": 5528,
      "Wood": 5529,
      "march": 5530,
      "ει": 5531,
      "anch": 5532,
      "replace": 5533,
      "arg": 5534,
      "vey": 5535,
      "bell": 5536,
      "destruction": 5537,
      "opposed": 5538,
      "lav": 5539,
      "background": 5540,
      "equal": 5541,
      "genet": 5542,
      "suggests": 5543,
      "Bost": 5544,
      "cro": 5545,
      "cers": 5546,
      "pound": 5547,
      "regime": 5548,
      "guarant": 5549,
      "под": 5550,
      "transfer": 5551,
      "developed": 5552,
      "succeed": 5553,
      "recommend": 5554,
      "Boston": 5555,
      "Bet": 5556,
      "VI": 5557,
      "gers": 5558,
      "ер": 5559,
      "remove": 5560,
      "ena": 5561,
      "encry": 5562,
      "cha": 5563,
      "confirm": 5564,
      "crack": 5565,
      "thanks": 5566,
      "chester": 5567,
      "carbon": 5568,
      "requires": 5569,
      "gotten": 5570,
      "limit": 5571,
      "Editor": 5572,
      "focused": 5573,
      "secretary": 5574,
      "estimated": 5575,
      "Span": 5576,
      "Tax": 5577,
      "ko": 5578,
      "rum": 5579,
      "По": 5580,
      "defeat": 5581,
      "managed": 5582,
      "aves": 5583,
      "creation": 5584,
      "lawsuit": 5585,
      "feeling": 5586,
      "index": 5587,
      "ultimately": 5588,
      "pipe": 5589,
      "scandal": 5590,
      "POR": 5591,
      "gment": 5592,
      "rig": 5593,
      "rated": 5594,
      "αι": 5595,
      "ак": 5596,
      "inf": 5597,
      "blame": 5598,
      "positions": 5599,
      "explos": 5600,
      "controlled": 5601,
      "retire": 5602,
      "existing": 5603,
      "Special": 5604,
      "destroy": 5605,
      "Alabama": 5606,
      "Cla": 5607,
      "NU": 5608,
      "fake": 5609,
      "sister": 5610,
      "sale": 5611,
      "wa": 5612,
      "unit": 5613,
      "istics": 5614,
      "gry": 5615,
      "finding": 5616,
      "admitted": 5617,
      "folks": 5618,
      "female": 5619,
      "Turkish": 5620,
      "Meanwhile": 5621,
      "Attorney": 5622,
      "PS": 5623,
      "Qa": 5624,
      "Wis": 5625,
      "spl": 5626,
      "лю": 5627,
      "esh": 5628,
      "herself": 5629,
      "photograph": 5630,
      "Perhaps": 5631,
      "ции": 5632,
      "Lad": 5633,
      "TE": 5634,
      "fasc": 5635,
      "gia": 5636,
      "ero": 5637,
      "illa": 5638,
      "apers": 5639,
      "Italy": 5640,
      "changing": 5641,
      "restaur": 5642,
      "presented": 5643,
      "bills": 5644,
      "Does": 5645,
      "Japanese": 5646,
      "fortunately": 5647,
      "Soviet": 5648,
      "cou": 5649,
      "fresh": 5650,
      "elimin": 5651,
      "END": 5652,
      "teams": 5653,
      "routes": 5654,
      "democratic": 5655,
      "Lew": 5656,
      "Pac": 5657,
      "ba": 5658,
      "tough": 5659,
      "atures": 5660,
      "ami": 5661,
      "balance": 5662,
      "trading": 5663,
      "Governor": 5664,
      "Article": 5665,
      "ategory": 5666,
      "symbol": 5667,
      "Fam": 5668,
      "HS": 5669,
      "Hall": 5670,
      "LL": 5671,
      "Pre": 5672,
      "Power": 5673,
      "Ref": 5674,
      "bought": 5675,
      "tact": 5676,
      "зи": 5677,
      "thes": 5678,
      "university": 5679,
      "goals": 5680,
      "corruption": 5681,
      "valu": 5682,
      "structure": 5683,
      "Jersey": 5684,
      "Judge": 5685,
      "Priv": 5686,
      "spring": 5687,
      "consumers": 5688,
      "06": 5689,
      "xit": 5690,
      "iger": 5691,
      "urban": 5692,
      "agents": 5693,
      "prohib": 5694,
      "sav": 5695,
      "endor": 5696,
      "Color": 5697,
      "ricane": 5698,
      "thoughts": 5699,
      "doctor": 5700,
      "conservatives": 5701,
      "unique": 5702,
      "Sarah": 5703,
      "temper": 5704,
      "appreci": 5705,
      "Kerry": 5706,
      "Lef": 5707,
      "Pent": 5708,
      "Top": 5709,
      "Wel": 5710,
      "euro": 5711,
      "gro": 5712,
      "slight": 5713,
      "territ": 5714,
      "dee": 5715,
      "pton": 5716,
      "bigger": 5717,
      "plicit": 5718,
      "houses": 5719,
      "camera": 5720,
      "honor": 5721,
      "excited": 5722,
      "Qaeda": 5723,
      "41": 5724,
      "Fre": 5725,
      "Ty": 5726,
      "щи": 5727,
      "ato": 5728,
      "edia": 5729,
      "click": 5730,
      "itely": 5731,
      "citing": 5732,
      "photos": 5733,
      "Company": 5734,
      "achieve": 5735,
      "Business": 5736,
      "fficient": 5737,
      "Ell": 5738,
      "Oper": 5739,
      "Rog": 5740,
      "hun": 5741,
      "kick": 5742,
      "bear": 5743,
      "partisan": 5744,
      "command": 5745,
      "emple": 5746,
      "allowing": 5747,
      "ECT": 5748,
      "bringing": 5749,
      "Bit": 5750,
      "ault": 5751,
      "stance": 5752,
      "stars": 5753,
      "etary": 5754,
      "overall": 5755,
      "guest": 5756,
      "iously": 5757,
      "Click": 5758,
      "goods": 5759,
      "passing": 5760,
      "banking": 5761,
      "entirely": 5762,
      "extremely": 5763,
      "07": 5764,
      "Rub": 5765,
      "Ver": 5766,
      "ios": 5767,
      "jun": 5768,
      "tack": 5769,
      "uer": 5770,
      "returned": 5771,
      "mann": 5772,
      "astru": 5773,
      "disaster": 5774,
      "instance": 5775,
      "Express": 5776,
      "severe": 5777,
      "Viet": 5778,
      "familiar": 5779,
      "mentioned": 5780,
      "UG": 5781,
      "ga": 5782,
      "ience": 5783,
      "si": 5784,
      "thood": 5785,
      "seas": 5786,
      "truck": 5787,
      "plot": 5788,
      "asser": 5789,
      "syl": 5790,
      "afternoon": 5791,
      "Should": 5792,
      "promised": 5793,
      "Team": 5794,
      "rooms": 5795,
      "foods": 5796,
      "easier": 5797,
      "discussion": 5798,
      "affected": 5799,
      "Never": 5800,
      "Rand": 5801,
      "gall": 5802,
      "obl": 5803,
      "sick": 5804,
      "iny": 5805,
      "insp": 5806,
      "assum": 5807,
      "enty": 5808,
      "una": 5809,
      "empts": 5810,
      "crimin": 5811,
      "storm": 5812,
      "Firefox": 5813,
      "Left": 5814,
      "43": 5815,
      "Dig": 5816,
      "HT": 5817,
      "Lar": 5818,
      "bels": 5819,
      "whites": 5820,
      "agement": 5821,
      "shar": 5822,
      "cool": 5823,
      "buying": 5824,
      "так": 5825,
      "burg": 5826,
      "welcome": 5827,
      "hurt": 5828,
      "types": 5829,
      "Jay": 5830,
      "Land": 5831,
      "Search": 5832,
      "USE": 5833,
      "realize": 5834,
      "ordered": 5835,
      "buildings": 5836,
      "tradition": 5837,
      "Philip": 5838,
      "associated": 5839,
      "YO": 5840,
      "dad": 5841,
      "fish": 5842,
      "turning": 5843,
      "ال": 5844,
      "recru": 5845,
      "utter": 5846,
      "utions": 5847,
      "quake": 5848,
      "perman": 5849,
      "ongoing": 5850,
      "broken": 5851,
      "ski": 5852,
      "AMEMBASSY": 5853,
      "recommended": 5854,
      "Profess": 5855,
      "champion": 5856,
      "River": 5857,
      "85": 5858,
      "Brad": 5859,
      "Cit": 5860,
      "Edu": 5861,
      "Sher": 5862,
      "master": 5863,
      "sitting": 5864,
      "tle": 5865,
      "tot": 5866,
      "assets": 5867,
      "amb": 5868,
      "images": 5869,
      "conce": 5870,
      "worry": 5871,
      "asks": 5872,
      "trigger": 5873,
      ",’": 5874,
      "Den": 5875,
      "lit": 5876,
      "colon": 5877,
      "divers": 5878,
      "deploy": 5879,
      "Grand": 5880,
      "config": 5881,
      "square": 5882,
      "Hen": 5883,
      "Jr": 5884,
      "ourselves": 5885,
      "plate": 5886,
      "acted": 5887,
      "quiet": 5888,
      "epis": 5889,
      "aving": 5890,
      "retail": 5891,
      "opportun": 5892,
      "Major": 5893,
      "Chair": 5894,
      "institutions": 5895,
      "astructure": 5896,
      "vac": 5897,
      "lean": 5898,
      "ades": 5899,
      "emic": 5900,
      "sole": 5901,
      "plants": 5902,
      "prime": 5903,
      "tribut": 5904,
      "standards": 5905,
      "Tea": 5906,
      "potentially": 5907,
      "argued": 5908,
      "Brexit": 5909,
      "Pennsyl": 5910,
      "Pennsylvan": 5911,
      "IES": 5912,
      "Kim": 5913,
      "Way": 5914,
      "honest": 5915,
      "ka": 5916,
      "ki": 5917,
      "sist": 5918,
      "пра": 5919,
      "reaction": 5920,
      "alty": 5921,
      "iden": 5922,
      "decre": 5923,
      "grass": 5924,
      "iana": 5925,
      "compar": 5926,
      "1980": 5927,
      "thinks": 5928,
      "consin": 5929,
      "extrem": 5930,
      "incred": 5931,
      "progressive": 5932,
      "Election": 5933,
      "absolutely": 5934,
      "advertising": 5935,
      "Spanish": 5936,
      "EF": 5937,
      "male": 5938,
      "pull": 5939,
      "reci": 5940,
      "igation": 5941,
      "unte": 5942,
      "traces": 5943,
      "notice": 5944,
      "wars": 5945,
      "listen": 5946,
      "ICH": 5947,
      "ный": 5948,
      "declined": 5949,
      "Mueller": 5950,
      "imagine": 5951,
      "CT": 5952,
      "Email": 5953,
      "SC": 5954,
      "Sho": 5955,
      "yle": 5956,
      "ей": 5957,
      "он": 5958,
      "ange": 5959,
      "rev": 5960,
      "capable": 5961,
      "ESS": 5962,
      "dram": 5963,
      "discussed": 5964,
      "appropriate": 5965,
      "Wisconsin": 5966,
      "Bud": 5967,
      "MIN": 5968,
      "Old": 5969,
      "Ru": 5970,
      "Sus": 5971,
      "Treas": 5972,
      "Vol": 5973,
      "bail": 5974,
      "eign": 5975,
      "hang": 5976,
      "ario": 5977,
      "asp": 5978,
      "ayed": 5979,
      "peac": 5980,
      "elite": 5981,
      "wearing": 5982,
      "shift": 5983,
      "marketing": 5984,
      "receiving": 5985,
      "solar": 5986,
      "industrial": 5987,
      "links": 5988,
      "Miller": 5989,
      "TRIES": 5990,
      "conspiracy": 5991,
      "Take": 5992,
      "pitch": 5993,
      "sports": 5994,
      "xim": 5995,
      "το": 5996,
      "unning": 5997,
      "aret": 5998,
      "neither": 5999,
      "emen": 6000,
      "emails": 6001,
      "prospect": 6002,
      "aps": 6003,
      "sover": 6004,
      "attempts": 6005,
      "flu": 6006,
      "perspect": 6007,
      "missing": 6008,
      "Davis": 6009,
      "Harry": 6010,
      "purchase": 6011,
      "Lord": 6012,
      "PE": 6013,
      "Ram": 6014,
      "Spain": 6015,
      "bare": 6016,
      "fre": 6017,
      "mitted": 6018,
      "rhe": 6019,
      "ye": 6020,
      "ска": 6021,
      "thew": 6022,
      "haz": 6023,
      "trail": 6024,
      "Think": 6025,
      "polls": 6026,
      "monitor": 6027,
      "emphas": 6028,
      "sanctions": 6029,
      "poverty": 6030,
      "Pentagon": 6031,
      "жа": 6032,
      "manip": 6033,
      "proud": 6034,
      "finance": 6035,
      "leads": 6036,
      "classified": 6037,
      "susp": 6038,
      "introduced": 6039,
      "conversation": 6040,
      "IDENTIAL": 6041,
      "encrypted": 6042,
      "!\"": 6043,
      "Bund": 6044,
      "IB": 6045,
      "Mel": 6046,
      "Tay": 6047,
      "rant": 6048,
      "tweet": 6049,
      "Ро": 6050,
      "theless": 6051,
      "unable": 6052,
      "teacher": 6053,
      "fiel": 6054,
      "IRS": 6055,
      "bombing": 6056,
      "quarters": 6057,
      "location": 6058,
      "Dear": 6059,
      "HE": 6060,
      "Hur": 6061,
      "Snow": 6062,
      "Young": 6063,
      "rom": 6064,
      "vul": 6065,
      "vant": 6066,
      "ικ": 6067,
      "user": 6068,
      "exposed": 6069,
      "earning": 6070,
      "sphere": 6071,
      "ached": 6072,
      "desper": 6073,
      "memo": 6074,
      "claiming": 6075,
      "directed": 6076,
      "1990": 6077,
      "decline": 6078,
      "referred": 6079,
      "deeply": 6080,
      "Pennsylvania": 6081,
      "Gun": 6082,
      "Greg": 6083,
      "LA": 6084,
      "Sa": 6085,
      "bath": 6086,
      "rush": 6087,
      "resolution": 6088,
      "illage": 6089,
      "proof": 6090,
      "ulate": 6091,
      "Three": 6092,
      "offensive": 6093,
      "boss": 6094,
      "heads": 6095,
      "Progress": 6096,
      "patient": 6097,
      "smaller": 6098,
      "establishment": 6099,
      "consumer": 6100,
      "Stephen": 6101,
      "87": 6102,
      "Best": 6103,
      "Dun": 6104,
      "Ill": 6105,
      "TER": 6106,
      "dat": 6107,
      "oo": 6108,
      "invent": 6109,
      "itable": 6110,
      "belong": 6111,
      "apy": 6112,
      "cket": 6113,
      "therefore": 6114,
      "worldwide": 6115,
      "missile": 6116,
      "nearby": 6117,
      "patter": 6118,
      "fourth": 6119,
      "demands": 6120,
      "corporations": 6121,
      "survey": 6122,
      "Cuba": 6123,
      "CONFIDENTIAL": 6124,
      "COUNTRIES": 6125,
      "Four": 6126,
      "Pet": 6127,
      "aust": 6128,
      "ju": 6129,
      "snow": 6130,
      "tight": 6131,
      "ini": 6132,
      "oul": 6133,
      "imper": 6134,
      "usal": 6135,
      "Though": 6136,
      "clar": 6137,
      "стве": 6138,
      "grown": 6139,
      "critics": 6140,
      "appearance": 6141,
      "Mexican": 6142,
      "--------------------------------": 6143,
      "COMM": 6144,
      "Linux": 6145,
      "desktop": 6146,
      "GE": 6147,
      "Gaza": 6148,
      "ni": 6149,
      "tort": 6150,
      "stim": 6151,
      "idel": 6152,
      "presidency": 6153,
      "Assad": 6154,
      "transition": 6155,
      "threats": 6156,
      "seriously": 6157,
      "injured": 6158,
      "announcement": 6159,
      "fundamental": 6160,
      "WN": 6161,
      "eu": 6162,
      "tun": 6163,
      "cia": 6164,
      "earned": 6165,
      "identify": 6166,
      "ARY": 6167,
      "End": 6168,
      "considering": 6169,
      "Maybe": 6170,
      "weapon": 6171,
      "messages": 6172,
      "silver": 6173,
      "competition": 6174,
      "journalists": 6175,
      "Finan": 6176,
      "Fund": 6177,
      "Pres": 6178,
      "Whe": 6179,
      "ря": 6180,
      "rey": 6181,
      "asion": 6182,
      "ilty": 6183,
      "complic": 6184,
      "Ital": 6185,
      "internal": 6186,
      "forecast": 6187,
      "regional": 6188,
      "warm": 6189,
      "Canad": 6190,
      "features": 6191,
      "accepted": 6192,
      "teachers": 6193,
      "reporter": 6194,
      "Joseph": 6195,
      "accompl": 6196,
      "opportunities": 6197,
      "51": 6198,
      "EPA": 6199,
      "Live": 6200,
      "Men": 6201,
      "PAGE": 6202,
      "cab": 6203,
      "incent": 6204,
      "beth": 6205,
      "rot": 6206,
      "tery": 6207,
      "antly": 6208,
      "upid": 6209,
      "Through": 6210,
      "myster": 6211,
      "closure": 6212,
      "channel": 6213,
      "Manchester": 6214,
      "Eastern": 6215,
      "delivered": 6216,
      "electricity": 6217,
      "consequences": 6218,
      "infrastructure": 6219,
      "configured": 6220,
      "batt": 6221,
      "bureau": 6222,
      "dial": 6223,
      "whel": 6224,
      "entit": 6225,
      "het": 6226,
      "hell": 6227,
      "acad": 6228,
      "shore": 6229,
      "doors": 6230,
      "prepar": 6231,
      "ство": 6232,
      "Mayor": 6233,
      "slides": 6234,
      "responded": 6235,
      "Voice": 6236,
      "Bir": 6237,
      "Have": 6238,
      "пи": 6239,
      "stress": 6240,
      "owed": 6241,
      "utral": 6242,
      "intel": 6243,
      "ogue": 6244,
      "Force": 6245,
      "helps": 6246,
      "posts": 6247,
      "nedy": 6248,
      "experienced": 6249,
      "connection": 6250,
      "III": 6251,
      "located": 6252,
      "machine": 6253,
      "stocks": 6254,
      "enjoy": 6255,
      "Matthew": 6256,
      "Museum": 6257,
      "Van": 6258,
      "bin": 6259,
      "gri": 6260,
      "museum": 6261,
      "videos": 6262,
      "inet": 6263,
      "opho": 6264,
      "learning": 6265,
      "phones": 6266,
      "covering": 6267,
      "volunte": 6268,
      "greatest": 6269,
      "domin": 6270,
      "мен": 6271,
      "recognize": 6272,
      "Kennedy": 6273,
      "vehicles": 6274,
      "Campaign": 6275,
      "Truth": 6276,
      "Indeed": 6277,
      "Colorado": 6278,
      "Educ": 6279,
      "Further": 6280,
      "Gil": 6281,
      "Iow": 6282,
      "jour": 6283,
      "ita": 6284,
      "suicide": 6285,
      "disput": 6286,
      "desire": 6287,
      "percentage": 6288,
      "causing": 6289,
      "flood": 6290,
      "ULD": 6291,
      "Author": 6292,
      "toxic": 6293,
      "Browser": 6294,
      "Yanke": 6295,
      "gur": 6296,
      "leng": 6297,
      "mate": 6298,
      "tes": 6299,
      "reck": 6300,
      "adults": 6301,
      "eland": 6302,
      "moves": 6303,
      "arts": 6304,
      "Reagan": 6305,
      "mining": 6306,
      "cession": 6307,
      "stands": 6308,
      "нии": 6309,
      "Planned": 6310,
      "healthcare": 6311,
      "borrow": 6312,
      "confidence": 6313,
      "increases": 6314,
      "suffered": 6315,
      "Queen": 6316,
      "fiscal": 6317,
      "numerous": 6318,
      "Bloomberg": 6319,
      "nominee": 6320,
      "56": 6321,
      "UFO": 6322,
      "fif": 6323,
      "resc": 6324,
      "odd": 6325,
      "backed": 6326,
      "Leg": 6327,
      "apping": 6328,
      "protected": 6329,
      "definitely": 6330,
      "destroyed": 6331,
      "struggle": 6332,
      "argue": 6333,
      "54": 6334,
      "Dam": 6335,
      "Fort": 6336,
      "GNU": 6337,
      "LIM": 6338,
      "hall": 6339,
      "renew": 6340,
      "arran": 6341,
      "oms": 6342,
      "forget": 6343,
      "ours": 6344,
      "plenty": 6345,
      "iban": 6346,
      "Project": 6347,
      "Share": 6348,
      "apply": 6349,
      "driven": 6350,
      "paint": 6351,
      "defined": 6352,
      "satis": 6353,
      "Medicare": 6354,
      "fighters": 6355,
      "Eliza": 6356,
      "originally": 6357,
      "4GB": 6358,
      "Avenue": 6359,
      "Chel": 6360,
      "Down": 6361,
      "NATION": 6362,
      "Pel": 6363,
      "Sc": 6364,
      "Science": 6365,
      "Vice": 6366,
      "Vict": 6367,
      "deleg": 6368,
      "hase": 6369,
      "ellow": 6370,
      "contest": 6371,
      "Columb": 6372,
      "feels": 6373,
      "instein": 6374,
      "hotel": 6375,
      "negotiations": 6376,
      "endorse": 6377,
      "Bundle": 6378,
      "Matt": 6379,
      "Was": 6380,
      "enger": 6381,
      "unemployment": 6382,
      "mond": 6383,
      "understood": 6384,
      "lawyers": 6385,
      "Sea": 6386,
      "Lee": 6387,
      "closer": 6388,
      "findings": 6389,
      "Blog": 6390,
      "Patrick": 6391,
      "journalist": 6392,
      "Apple": 6393,
      "pulled": 6394,
      "strategic": 6395,
      "comfortable": 6396,
      "consult": 6397,
      "Parenthood": 6398,
      "??": 6399,
      "Bab": 6400,
      "BBC": 6401,
      "Make": 6402,
      "dress": 6403,
      "jail": 6404,
      "onent": 6405,
      "trick": 6406,
      "grade": 6407,
      "render": 6408,
      "mayor": 6409,
      "finds": 6410,
      "cycle": 6411,
      "employed": 6412,
      "strength": 6413,
      "Economic": 6414,
      "concluded": 6415,
      "targeted": 6416,
      "connected": 6417,
      "rapid": 6418,
      "principles": 6419,
      "vehicle": 6420,
      "deficit": 6421,
      "suddenly": 6422,
      "peaceful": 6423,
      "Financial": 6424,
      "CBS": 6425,
      "DS": 6426,
      "WA": 6427,
      "glo": 6428,
      "iew": 6429,
      "она": 6430,
      "сво": 6431,
      "represents": 6432,
      "ums": 6433,
      "cles": 6434,
      "effic": 6435,
      "context": 6436,
      "THER": 6437,
      "profits": 6438,
      "glass": 6439,
      "targets": 6440,
      "documented": 6441,
      "skills": 6442,
      "Elizabeth": 6443,
      "59": 6444,
      "76": 6445,
      "pa": 6446,
      "pts": 6447,
      "ή": 6448,
      "….": 6449,
      "replaced": 6450,
      "roy": 6451,
      "blind": 6452,
      "1970": 6453,
      "lawmakers": 6454,
      "ANT": 6455,
      "memory": 6456,
      "feature": 6457,
      "Korean": 6458,
      "perspective": 6459,
      "BA": 6460,
      "Sum": 6461,
      "illy": 6462,
      "cean": 6463,
      "abandon": 6464,
      "ounce": 6465,
      "hasn": 6466,
      "overwhel": 6467,
      "rub": 6468,
      "guilty": 6469,
      "150": 6470,
      "Environ": 6471,
      "IDE": 6472,
      "Micro": 6473,
      "Brother": 6474,
      "commitment": 6475,
      "Southern": 6476,
      "Libya": 6477,
      "Pacific": 6478,
      "sovereign": 6479,
      "Gra": 6480,
      "Hy": 6481,
      "Jord": 6482,
      "би": 6483,
      "thr": 6484,
      "ionally": 6485,
      "adop": 6486,
      "determ": 6487,
      "detect": 6488,
      "apartment": 6489,
      "headed": 6490,
      "differences": 6491,
      "Moham": 6492,
      "Note": 6493,
      "activist": 6494,
      "widely": 6495,
      "legislative": 6496,
      "scheduled": 6497,
      "session": 6498,
      "rhetor": 6499,
      "determine": 6500,
      "KE": 6501,
      "Os": 6502,
      "кра": 6503,
      "remark": 6504,
      "sees": 6505,
      "acle": 6506,
      "amendment": 6507,
      "irty": 6508,
      "agent": 6509,
      "Intell": 6510,
      "corner": 6511,
      "engaged": 6512,
      "grew": 6513,
      "enez": 6514,
      "welfare": 6515,
      "schol": 6516,
      "Kelly": 6517,
      "Columbia": 6518,
      "mut": 6519,
      "tree": 6520,
      "wed": 6521,
      "administr": 6522,
      "county": 6523,
      "counsel": 6524,
      "athy": 6525,
      "fewer": 6526,
      "Indust": 6527,
      "crazy": 6528,
      "challenges": 6529,
      "NASA": 6530,
      "PORT": 6531,
      "Iowa": 6532,
      "600": 6533,
      "Bon": 6534,
      "OUT": 6535,
      "athan": 6536,
      "jihad": 6537,
      "pu": 6538,
      "пу": 6539,
      "ici": 6540,
      "leag": 6541,
      "outcome": 6542,
      "explan": 6543,
      "extract": 6544,
      "scar": 6545,
      "warming": 6546,
      "Russians": 6547,
      "gery": 6548,
      "funded": 6549,
      "humanity": 6550,
      "civilians": 6551,
      "parent": 6552,
      "sembly": 6553,
      "animals": 6554,
      "WHICH": 6555,
      "datab": 6556,
      "NATIONAL": 6557,
      "Gor": 6558,
      "Rod": 6559,
      "UD": 6560,
      "WOR": 6561,
      "dan": 6562,
      "dim": 6563,
      "να": 6564,
      "ancient": 6565,
      "alive": 6566,
      "items": 6567,
      "agno": 6568,
      "anyway": 6569,
      "posing": 6570,
      "obtain": 6571,
      "asket": 6572,
      "Tele": 6573,
      "Carter": 6574,
      "advanced": 6575,
      "remained": 6576,
      "properly": 6577,
      "graphic": 6578,
      "neighb": 6579,
      "Alexander": 6580,
      "innocent": 6581,
      "duty": 6582,
      "draft": 6583,
      "History": 6584,
      "Children": 6585,
      "Bitcoin": 6586,
      "57": 6587,
      "Cup": 6588,
      "Gore": 6589,
      "Know": 6590,
      "PER": 6591,
      "VEL": 6592,
      "adel": 6593,
      "condem": 6594,
      "exhib": 6595,
      "arden": 6596,
      "oked": 6597,
      "crew": 6598,
      "thank": 6599,
      "puts": 6600,
      "courts": 6601,
      "tests": 6602,
      "Program": 6603,
      "humans": 6604,
      "employee": 6605,
      "Study": 6606,
      "football": 6607,
      "conclusion": 6608,
      "shape": 6609,
      "historical": 6610,
      "minority": 6611,
      "relatively": 6612,
      "merely": 6613,
      "opposite": 6614,
      "Did": 6615,
      "Die": 6616,
      "nu": 6617,
      "tail": 6618,
      "comed": 6619,
      "observ": 6620,
      "flat": 6621,
      "publicly": 6622,
      "margin": 6623,
      "ception": 6624,
      "races": 6625,
      "Wilson": 6626,
      "pleas": 6627,
      "promote": 6628,
      "circumstances": 6629,
      "bodies": 6630,
      "philos": 6631,
      "52": 6632,
      "Hus": 6633,
      "Venez": 6634,
      "afr": 6635,
      "dinner": 6636,
      "wake": 6637,
      "гра": 6638,
      "ament": 6639,
      "elig": 6640,
      "ivity": 6641,
      "reads": 6642,
      "highlight": 6643,
      "ROM": 6644,
      "involving": 6645,
      "existence": 6646,
      "establish": 6647,
      "INTER": 6648,
      "Lewis": 6649,
      "diversity": 6650,
      "vulner": 6651,
      "Venezuel": 6652,
      "OL": 6653,
      "PT": 6654,
      "winter": 6655,
      "adjust": 6656,
      "frust": 6657,
      "posure": 6658,
      "actor": 6659,
      "acks": 6660,
      "worried": 6661,
      "cohol": 6662,
      "coordin": 6663,
      "species": 6664,
      "рас": 6665,
      "Techn": 6666,
      "Exper": 6667,
      "morrow": 6668,
      "racism": 6669,
      "dependent": 6670,
      "pieces": 6671,
      "explains": 6672,
      "materials": 6673,
      "walking": 6674,
      "favorite": 6675,
      "carrying": 6676,
      "migrants": 6677,
      "Intelligence": 6678,
      "Ba": 6679,
      "DER": 6680,
      "Max": 6681,
      "jury": 6682,
      "rat": 6683,
      "til": 6684,
      "vard": 6685,
      "inher": 6686,
      "onic": 6687,
      "verage": 6688,
      "quir": 6689,
      "tection": 6690,
      "Stand": 6691,
      "aircraft": 6692,
      "Rock": 6693,
      "OFF": 6694,
      "Peace": 6695,
      "Edward": 6696,
      "Georgia": 6697,
      "multi": 6698,
      "hopes": 6699,
      "narrative": 6700,
      "Professor": 6701,
      "totally": 6702,
      "intellect": 6703,
      "Yankees": 6704,
      "09": 6705,
      "Cy": 6706,
      "Cre": 6707,
      "Hou": 6708,
      "IO": 6709,
      "IOS": 6710,
      "taught": 6711,
      "theast": 6712,
      "replac": 6713,
      "aled": 6714,
      "ados": 6715,
      "liqu": 6716,
      "server": 6717,
      "issions": 6718,
      "roughly": 6719,
      "Club": 6720,
      "Order": 6721,
      "Among": 6722,
      "magazine": 6723,
      "ской": 6724,
      "Review": 6725,
      "resistance": 6726,
      "giant": 6727,
      "Jordan": 6728,
      "Gir": 6729,
      "Hun": 6730,
      "Pen": 6731,
      "Spr": 6732,
      "nav": 6733,
      "reput": 6734,
      "stupid": 6735,
      "tomorrow": 6736,
      "root": 6737,
      "concent": 6738,
      "rier": 6739,
      "ula": 6740,
      "auth": 6741,
      "tech": 6742,
      "ashes": 6743,
      "ATED": 6744,
      "lists": 6745,
      "ICE": 6746,
      "reasonable": 6747,
      "pushing": 6748,
      "initial": 6749,
      "maker": 6750,
      "congressional": 6751,
      "heavily": 6752,
      "acknowled": 6753,
      "Natural": 6754,
      "Taliban": 6755,
      "Vietnam": 6756,
      "Doug": 6757,
      "Sir": 6758,
      "hi": 6759,
      "sport": 6760,
      "sought": 6761,
      "begins": 6762,
      "construct": 6763,
      "mechan": 6764,
      "fee": 6765,
      "adequ": 6766,
      "cert": 6767,
      "default": 6768,
      "struck": 6769,
      "prominent": 6770,
      "System": 6771,
      "вать": 6772,
      "harass": 6773,
      "liberty": 6774,
      "liberals": 6775,
      "Michel": 6776,
      "Associated": 6777,
      "zero": 6778,
      "capitalism": 6779,
      "Roman": 6780,
      "~~~~~~~~": 6781,
      "dozen": 6782,
      "completed": 6783,
      "Lie": 6784,
      "Oil": 6785,
      "ique": 6786,
      "mel": 6787,
      "vit": 6788,
      "shr": 6789,
      "ignor": 6790,
      "Stat": 6791,
      "pregn": 6792,
      "bright": 6793,
      "ocal": 6794,
      "privi": 6795,
      "founded": 6796,
      "как": 6797,
      "вер": 6798,
      "confident": 6799,
      "relevant": 6800,
      "allegations": 6801,
      "drawn": 6802,
      "anticip": 6803,
      "slideshow": 6804,
      "Chelsea": 6805,
      "250": 6806,
      "67": 6807,
      "Cra": 6808,
      "Da": 6809,
      "Fred": 6810,
      "Hal": 6811,
      "Oct": 6812,
      "Pay": 6813,
      "PRES": 6814,
      "WILL": 6815,
      "kin": 6816,
      "sper": 6817,
      "vig": 6818,
      "inev": 6819,
      "enor": 6820,
      "angers": 6821,
      "finished": 6822,
      "politically": 6823,
      "developing": 6824,
      "migration": 6825,
      "Related": 6826,
      "beliefs": 6827,
      "Ray": 6828,
      "Rick": 6829,
      "Water": 6830,
      "eating": 6831,
      "iest": 6832,
      "pure": 6833,
      "нь": 6834,
      "toler": 6835,
      "convent": 6836,
      "convention": 6837,
      "bridge": 6838,
      "testing": 6839,
      "topic": 6840,
      "attacked": 6841,
      "lots": 6842,
      "Ministry": 6843,
      "northern": 6844,
      "practices": 6845,
      "tware": 6846,
      "Greek": 6847,
      "surrounding": 6848,
      "inspired": 6849,
      "sharp": 6850,
      "Ce": 6851,
      "Dak": 6852,
      "Kevin": 6853,
      "MP": 6854,
      "aire": 6855,
      "pair": 6856,
      "vs": 6857,
      "stret": 6858,
      "ulf": 6859,
      "wear": 6860,
      "boost": 6861,
      "precise": 6862,
      "Section": 6863,
      "shouldn": 6864,
      "ров": 6865,
      "Warren": 6866,
      "ACT": 6867,
      "motiv": 6868,
      "Space": 6869,
      "sounds": 6870,
      "Palestinians": 6871,
      "rejected": 6872,
      "repeatedly": 6873,
      "permanent": 6874,
      "Treasury": 6875,
      "leagues": 6876,
      "Ever": 6877,
      "Mod": 6878,
      "ias": 6879,
      "kno": 6880,
      "swit": 6881,
      "angry": 6882,
      "isher": 6883,
      "confront": 6884,
      "fru": 6885,
      "odes": 6886,
      "Thus": 6887,
      "rav": 6888,
      "Stan": 6889,
      "Sever": 6890,
      "detail": 6891,
      "homosexual": 6892,
      "Such": 6893,
      "surprised": 6894,
      "variety": 6895,
      "accurate": 6896,
      "Fil": 6897,
      "це": 6898,
      "ola": 6899,
      "abilities": 6900,
      "aint": 6901,
      "explicit": 6902,
      "essentially": 6903,
      "clim": 6904,
      "udes": 6905,
      "REL": 6906,
      "aska": 6907,
      "courage": 6908,
      "talked": 6909,
      "promises": 6910,
      "organized": 6911,
      "retired": 6912,
      "friendly": 6913,
      "shares": 6914,
      "ruled": 6915,
      "Political": 6916,
      "attempted": 6917,
      "Morning": 6918,
      "mistake": 6919,
      "allegedly": 6920,
      "Italian": 6921,
      "Bas": 6922,
      "Div": 6923,
      "Lake": 6924,
      "TA": 6925,
      "file": 6926,
      "pin": 6927,
      "pes": 6928,
      "wins": 6929,
      "ση": 6930,
      "На": 6931,
      "chick": 6932,
      "chos": 6933,
      "nell": 6934,
      "excess": 6935,
      "redit": 6936,
      "brary": 6937,
      "risks": 6938,
      "Road": 6939,
      "Medical": 6940,
      "remaining": 6941,
      "civilian": 6942,
      "elsewhere": 6943,
      "continuing": 6944,
      "ется": 6945,
      "picked": 6946,
      "digital": 6947,
      "literally": 6948,
      "ximately": 6949,
      "08": 6950,
      "Dick": 6951,
      "Mess": 6952,
      "Rus": 6953,
      "Rose": 6954,
      "Vlad": 6955,
      "strange": 6956,
      "ulous": 6957,
      "outube": 6958,
      "outrage": 6959,
      "earn": 6960,
      "discover": 6961,
      "mons": 6962,
      "ONE": 6963,
      "Price": 6964,
      "Execut": 6965,
      "effectively": 6966,
      "significantly": 6967,
      "immediate": 6968,
      "treated": 6969,
      "coalition": 6970,
      "fool": 6971,
      "Nazi": 6972,
      "97": 6973,
      "Mort": 6974,
      "Temple": 6975,
      "gap": 6976,
      "revel": 6977,
      "seats": 6978,
      "forcing": 6979,
      "eman": 6980,
      "suits": 6981,
      "apolog": 6982,
      "eval": 6983,
      "osi": 6984,
      "aimed": 6985,
      "пред": 6986,
      "Getty": 6987,
      "obviously": 6988,
      "emotional": 6989,
      "retirement": 6990,
      "Brian": 6991,
      "Detro": 6992,
      "Jun": 6993,
      "Sem": 6994,
      "bio": 6995,
      "dies": 6996,
      "dance": 6997,
      "gang": 6998,
      "ву": 6999,
      "infect": 7000,
      "remo": 7001,
      "orn": 7002,
      "aside": 7003,
      "ils": 7004,
      "ación": 7005,
      "ading": 7006,
      "implic": 7007,
      "likes": 7008,
      "pel": 7009,
      "illing": 7010,
      "optim": 7011,
      "sharing": 7012,
      "button": 7013,
      "preh": 7014,
      "arks": 7015,
      "prescri": 7016,
      "amazing": 7017,
      "Deb": 7018,
      "Rober": 7019,
      "follows": 7020,
      "mandate": 7021,
      "importance": 7022,
      "Hispanic": 7023,
      "judges": 7024,
      "reference": 7025,
      "collective": 7026,
      "amounts": 7027,
      "пере": 7028,
      "spiritual": 7029,
      "Canadian": 7030,
      "Detroit": 7031,
      "Night": 7032,
      "ware": 7033,
      "omb": 7034,
      "devices": 7035,
      "embar": 7036,
      "ista": 7037,
      "exempt": 7038,
      "ansas": 7039,
      "spin": 7040,
      "ashed": 7041,
      "cutting": 7042,
      "Develop": 7043,
      "Contin": 7044,
      "ITS": 7045,
      "ballot": 7046,
      "contains": 7047,
      "Capital": 7048,
      "eastern": 7049,
      "Remember": 7050,
      "convicted": 7051,
      "Brooklyn": 7052,
      "Росси": 7053,
      "GR": 7054,
      "Happ": 7055,
      "IAN": 7056,
      "LD": 7057,
      "Squ": 7058,
      "bull": 7059,
      "fought": 7060,
      "wages": 7061,
      "recovery": 7062,
      "rebels": 7063,
      "alcohol": 7064,
      "icing": 7065,
      "ura": 7066,
      "pest": 7067,
      "Information": 7068,
      "Things": 7069,
      "Chen": 7070,
      "forever": 7071,
      "encing": 7072,
      "inson": 7073,
      "missiles": 7074,
      "Class": 7075,
      "starts": 7076,
      "entered": 7077,
      "spoken": 7078,
      "UTERS": 7079,
      "Holy": 7080,
      "Goldman": 7081,
      "settle": 7082,
      "Valley": 7083,
      "consistent": 7084,
      "ствен": 7085,
      "afraid": 7086,
      "BR": 7087,
      "Gal": 7088,
      "Kat": 7089,
      "OIOS": 7090,
      "UC": 7091,
      "basket": 7092,
      "gus": 7093,
      "phe": 7094,
      "wave": 7095,
      "idden": 7096,
      "ching": 7097,
      "chap": 7098,
      "loan": 7099,
      "aven": 7100,
      "1960": 7101,
      "REUTERS": 7102,
      "listed": 7103,
      "meetings": 7104,
      "suspic": 7105,
      "combined": 7106,
      "Thanksgiving": 7107,
      "snip": 7108,
      "habit": 7109,
      "Channel": 7110,
      "micro": 7111,
      "Pelosi": 7112,
      "53": 7113,
      "Bow": 7114,
      "Bla": 7115,
      "MD": 7116,
      "MAN": 7117,
      "Walk": 7118,
      "blast": 7119,
      "bond": 7120,
      "ды": 7121,
      "remarks": 7122,
      "forth": 7123,
      "ternal": 7124,
      "deals": 7125,
      "bless": 7126,
      "ause": 7127,
      "somewhat": 7128,
      "spons": 7129,
      "brut": 7130,
      "Asian": 7131,
      "Adam": 7132,
      "101": 7133,
      "operate": 7134,
      "bankrupt": 7135,
      "barrel": 7136,
      "pushed": 7137,
      "survive": 7138,
      "recognized": 7139,
      "characters": 7140,
      "Conservative": 7141,
      "reduced": 7142,
      "DR": 7143,
      "Kent": 7144,
      "LGB": 7145,
      "fold": 7146,
      "py": 7147,
      "adow": 7148,
      "usions": 7149,
      "rape": 7150,
      "cker": 7151,
      "creative": 7152,
      "angel": 7153,
      "surge": 7154,
      "cheap": 7155,
      "ITED": 7156,
      "bara": 7157,
      "necessarily": 7158,
      "Hosp": 7159,
      "indicated": 7160,
      "sweet": 7161,
      "schedule": 7162,
      "Tennes": 7163,
      "genetic": 7164,
      ".'": 7165,
      "Dar": 7166,
      "Fuk": 7167,
      "Stop": 7168,
      "εί": 7169,
      "reven": 7170,
      "allas": 7171,
      "noticed": 7172,
      "artist": 7173,
      "ensus": 7174,
      "diet": 7175,
      "йте": 7176,
      "borders": 7177,
      "authorized": 7178,
      "driver": 7179,
      "Image": 7180,
      "opinions": 7181,
      "participate": 7182,
      "scenario": 7183,
      "frequently": 7184,
      "Family": 7185,
      "Houston": 7186,
      "ABC": 7187,
      "FROM": 7188,
      "SH": 7189,
      "Sex": 7190,
      "Tro": 7191,
      "odo": 7192,
      "temporary": 7193,
      "rein": 7194,
      "agh": 7195,
      "abled": 7196,
      "river": 7197,
      "ounger": 7198,
      "exposure": 7199,
      "shire": 7200,
      "ques": 7201,
      "Thread": 7202,
      "newly": 7203,
      "intim": 7204,
      "Unfortunately": 7205,
      "substant": 7206,
      "sels": 7207,
      "ObamaCare": 7208,
      "weekly": 7209,
      "personnel": 7210,
      "Beach": 7211,
      "Update": 7212,
      "Enter": 7213,
      "alien": 7214,
      "falling": 7215,
      "FORE": 7216,
      "Latin": 7217,
      "Francisco": 7218,
      "которы": 7219,
      "88": 7220,
      "Beng": 7221,
      "Cop": 7222,
      "GM": 7223,
      "Lt": 7224,
      "POS": 7225,
      "Sing": 7226,
      "math": 7227,
      "nd": 7228,
      "pit": 7229,
      "thro": 7230,
      "imir": 7231,
      "units": 7232,
      "cel": 7233,
      "mov": 7234,
      "excell": 7235,
      "meat": 7236,
      "asters": 7237,
      "evolution": 7238,
      "Anti": 7239,
      "кон": 7240,
      "deny": 7241,
      "approximately": 7242,
      "accus": 7243,
      "Without": 7244,
      "minds": 7245,
      "moments": 7246,
      "publish": 7247,
      "hypo": 7248,
      "requirements": 7249,
      "Parliament": 7250,
      "historic": 7251,
      "software": 7252,
      "Susan": 7253,
      "Taylor": 7254,
      "Victor": 7255,
      "77": 7256,
      "Bible": 7257,
      "Given": 7258,
      "Had": 7259,
      "Labor": 7260,
      "Mi": 7261,
      "bat": 7262,
      "gement": 7263,
      "hill": 7264,
      "hide": 7265,
      "ор": 7266,
      "urally": 7267,
      "proven": 7268,
      "istle": 7269,
      "achiev": 7270,
      "phen": 7271,
      "fied": 7272,
      "controvers": 7273,
      "pursu": 7274,
      "threatened": 7275,
      "Juli": 7276,
      "protecting": 7277,
      "fairly": 7278,
      "Keep": 7279,
      "________": 7280,
      "episode": 7281,
      "Education": 7282,
      "Abu": 7283,
      "Biden": 7284,
      "Dallas": 7285,
      "Hold": 7286,
      "Jason": 7287,
      "Money": 7288,
      "Yemen": 7289,
      "dated": 7290,
      "fest": 7291,
      "τα": 7292,
      "island": 7293,
      "itals": 7294,
      "aced": 7295,
      "admit": 7296,
      "opol": 7297,
      "youth": 7298,
      "cler": 7299,
      "offee": 7300,
      "fees": 7301,
      "cked": 7302,
      "uset": 7303,
      "phia": 7304,
      "diagno": 7305,
      "foundation": 7306,
      "closely": 7307,
      "Philadel": 7308,
      "AFP": 7309,
      "virtually": 7310,
      "mortg": 7311,
      "slightly": 7312,
      "Tennessee": 7313,
      "Each": 7314,
      "Ha": 7315,
      "Met": 7316,
      "Nation": 7317,
      "Rac": 7318,
      "Us": 7319,
      "flying": 7320,
      "iat": 7321,
      "pse": 7322,
      "sider": 7323,
      "inau": 7324,
      "atically": 7325,
      "unlikely": 7326,
      "loving": 7327,
      "shif": 7328,
      "offices": 7329,
      "icted": 7330,
      "everybody": 7331,
      "para": 7332,
      "ная": 7333,
      "personally": 7334,
      "joke": 7335,
      "cape": 7336,
      "patriot": 7337,
      "privacy": 7338,
      "strongly": 7339,
      "executives": 7340,
      "Harris": 7341,
      "Charlie": 7342,
      "Pope": 7343,
      "trees": 7344,
      "Massach": 7345,
      "aggressive": 7346,
      "Rubio": 7347,
      "Philadelphia": 7348,
      "DIS": 7349,
      "cure": 7350,
      "fant": 7351,
      "ride": 7352,
      "ке": 7353,
      "sters": 7354,
      "ales": 7355,
      "begun": 7356,
      "device": 7357,
      "uncertain": 7358,
      "lix": 7359,
      "sufficient": 7360,
      "shots": 7361,
      "evol": 7362,
      "Which": 7363,
      "display": 7364,
      "annon": 7365,
      "factors": 7366,
      "areness": 7367,
      "Orig": 7368,
      "ACTION": 7369,
      "facility": 7370,
      "burden": 7371,
      "weren": 7372,
      "Broad": 7373,
      "bassador": 7374,
      "narrow": 7375,
      "struggling": 7376,
      "relief": 7377,
      "insisted": 7378,
      "legitimate": 7379,
      "Several": 7380,
      "Vladimir": 7381,
      "LGBT": 7382,
      "usetts": 7383,
      "Gall": 7384,
      "Game": 7385,
      "Love": 7386,
      "dry": 7387,
      "een": 7388,
      "skept": 7389,
      "task": 7390,
      "uous": 7391,
      "με": 7392,
      "ώ": 7393,
      "cher": 7394,
      "ushim": 7395,
      "nels": 7396,
      "compreh": 7397,
      "sugar": 7398,
      "ifer": 7399,
      "umin": 7400,
      "manner": 7401,
      "grab": 7402,
      "cope": 7403,
      "scored": 7404,
      "adds": 7405,
      "airport": 7406,
      "surface": 7407,
      "factor": 7408,
      "ное": 7409,
      "testim": 7410,
      "handed": 7411,
      "passion": 7412,
      "Coll": 7413,
      "Barbara": 7414,
      "arguments": 7415,
      "injury": 7416,
      "пер": 7417,
      "animal": 7418,
      "POL": 7419,
      "Crime": 7420,
      "vaccine": 7421,
      "feder": 7422,
      "removal": 7423,
      "Fukushim": 7424,
      "Massachusetts": 7425,
      "Fukushima": 7426,
      ");": 7427,
      "Cat": 7428,
      "Card": 7429,
      "Fer": 7430,
      "batter": 7431,
      "hu": 7432,
      "kn": 7433,
      "ита": 7434,
      "stal": 7435,
      "toms": 7436,
      "versy": 7437,
      "lift": 7438,
      "etime": 7439,
      "ups": 7440,
      "affil": 7441,
      "boat": 7442,
      "council": 7443,
      "cerem": 7444,
      "phr": 7445,
      "campaigns": 7446,
      "popul": 7447,
      "21st": 7448,
      "Satan": 7449,
      "dedicated": 7450,
      "Blue": 7451,
      "Stocks": 7452,
      "Digest": 7453,
      "68": 7454,
      "Cro": 7455,
      "Lev": 7456,
      "Nav": 7457,
      "Page": 7458,
      "Sor": 7459,
      "lu": 7460,
      "mile": 7461,
      "pace": 7462,
      "rition": 7463,
      "sin": 7464,
      "wis": 7465,
      "inary": 7466,
      "sul": 7467,
      "notion": 7468,
      "performed": 7469,
      "somehow": 7470,
      "colleagues": 7471,
      "breast": 7472,
      "sentence": 7473,
      "aires": 7474,
      "Steven": 7475,
      "horse": 7476,
      "invasion": 7477,
      "thousand": 7478,
      "wealthy": 7479,
      "mobile": 7480,
      "entertainment": 7481,
      "212": 7482,
      "Turn": 7483,
      "cited": 7484,
      "element": 7485,
      "ento": 7486,
      "isol": 7487,
      "icop": 7488,
      "abil": 7489,
      "frame": 7490,
      "acking": 7491,
      "cloud": 7492,
      "Champ": 7493,
      "phy": 7494,
      "Leban": 7495,
      "surgery": 7496,
      "matic": 7497,
      "limits": 7498,
      "dealing": 7499,
      "equival": 7500,
      "Doct": 7501,
      "relationships": 7502,
      "Indiana": 7503,
      "Swed": 7504,
      "elements": 7505,
      "captured": 7506,
      "WASH": 7507,
      "Chairman": 7508,
      "Venezuela": 7509,
      "66": 7510,
      "98": 7511,
      "Kas": 7512,
      "Terror": 7513,
      "lined": 7514,
      "oth": 7515,
      "tum": 7516,
      "’,": 7517,
      "ende": 7518,
      "stro": 7519,
      "stamp": 7520,
      "emissions": 7521,
      "rival": 7522,
      "anymore": 7523,
      "discovery": 7524,
      "everywhere": 7525,
      "Marx": 7526,
      "prompt": 7527,
      "EMENT": 7528,
      "losses": 7529,
      "teaching": 7530,
      "wonderful": 7531,
      "routine": 7532,
      "ultimate": 7533,
      "********": 7534,
      "contrast": 7535,
      "dozens": 7536,
      "Snowden": 7537,
      "torture": 7538,
      "chosen": 7539,
      "Fun": 7540,
      "Lab": 7541,
      "Mot": 7542,
      "PAC": 7543,
      "VA": 7544,
      "mes": 7545,
      "mates": 7546,
      "max": 7547,
      "rass": 7548,
      "tou": 7549,
      "thal": 7550,
      "eron": 7551,
      "anx": 7552,
      "rea": 7553,
      "hole": 7554,
      "campus": 7555,
      "payments": 7556,
      "controversy": 7557,
      "Mars": 7558,
      "keeps": 7559,
      "Boe": 7560,
      "дол": 7561,
      "bombs": 7562,
      "Earlier": 7563,
      "moderate": 7564,
      "clients": 7565,
      "HAVE": 7566,
      "ethnic": 7567,
      "====": 7568,
      "Citiz": 7569,
      "database": 7570,
      "Lind": 7571,
      "Pop": 7572,
      "Sad": 7573,
      "SION": 7574,
      "bun": 7575,
      "kne": 7576,
      "sending": 7577,
      "escape": 7578,
      "iture": 7579,
      "asy": 7580,
      "omin": 7581,
      "behalf": 7582,
      "terrible": 7583,
      "deter": 7584,
      "deput": 7585,
      "enders": 7586,
      "eple": 7587,
      "geo": 7588,
      "counting": 7589,
      "mont": 7590,
      "deser": 7591,
      "Former": 7592,
      "profile": 7593,
      "opponents": 7594,
      "grounds": 7595,
      "basically": 7596,
      "describes": 7597,
      "division": 7598,
      "earthquake": 7599,
      "precedented": 7600,
      "LLC": 7601,
      "Welcome": 7602,
      "Henry": 7603,
      "Hospital": 7604,
      "GMO": 7605,
      "Nancy": 7606,
      "PART": 7607,
      "зна": 7608,
      "ша": 7609,
      "neo": 7610,
      "lips": 7611,
      "sored": 7612,
      "laid": 7613,
      "endum": 7614,
      "evac": 7615,
      "ignored": 7616,
      "intense": 7617,
      "ressive": 7618,
      "Adams": 7619,
      "jection": 7620,
      "том": 7621,
      "Phone": 7622,
      "roads": 7623,
      "regardless": 7624,
      "Golden": 7625,
      "injuries": 7626,
      "DAY": 7627,
      "Much": 7628,
      "hoping": 7629,
      "license": 7630,
      "Change": 7631,
      "Okla": 7632,
      "Empire": 7633,
      "Executive": 7634,
      "64": 7635,
      "Credit": 7636,
      "Lau": 7637,
      "wire": 7638,
      "orter": 7639,
      "olen": 7640,
      "otic": 7641,
      "defe": 7642,
      "knowing": 7643,
      "Marine": 7644,
      "classes": 7645,
      "recorded": 7646,
      "distur": 7647,
      "NOW": 7648,
      "contributions": 7649,
      "contained": 7650,
      "granted": 7651,
      "consciousness": 7652,
      "Corporation": 7653,
      "62": 7654,
      "Aff": 7655,
      "Friend": 7656,
      "Hot": 7657,
      "Jac": 7658,
      "Lim": 7659,
      "Mid": 7660,
      "PD": 7661,
      "PAR": 7662,
      "é": 7663,
      "iency": 7664,
      "younger": 7665,
      "acce": 7666,
      "aders": 7667,
      "deli": 7668,
      "nest": 7669,
      "oppose": 7670,
      "loans": 7671,
      "REF": 7672,
      "THEIR": 7673,
      "Comm": 7674,
      "settlement": 7675,
      "restaurant": 7676,
      "explanation": 7677,
      "intellectual": 7678,
      "58": 7679,
      "700": 7680,
      "Mir": 7681,
      "TON": 7682,
      "Ul": 7683,
      "eager": 7684,
      "jur": 7685,
      "sam": 7686,
      "scor": 7687,
      "дру": 7688,
      "enem": 7689,
      "alysis": 7690,
      "beach": 7691,
      "adium": 7692,
      "chose": 7693,
      "resign": 7694,
      "opher": 7695,
      "Instag": 7696,
      "diseas": 7697,
      "discrim": 7698,
      "presum": 7699,
      "producing": 7700,
      "reland": 7701,
      "ности": 7702,
      "extent": 7703,
      "engage": 7704,
      "Northern": 7705,
      "files": 7706,
      "Minnes": 7707,
      "equally": 7708,
      "voices": 7709,
      "watched": 7710,
      "fears": 7711,
      "surviv": 7712,
      "Husse": 7713,
      "Roberts": 7714,
      "Instagram": 7715,
      "Ireland": 7716,
      "Kn": 7717,
      "None": 7718,
      "Tem": 7719,
      "lab": 7720,
      "pill": 7721,
      "tied": 7722,
      "waste": 7723,
      "ια": 7724,
      "тся": 7725,
      "ща": 7726,
      "withdraw": 7727,
      "endors": 7728,
      "subsequ": 7729,
      "score": 7730,
      "regulation": 7731,
      "ства": 7732,
      "Liver": 7733,
      "hardly": 7734,
      "supplies": 7735,
      "1999": 7736,
      "Harvard": 7737,
      "Images": 7738,
      "Official": 7739,
      "definition": 7740,
      "ridic": 7741,
      "iju": 7742,
      "Sharon": 7743,
      "Jean": 7744,
      "pipeline": 7745,
      "Michelle": 7746,
      "embarrass": 7747,
      "diseases": 7748,
      "List": 7749,
      "Six": 7750,
      "cin": 7751,
      "gon": 7752,
      "hidden": 7753,
      "nur": 7754,
      "waters": 7755,
      "πο": 7756,
      "фи": 7757,
      "thony": 7758,
      "itage": 7759,
      "accord": 7760,
      "unions": 7761,
      "unprecedented": 7762,
      "utch": 7763,
      "rific": 7764,
      "ifest": 7765,
      "iah": 7766,
      "intention": 7767,
      "owns": 7768,
      "cooperation": 7769,
      "attribut": 7770,
      "ONG": 7771,
      "regions": 7772,
      "tested": 7773,
      "drone": 7774,
      "classic": 7775,
      "affairs": 7776,
      "wenty": 7777,
      "1996": 7778,
      "involvement": 7779,
      "ELL": 7780,
      "soul": 7781,
      "editorial": 7782,
      "Headline": 7783,
      "nomination": 7784,
      "Finally": 7785,
      "Check": 7786,
      "prepare": 7787,
      "crucial": 7788,
      "regularly": 7789,
      "estimates": 7790,
      "insul": 7791,
      "tools": 7792,
      "Hurricane": 7793,
      "vulnerable": 7794,
      "1st": 7795,
      "fab": 7796,
      "ius": 7797,
      "latter": 7798,
      "tons": 7799,
      "tiny": 7800,
      "uli": 7801,
      "wers": 7802,
      "alle": 7803,
      "ilder": 7804,
      "depos": 7805,
      "convert": 7806,
      "illness": 7807,
      "usted": 7808,
      "ported": 7809,
      "medium": 7810,
      "firms": 7811,
      "scape": 7812,
      "consent": 7813,
      "Arsen": 7814,
      "extended": 7815,
      "busy": 7816,
      "experiment": 7817,
      "organic": 7818,
      "STR": 7819,
      "falls": 7820,
      "educational": 7821,
      "survival": 7822,
      "examples": 7823,
      "Lincol": 7824,
      "savings": 7825,
      "oblig": 7826,
      "fields": 7827,
      "testimony": 7828,
      "ijuana": 7829,
      "NON": 7830,
      "Santa": 7831,
      "lux": 7832,
      "ole": 7833,
      "rand": 7834,
      "uce": 7835,
      "yo": 7836,
      "olly": 7837,
      "abroad": 7838,
      "proving": 7839,
      "ights": 7840,
      "perce": 7841,
      "compens": 7842,
      "athers": 7843,
      "tonight": 7844,
      "transform": 7845,
      "Boy": 7846,
      "winner": 7847,
      "Exceed": 7848,
      "failing": 7849,
      "kinds": 7850,
      "technical": 7851,
      "ция": 7852,
      "physic": 7853,
      "bonds": 7854,
      "stores": 7855,
      "militants": 7856,
      "vaccines": 7857,
      "restrictions": 7858,
      "enormous": 7859,
      "Dakota": 7860,
      "DNA": 7861,
      "Gary": 7862,
      "Hu": 7863,
      "Hard": 7864,
      "Sometimes": 7865,
      "Tell": 7866,
      "Vis": 7867,
      "patch": 7868,
      "uations": 7869,
      "waves": 7870,
      "atmo": 7871,
      "stolen": 7872,
      "impe": 7873,
      "artists": 7874,
      "upper": 7875,
      "uster": 7876,
      "manage": 7877,
      "somewhere": 7878,
      "corrupt": 7879,
      "forest": 7880,
      "firing": 7881,
      "RED": 7882,
      "Ford": 7883,
      "Protection": 7884,
      "depth": 7885,
      "ICAL": 7886,
      "billions": 7887,
      "STATE": 7888,
      "stronger": 7889,
      "adviser": 7890,
      "Prize": 7891,
      "DEVEL": 7892,
      "dogs": 7893,
      "premium": 7894,
      "assume": 7895,
      "models": 7896,
      "rhetoric": 7897,
      "neighbors": 7898,
      "reputation": 7899,
      "Development": 7900,
      "controversial": 7901,
      "Liverpool": 7902,
      "BB": 7903,
      "Cau": 7904,
      "Cross": 7905,
      "Hit": 7906,
      "Les": 7907,
      "Main": 7908,
      "Site": 7909,
      "Tun": 7910,
      "Ze": 7911,
      "nie": 7912,
      "wides": 7913,
      "ем": 7914,
      "iner": 7915,
      "oning": 7916,
      "secur": 7917,
      "idi": 7918,
      "deliber": 7919,
      "urged": 7920,
      "monetary": 7921,
      "ogy": 7922,
      "Leon": 7923,
      "calcul": 7924,
      "handle": 7925,
      "blogg": 7926,
      "solve": 7927,
      "holders": 7928,
      "nights": 7929,
      "Lincoln": 7930,
      "DEVELOP": 7931,
      "Cost": 7932,
      "WAR": 7933,
      "mour": 7934,
      "zed": 7935,
      "eras": 7936,
      "aron": 7937,
      "acre": 7938,
      "lax": 7939,
      "anywhere": 7940,
      "Reid": 7941,
      "ptions": 7942,
      "IND": 7943,
      "Assembly": 7944,
      "Alan": 7945,
      "milk": 7946,
      "addressed": 7947,
      "investigate": 7948,
      "petition": 7949,
      "demanding": 7950,
      "describe": 7951,
      "visiting": 7952,
      "babies": 7953,
      "MORE": 7954,
      "Revolution": 7955,
      "suspected": 7956,
      "Egyptian": 7957,
      "reducing": 7958,
      "Comey": 7959,
      "(“": 7960,
      "Ash": 7961,
      "Action": 7962,
      "Hay": 7963,
      "gift": 7964,
      "hits": 7965,
      "mart": 7966,
      "yard": 7967,
      "remot": 7968,
      "ouri": 7969,
      "entry": 7970,
      "illi": 7971,
      "amer": 7972,
      "ote": 7973,
      "neutral": 7974,
      "quant": 7975,
      "shell": 7976,
      "backing": 7977,
      "useful": 7978,
      "Seattle": 7979,
      "persu": 7980,
      "Josh": 7981,
      "economics": 7982,
      "extend": 7983,
      "controls": 7984,
      "Warner": 7985,
      "лько": 7986,
      "aliens": 7987,
      "Jane": 7988,
      "towns": 7989,
      "reaching": 7990,
      "featured": 7991,
      "representatives": 7992,
      "itchen": 7993,
      "repeal": 7994,
      "requests": 7995,
      "competitive": 7996,
      "Jamie": 7997,
      "ского": 7998,
      "Following": 7999,
      "........": 8000,
      "refugee": 8001,
      "apparent": 8002,
      "Atlantic": 8003,
      "Atlanta": 8004,
      "iveness": 8005,
      "devastating": 8006,
      "branch": 8007,
      "Whether": 8008,
      "entitled": 8009,
      "adopted": 8010,
      "conventional": 8011,
      "Hussein": 8012,
      ",'": 8013,
      "Abr": 8014,
      "Lis": 8015,
      "Nev": 8016,
      "Ow": 8017,
      "Ut": 8018,
      "banned": 8019,
      "’.": 8020,
      "thread": 8021,
      "revers": 8022,
      "stable": 8023,
      "stuck": 8024,
      "esa": 8025,
      "itu": 8026,
      "lem": 8027,
      "entre": 8028,
      "whistle": 8029,
      "deem": 8030,
      "urge": 8031,
      "commod": 8032,
      "grap": 8033,
      "fection": 8034,
      "attended": 8035,
      "Convention": 8036,
      "visions": 8037,
      "persons": 8038,
      "checks": 8039,
      "тов": 8040,
      "payment": 8041,
      "applied": 8042,
      "feelings": 8043,
      "norm": 8044,
      "facilities": 8045,
      "speaks": 8046,
      "resulted": 8047,
      "referring": 8048,
      "appointment": 8049,
      "telephone": 8050,
      "independence": 8051,
      "quote": 8052,
      "wounded": 8053,
      "tactics": 8054,
      "Searches": 8055,
      "widespread": 8056,
      "!)": 8057,
      ".]": 8058,
      "Ku": 8059,
      "Lyn": 8060,
      "Sure": 8061,
      "category": 8062,
      "jet": 8063,
      "inspir": 8064,
      "resort": 8065,
      "labe": 8066,
      "rail": 8067,
      "Anthony": 8068,
      "intens": 8069,
      "crete": 8070,
      "visible": 8071,
      "lessly": 8072,
      "archite": 8073,
      "missions": 8074,
      "Sheeple": 8075,
      "ком": 8076,
      "pursue": 8077,
      "casual": 8078,
      "suggesting": 8079,
      "profession": 8080,
      "licens": 8081,
      "ratings": 8082,
      "Louisiana": 8083,
      "liquid": 8084,
      "Oklahom": 8085,
      "Minnesota": 8086,
      "Bureau": 8087,
      "Cir": 8088,
      "FR": 8089,
      "Rather": 8090,
      "Som": 8091,
      "fur": 8092,
      "tel": 8093,
      "гла": 8094,
      "для": 8095,
      "ис": 8096,
      "aded": 8097,
      "unexpected": 8098,
      "reserve": 8099,
      "riots": 8100,
      "weigh": 8101,
      "traged": 8102,
      "ignore": 8103,
      "iance": 8104,
      "Analysis": 8105,
      "cking": 8106,
      "Hey": 8107,
      "compass": 8108,
      "visited": 8109,
      "ologies": 8110,
      "iversary": 8111,
      "closing": 8112,
      "joy": 8113,
      "воз": 8114,
      "grees": 8115,
      "seconds": 8116,
      "libertar": 8117,
      "referendum": 8118,
      "walked": 8119,
      "Point": 8120,
      "spokeswoman": 8121,
      "typical": 8122,
      "advocates": 8123,
      "platform": 8124,
      "taxpayers": 8125,
      "territory": 8126,
      "movies": 8127,
      "remote": 8128,
      "Fair": 8129,
      "Gulf": 8130,
      "IE": 8131,
      "KING": 8132,
      "Mul": 8133,
      "Sel": 8134,
      "bury": 8135,
      "hired": 8136,
      "rt": 8137,
      "escal": 8138,
      "asyl": 8139,
      "tered": 8140,
      "degrees": 8141,
      "const": 8142,
      "isters": 8143,
      "Chuck": 8144,
      "intervention": 8145,
      "worker": 8146,
      "collabor": 8147,
      "awareness": 8148,
      "Howard": 8149,
      "profound": 8150,
      "films": 8151,
      "cuit": 8152,
      "Offic": 8153,
      "returns": 8154,
      "Everyone": 8155,
      "universe": 8156,
      "package": 8157,
      "Olympics": 8158,
      "Microsoft": 8159,
      "Cheney": 8160,
      "asylum": 8161,
      "Est": 8162,
      "Morgan": 8163,
      "Non": 8164,
      "Prem": 8165,
      "Wind": 8166,
      "mi": 8167,
      "sand": 8168,
      "wid": 8169,
      "πρ": 8170,
      "зо": 8171,
      "theme": 8172,
      "illust": 8173,
      "ette": 8174,
      "hail": 8175,
      "mole": 8176,
      "ulty": 8177,
      "shirt": 8178,
      "shadow": 8179,
      "disci": 8180,
      "trials": 8181,
      "oster": 8182,
      "ков": 8183,
      "azz": 8184,
      "тер": 8185,
      "metal": 8186,
      "burgh": 8187,
      "rolling": 8188,
      "Hope": 8189,
      "contracts": 8190,
      "loaded": 8191,
      "principle": 8192,
      "consumption": 8193,
      "application": 8194,
      "embrace": 8195,
      "fifth": 8196,
      "equivalent": 8197,
      "74": 8198,
      "Tar": 8199,
      "Walter": 8200,
      "bart": 8201,
      "cable": 8202,
      "drew": 8203,
      "wart": 8204,
      "onom": 8205,
      "oming": 8206,
      "amber": 8207,
      "illed": 8208,
      "opens": 8209,
      "Anton": 8210,
      "centers": 8211,
      "Whit": 8212,
      "rence": 8213,
      "brid": 8214,
      "donations": 8215,
      "finish": 8216,
      "bucks": 8217,
      "ERIC": 8218,
      "Arch": 8219,
      "viewers": 8220,
      "нов": 8221,
      "realized": 8222,
      "generations": 8223,
      "Coal": 8224,
      "specified": 8225,
      "requirement": 8226,
      "torn": 8227,
      "боль": 8228,
      "survived": 8229,
      "titled": 8230,
      "objects": 8231,
      "Relig": 8232,
      "ную": 8233,
      "Royal": 8234,
      "rarely": 8235,
      "convin": 8236,
      "veterans": 8237,
      "OFFIC": 8238,
      "phenomen": 8239,
      "Link": 8240,
      "Mountain": 8241,
      "dent": 8242,
      "lan": 8243,
      "rural": 8244,
      "iser": 8245,
      "advertisement": 8246,
      "amid": 8247,
      "saved": 8248,
      "20th": 8249,
      "rane": 8250,
      "nobody": 8251,
      "REN": 8252,
      "officially": 8253,
      "Command": 8254,
      "investments": 8255,
      "transportation": 8256,
      "bench": 8257,
      "Moreover": 8258,
      "experiences": 8259,
      "divor": 8260,
      "magn": 8261,
      "Christianity": 8262,
      "reduction": 8263,
      "Safety": 8264,
      "manufacturing": 8265,
      "Subscri": 8266,
      "initiative": 8267,
      "symptoms": 8268,
      "72": 8269,
      "Bad": 8270,
      "Case": 8271,
      "Fla": 8272,
      "GA": 8273,
      "gate": 8274,
      "iated": 8275,
      "luck": 8276,
      "ó": 8277,
      "ras": 8278,
      "tens": 8279,
      "жно": 8280,
      "recession": 8281,
      "orient": 8282,
      "ingu": 8283,
      "adult": 8284,
      "neys": 8285,
      "poet": 8286,
      "202": 8287,
      "cock": 8288,
      "serves": 8289,
      "Seth": 8290,
      "producer": 8291,
      "bookmarks": 8292,
      "farm": 8293,
      "brothers": 8294,
      "cyber": 8295,
      "productive": 8296,
      "ACE": 8297,
      "drivers": 8298,
      "shortly": 8299,
      "чески": 8300,
      "proposals": 8301,
      "client": 8302,
      "Ronald": 8303,
      "challenging": 8304,
      "predicted": 8305,
      "Help": 8306,
      "Connectic": 8307,
      "graduate": 8308,
      "couples": 8309,
      "barely": 8310,
      "Experts": 8311,
      "random": 8312,
      "Connecticut": 8313,
      "73": 8314,
      "800": 8315,
      "96": 8316,
      "FE": 8317,
      "MED": 8318,
      "NN": 8319,
      "Ton": 8320,
      "kel": 8321,
      "nis": 8322,
      "youtube": 8323,
      "theories": 8324,
      "icon": 8325,
      "ilit": 8326,
      "sput": 8327,
      "Recent": 8328,
      "1950": 8329,
      "bub": 8330,
      "после": 8331,
      "Marg": 8332,
      "retali": 8333,
      "immune": 8334,
      "Acad": 8335,
      "Allen": 8336,
      "empty": 8337,
      "1998": 8338,
      "Bron": 8339,
      "ться": 8340,
      "interviews": 8341,
      "Occup": 8342,
      "Morris": 8343,
      "reserves": 8344,
      "scholar": 8345,
      "discrimination": 8346,
      "Oklahoma": 8347,
      "Bes": 8348,
      "BUT": 8349,
      "DNC": 8350,
      "Little": 8351,
      "Sky": 8352,
      "bird": 8353,
      "iro": 8354,
      "rd": 8355,
      "anto": 8356,
      "iones": 8357,
      "secre": 8358,
      "unknown": 8359,
      "unfair": 8360,
      "uran": 8361,
      "elder": 8362,
      "prosper": 8363,
      "ount": 8364,
      "manifest": 8365,
      "warrant": 8366,
      "transl": 8367,
      "virus": 8368,
      "Advertisements": 8369,
      "fallen": 8370,
      "Cancer": 8371,
      "homeless": 8372,
      "panel": 8373,
      "immigrant": 8374,
      "musical": 8375,
      "penalty": 8376,
      "gains": 8377,
      "Feder": 8378,
      "split": 8379,
      "rescue": 8380,
      "arrangement": 8381,
      "maxim": 8382,
      "DP": 8383,
      "Det": 8384,
      "Hell": 8385,
      "Jenn": 8386,
      "Mail": 8387,
      "ae": 8388,
      "cards": 8389,
      "coffee": 8390,
      "kiss": 8391,
      "lunch": 8392,
      "sque": 8393,
      "asset": 8394,
      "ophy": 8395,
      "ounced": 8396,
      "umber": 8397,
      "estimate": 8398,
      "answers": 8399,
      "ultural": 8400,
      "ONOM": 8401,
      "helicop": 8402,
      "choos": 8403,
      "erald": 8404,
      "statistics": 8405,
      "Front": 8406,
      "joining": 8407,
      "singer": 8408,
      "solutions": 8409,
      "threatening": 8410,
      "judicial": 8411,
      "funny": 8412,
      "assistant": 8413,
      "acceptable": 8414,
      "agreements": 8415,
      "route": 8416,
      "hospitals": 8417,
      "niknews": 8418,
      "quoted": 8419,
      "slavery": 8420,
      "MSNBC": 8421,
      "elev": 8422,
      "gathering": 8423,
      "ticket": 8424,
      "Olympic": 8425,
      "copyrighted": 8426,
      "procedures": 8427,
      "valuable": 8428,
      "criminals": 8429,
      "substantial": 8430,
      "Community": 8431,
      "sputniknews": 8432,
      "HERE": 8433,
      "Oreg": 8434,
      "Tony": 8435,
      "Ye": 8436,
      "].": 8437,
      "egg": 8438,
      "fet": 8439,
      "loud": 8440,
      "oh": 8441,
      "vy": 8442,
      "και": 8443,
      "ев": 8444,
      "isation": 8445,
      "icip": 8446,
      "omed": 8447,
      "imposed": 8448,
      "irts": 8449,
      "agric": 8450,
      "liked": 8451,
      "exceed": 8452,
      "actors": 8453,
      "grid": 8454,
      "assass": 8455,
      "boards": 8456,
      "ISH": 8457,
      "ANCE": 8458,
      "Nobel": 8459,
      "chances": 8460,
      "genu": 8461,
      "judgment": 8462,
      "swing": 8463,
      "CNBC": 8464,
      "secular": 8465,
      "sensitive": 8466,
      "VERN": 8467,
      "eliminate": 8468,
      "recruit": 8469,
      "monitoring": 8470,
      "authors": 8471,
      "adequate": 8472,
      "Square": 8473,
      "excellent": 8474,
      "phrase": 8475,
      "convinced": 8476,
      "/...": 8477,
      "Mitt": 8478,
      "PC": 8479,
      "Wat": 8480,
      "aqu": 8481,
      "cig": 8482,
      "tap": 8483,
      "tired": 8484,
      "wast": 8485,
      "им": 8486,
      "intr": 8487,
      "onsored": 8488,
      "enberg": 8489,
      "ando": 8490,
      "devoted": 8491,
      "unusual": 8492,
      "Stone": 8493,
      "prev": 8494,
      "creen": 8495,
      "READ": 8496,
      "archy": 8497,
      "THEY": 8498,
      "movements": 8499,
      "ным": 8500,
      "breaks": 8501,
      "representative": 8502,
      "deadly": 8503,
      "criticized": 8504,
      "settled": 8505,
      "typically": 8506,
      "prosecution": 8507,
      "smoking": 8508,
      "Giuli": 8509,
      "gregation": 8510,
      "1970s": 8511,
      "Industry": 8512,
      "precisely": 8513,
      "wisdom": 8514,
      "Jacob": 8515,
      "Nevada": 8516,
      "Oregon": 8517,
      "%.": 8518,
      ".-": 8519,
      "Core": 8520,
      "Der": 8521,
      "Drug": 8522,
      "FDA": 8523,
      "Hann": 8524,
      "Kansas": 8525,
      "гда": 8526,
      "его": 8527,
      "зы": 8528,
      "republic": 8529,
      "reward": 8530,
      "restrain": 8531,
      "idad": 8532,
      "chip": 8533,
      "contrad": 8534,
      "eties": 8535,
      "pling": 8536,
      "poison": 8537,
      "grat": 8538,
      "spark": 8539,
      "Conference": 8540,
      "anniversary": 8541,
      "ibilities": 8542,
      "ALIGN": 8543,
      "Clark": 8544,
      "attacking": 8545,
      "portr": 8546,
      "Poland": 8547,
      "generate": 8548,
      "гово": 8549,
      "refuse": 8550,
      "дет": 8551,
      "CONT": 8552,
      "worthy": 8553,
      "attempting": 8554,
      "contribute": 8555,
      "GOVERN": 8556,
      "Build": 8557,
      "wishes": 8558,
      "Australian": 8559,
      "catastro": 8560,
      "gathered": 8561,
      "bacter": 8562,
      "Irish": 8563,
      "veteran": 8564,
      "Guardian": 8565,
      "hazi": 8566,
      "Full": 8567,
      "NFL": 8568,
      "Pass": 8569,
      "tie": 8570,
      "village": 8571,
      "inist": 8572,
      "rie": 8573,
      "ulating": 8574,
      "ante": 8575,
      "actively": 8576,
      "tea": 8577,
      "icks": 8578,
      "angle": 8579,
      "pharm": 8580,
      "ANY": 8581,
      "рабо": 8582,
      "Beij": 8583,
      "ден": 8584,
      "distance": 8585,
      "senator": 8586,
      "resulting": 8587,
      "primarily": 8588,
      "recognition": 8589,
      "Ukrainian": 8590,
      "principal": 8591,
      "LOW": 8592,
      "integrity": 8593,
      "extraordinary": 8594,
      "beauty": 8595,
      "Representative": 8596,
      "assessment": 8597,
      "taxpayer": 8598,
      "constantly": 8599,
      "YOU": 8600,
      "Mortier": 8601,
      "deputy": 8602,
      "OFFICIAL": 8603,
      "Subscribe": 8604,
      "92": 8605,
      "Khal": 8606,
      "Las": 8607,
      "Light": 8608,
      "Ur": 8609,
      "fos": 8610,
      "hire": 8611,
      "walls": 8612,
      "τι": 8613,
      "ге": 8614,
      "itbart": 8615,
      "height": 8616,
      "chant": 8617,
      "sures": 8618,
      "Third": 8619,
      "corn": 8620,
      "INC": 8621,
      "UST": 8622,
      "viewed": 8623,
      "marijuana": 8624,
      "farmers": 8625,
      "bott": 8626,
      "ECONOM": 8627,
      "Immigration": 8628,
      "accountable": 8629,
      "Patriot": 8630,
      "gaining": 8631,
      "promoting": 8632,
      "Network": 8633,
      "scenes": 8634,
      "Duke": 8635,
      "Jonathan": 8636,
      "methods": 8637,
      "guarantee": 8638,
      "harassment": 8639,
      "fruit": 8640,
      "atmosphere": 8641,
      "Hitler": 8642,
      "genuine": 8643,
      "Beijing": 8644,
      "AA": 8645,
      "Ca": 8646,
      "Got": 8647,
      "GEN": 8648,
      "Mons": 8649,
      "PH": 8650,
      "Set": 8651,
      "fel": 8652,
      "gor": 8653,
      "god": 8654,
      "iques": 8655,
      "тра": 8656,
      "icans": 8657,
      "heim": 8658,
      "Theater": 8659,
      "ideal": 8660,
      "sponsored": 8661,
      "attitude": 8662,
      "ANG": 8663,
      "choices": 8664,
      "Arts": 8665,
      "headquarters": 8666,
      "founding": 8667,
      "Being": 8668,
      "Management": 8669,
      "investigations": 8670,
      "analys": 8671,
      "alongside": 8672,
      "Abd": 8673,
      "represented": 8674,
      "damaged": 8675,
      "deduct": 8676,
      "SUB": 8677,
      "prisoners": 8678,
      "initially": 8679,
      "birds": 8680,
      "Liberty": 8681,
      "Stock": 8682,
      "sorry": 8683,
      "Murray": 8684,
      "также": 8685,
      "bailout": 8686,
      "rapidly": 8687,
      "Benghazi": 8688,
      "tragedy": 8689,
      "Giuliani": 8690,
      "Bru": 8691,
      "Zim": 8692,
      "hedge": 8693,
      "ja": 8694,
      "pon": 8695,
      "rely": 8696,
      "rection": 8697,
      "enthus": 8698,
      "tos": 8699,
      "improved": 8700,
      "suprem": 8701,
      "justify": 8702,
      "coll": 8703,
      "electronic": 8704,
      "Arm": 8705,
      "Forces": 8706,
      "extensive": 8707,
      "entering": 8708,
      "seemingly": 8709,
      "drag": 8710,
      "OPER": 8711,
      "AMERIC": 8712,
      "burning": 8713,
      "successfully": 8714,
      "reveals": 8715,
      "Jerusal": 8716,
      "demonstrate": 8717,
      "politician": 8718,
      "Liberal": 8719,
      "Missouri": 8720,
      "Franklin": 8721,
      "prayer": 8722,
      "aspects": 8723,
      "desperate": 8724,
      "academic": 8725,
      "chicken": 8726,
      "bankruptcy": 8727,
      "ceremony": 8728,
      "enemies": 8729,
      "Jerusalem": 8730,
      "bum": 8731,
      "cum": 8732,
      "gam": 8733,
      "ramp": 8734,
      "uate": 8735,
      "va": 8736,
      "αν": 8737,
      "ων": 8738,
      "сло": 8739,
      "thin": 8740,
      "encounter": 8741,
      "stunning": 8742,
      "toll": 8743,
      "acing": 8744,
      "oles": 8745,
      "nesty": 8746,
      "quer": 8747,
      "duction": 8748,
      "fert": 8749,
      "registr": 8750,
      "commander": 8751,
      "mainly": 8752,
      "RET": 8753,
      "ANS": 8754,
      "heading": 8755,
      "surely": 8756,
      "networks": 8757,
      "equality": 8758,
      "Music": 8759,
      "drove": 8760,
      "trained": 8761,
      "computers": 8762,
      "regulatory": 8763,
      "indicate": 8764,
      "indicates": 8765,
      "Hamas": 8766,
      "aggression": 8767,
      "Homeland": 8768,
      "scheme": 8769,
      "Against": 8770,
      "Sheriff": 8771,
      "acknowledged": 8772,
      "Semit": 8773,
      "Bell": 8774,
      "Mets": 8775,
      "Ster": 8776,
      "Sud": 8777,
      "ï": 8778,
      "pour": 8779,
      "rational": 8780,
      "slam": 8781,
      "аль": 8782,
      "ona": 8783,
      "ros": 8784,
      "roid": 8785,
      "haw": 8786,
      "outlets": 8787,
      "soil": 8788,
      "antes": 8789,
      "ework": 8790,
      "2020": 8791,
      "rank": 8792,
      "cann": 8793,
      "Stri": 8794,
      "iano": 8795,
      "Confeder": 8796,
      "backs": 8797,
      "legacy": 8798,
      "Alaska": 8799,
      "fled": 8800,
      "Presidential": 8801,
      "planes": 8802,
      "monthly": 8803,
      "smell": 8804,
      "ASE": 8805,
      "ixon": 8806,
      "confess": 8807,
      "Need": 8808,
      "motor": 8809,
      "seeks": 8810,
      "gained": 8811,
      "sweep": 8812,
      "gentle": 8813,
      "fixed": 8814,
      "comparison": 8815,
      "earnings": 8816,
      "endorsement": 8817,
      "Dev": 8818,
      "Dave": 8819,
      "Huff": 8820,
      "Il": 8821,
      "NRA": 8822,
      "OB": 8823,
      "UE": 8824,
      "UM": 8825,
      "bunch": 8826,
      "dit": 8827,
      "vin": 8828,
      "vals": 8829,
      "Чита": 8830,
      "stake": 8831,
      "icate": 8832,
      "ilater": 8833,
      "deau": 8834,
      "moon": 8835,
      "exists": 8836,
      "label": 8837,
      "Story": 8838,
      "---": 8839,
      "Nothing": 8840,
      "memorial": 8841,
      "Commer": 8842,
      "factory": 8843,
      "defending": 8844,
      "Cohen": 8845,
      "Christie": 8846,
      "delay": 8847,
      "1994": 8848,
      "declar": 8849,
      "Brus": 8850,
      "biological": 8851,
      "contractors": 8852,
      "SOL": 8853,
      "proposes": 8854,
      "association": 8855,
      "advocacy": 8856,
      "lynn": 8857,
      "complaints": 8858,
      "instruct": 8859,
      "hatred": 8860,
      "journey": 8861,
      "length": 8862,
      "Environmental": 8863,
      "intimid": 8864,
      "Читайте": 8865,
      "Dol": 8866,
      "Fif": 8867,
      "Nut": 8868,
      "Nick": 8869,
      "OT": 8870,
      "PP": 8871,
      "Rome": 8872,
      "Scient": 8873,
      "URE": 8874,
      "bold": 8875,
      "finger": 8876,
      "vous": 8877,
      "вре": 8878,
      "oration": 8879,
      "alarm": 8880,
      "assem": 8881,
      "igent": 8882,
      "Consu": 8883,
      "preser": 8884,
      "ocaust": 8885,
      "сту": 8886,
      "marked": 8887,
      "denial": 8888,
      "returning": 8889,
      "investigating": 8890,
      "invited": 8891,
      "emerged": 8892,
      "participants": 8893,
      "surprising": 8894,
      "priority": 8895,
      "affordable": 8896,
      "pledged": 8897,
      "dictator": 8898,
      "diplomatic": 8899,
      "Laden": 8900,
      "preparing": 8901,
      "eligible": 8902,
      "basketball": 8903,
      "Collins": 8904,
      "69": 8905,
      "Cer": 8906,
      "Key": 8907,
      "Mom": 8908,
      "NH": 8909,
      "Pers": 8910,
      "pension": 8911,
      "sis": 8912,
      "tear": 8913,
      "του": 8914,
      "ан": 8915,
      "oust": 8916,
      "veget": 8917,
      "chart": 8918,
      "dele": 8919,
      "aba": 8920,
      "outing": 8921,
      "shed": 8922,
      "pod": 8923,
      "boom": 8924,
      "somebody": 8925,
      "dismissed": 8926,
      "myth": 8927,
      "Consider": 8928,
      "iley": 8929,
      "ashing": 8930,
      "gged": 8931,
      "Shi": 8932,
      "Too": 8933,
      "ITION": 8934,
      "passage": 8935,
      "cycl": 8936,
      "openly": 8937,
      "employer": 8938,
      "detention": 8939,
      "distinct": 8940,
      "motion": 8941,
      "targeting": 8942,
      "cameras": 8943,
      "integration": 8944,
      "expanded": 8945,
      "partnership": 8946,
      "distribution": 8947,
      "scope": 8948,
      "Privacy": 8949,
      "Technology": 8950,
      "mechanism": 8951,
      "Craig": 8952,
      "opolit": 8953,
      "comprehensive": 8954,
      "constitu": 8955,
      "Bos": 8956,
      "CAR": 8957,
      "Having": 8958,
      "Low": 8959,
      "Rud": 8960,
      "Race": 8961,
      "golf": 8962,
      "kil": 8963,
      "lers": 8964,
      "mph": 8965,
      "phase": 8966,
      "wan": 8967,
      "zen": 8968,
      "edit": 8969,
      "edition": 8970,
      "ille": 8971,
      "beloved": 8972,
      "proportion": 8973,
      "artific": 8974,
      "pocket": 8975,
      "evident": 8976,
      "prene": 8977,
      "polar": 8978,
      "creates": 8979,
      "hoo": 8980,
      "Contribut": 8981,
      "undermine": 8982,
      "Democracy": 8983,
      "fires": 8984,
      "Contact": 8985,
      "clothes": 8986,
      "covers": 8987,
      "volume": 8988,
      "Place": 8989,
      "passes": 8990,
      "Poll": 8991,
      "дер": 8992,
      "investigators": 8993,
      "concerning": 8994,
      "questioned": 8995,
      "firearms": 8996,
      "inois": 8997,
      "Breitbart": 8998,
      "rocket": 8999,
      "chemicals": 9000,
      "parking": 9001,
      "occupation": 9002,
      "WOULD": 9003,
      "Silver": 9004,
      "Montana": 9005,
      "possession": 9006,
      "Illinois": 9007,
      "complicated": 9008,
      "Gordon": 9009,
      "Kentucky": 9010,
      "Lebanon": 9011,
      "Arsenal": 9012,
      "Premier": 9013,
      "Bagh": 9014,
      "Dow": 9015,
      "Flynn": 9016,
      "Hart": 9017,
      "IZ": 9018,
      "MAR": 9019,
      "fiction": 9020,
      "rous": 9021,
      "vital": 9022,
      "inspect": 9023,
      "acon": 9024,
      "ows": 9025,
      "oted": 9026,
      "neuro": 9027,
      "therapy": 9028,
      "query": 9029,
      "interpret": 9030,
      "compound": 9031,
      "Trust": 9032,
      "USS": 9033,
      "maintained": 9034,
      "Therefore": 9035,
      "нию": 9036,
      "venture": 9037,
      "charity": 9038,
      "depression": 9039,
      "Maria": 9040,
      "Bridge": 9041,
      "industries": 9042,
      "selected": 9043,
      "communication": 9044,
      "fault": 9045,
      "baseball": 9046,
      "lifetime": 9047,
      "churches": 9048,
      "tape": 9049,
      "smoke": 9050,
      "manufactur": 9051,
      "Vegas": 9052,
      "drinking": 9053,
      "sacrif": 9054,
      "————": 9055,
      "subsidies": 9056,
      "Graham": 9057,
      "Division": 9058,
      "Bi": 9059,
      "DI": 9060,
      "Daw": 9061,
      "Ga": 9062,
      "Si": 9063,
      "TW": 9064,
      "VIDE": 9065,
      "dump": 9066,
      "tent": 9067,
      "zo": 9068,
      "слу": 9069,
      "inning": 9070,
      "orious": 9071,
      "aler": 9072,
      "edon": 9073,
      "escap": 9074,
      "beings": 9075,
      "dece": 9076,
      "agr": 9077,
      "weets": 9078,
      "umer": 9079,
      "odds": 9080,
      "vibr": 9081,
      "Until": 9082,
      "formal": 9083,
      "guide": 9084,
      "producers": 9085,
      "стро": 9086,
      "Climate": 9087,
      "Short": 9088,
      "поли": 9089,
      "Cole": 9090,
      "debates": 9091,
      "mandatory": 9092,
      "Toronto": 9093,
      "Edition": 9094,
      "parency": 9095,
      "demanded": 9096,
      "hyper": 9097,
      "divided": 9098,
      "cott": 9099,
      "superior": 9100,
      "psychological": 9101,
      "arrive": 9102,
      "universal": 9103,
      "hoped": 9104,
      "prosecutors": 9105,
      "throwing": 9106,
      "athetic": 9107,
      "pounds": 9108,
      "pattern": 9109,
      "INTERNATIONAL": 9110,
      "inevitable": 9111,
      "Copy": 9112,
      "Affairs": 9113,
      "GOVERNMENT": 9114,
      "Brussels": 9115,
      "71": 9116,
      "Eth": 9117,
      "Fall": 9118,
      "Till": 9119,
      "Test": 9120,
      "VO": 9121,
      "cart": 9122,
      "nast": 9123,
      "rics": 9124,
      "sar": 9125,
      "yield": 9126,
      "recall": 9127,
      "resem": 9128,
      "relax": 9129,
      "debut": 9130,
      "abol": 9131,
      "absor": 9132,
      "modif": 9133,
      "ains": 9134,
      "weaken": 9135,
      "upset": 9136,
      "perm": 9137,
      "umph": 9138,
      "monu": 9139,
      "19th": 9140,
      "Assist": 9141,
      "vised": 9142,
      "expenses": 9143,
      "requiring": 9144,
      "listening": 9145,
      "generated": 9146,
      "Christopher": 9147,
      "rett": 9148,
      "лись": 9149,
      "Within": 9150,
      "equity": 9151,
      "socialist": 9152,
      "selection": 9153,
      "footage": 9154,
      "Palestine": 9155,
      "Below": 9156,
      "flee": 9157,
      "exerc": 9158,
      "perfectly": 9159,
      "Luther": 9160,
      "ía": 9161,
      "districts": 9162,
      "Books": 9163,
      "overwhelming": 9164,
      "Fergus": 9165,
      "Labour": 9166,
      "defeated": 9167,
      "Baghdad": 9168,
      "84": 9169,
      "Ak": 9170,
      "Av": 9171,
      "HAS": 9172,
      "JO": 9173,
      "Metro": 9174,
      "Nic": 9175,
      "Swit": 9176,
      "Tit": 9177,
      "WB": 9178,
      "fails": 9179,
      "faster": 9180,
      "ερ": 9181,
      "гу": 9182,
      "лы": 9183,
      "inn": 9184,
      "stations": 9185,
      "eding": 9186,
      "ilton": 9187,
      "iron": 9188,
      "agu": 9189,
      "modest": 9190,
      "proves": 9191,
      "ifies": 9192,
      "eva": 9193,
      "offs": 9194,
      "ideology": 9195,
      "correspond": 9196,
      "Weinstein": 9197,
      "REE": 9198,
      "everyday": 9199,
      "lessons": 9200,
      "economist": 9201,
      "camps": 9202,
      "humor": 9203,
      "года": 9204,
      "bankers": 9205,
      "McDonald": 9206,
      "humanitarian": 9207,
      "Interest": 9208,
      "Franken": 9209,
      "Juan": 9210,
      "dependence": 9211,
      "Activ": 9212,
      "connections": 9213,
      "hearts": 9214,
      "Speaking": 9215,
      "constitution": 9216,
      "reforms": 9217,
      "advocate": 9218,
      "nutrition": 9219,
      "Simon": 9220,
      "Memorial": 9221,
      "mixed": 9222,
      "imperial": 9223,
      "delegates": 9224,
      "Walker": 9225,
      "Miami": 9226,
      "KS": 9227,
      "Ot": 9228,
      "Prav": 9229,
      "Sk": 9230,
      "Tw": 9231,
      "TIM": 9232,
      "á": 9233,
      "lat": 9234,
      "yards": 9235,
      "вля": 9236,
      "мя": 9237,
      "remin": 9238,
      "stran": 9239,
      "alliance": 9240,
      "leak": 9241,
      "olas": 9242,
      "agic": 9243,
      "concrete": 9244,
      "uls": 9245,
      "quit": 9246,
      "affirm": 9247,
      "izon": 9248,
      "contemporary": 9249,
      "desert": 9250,
      "Argent": 9251,
      "род": 9252,
      "province": 9253,
      "thorough": 9254,
      "blocks": 9255,
      "год": 9256,
      "Moon": 9257,
      "Congressman": 9258,
      "radiation": 9259,
      "membership": 9260,
      "situations": 9261,
      "лен": 9262,
      "***": 9263,
      "stayed": 9264,
      "managing": 9265,
      "supporter": 9266,
      "squad": 9267,
      "participation": 9268,
      "lifest": 9269,
      "customer": 9270,
      "murdered": 9271,
      "slaugh": 9272,
      "Investig": 9273,
      "shocking": 9274,
      "tips": 9275,
      "Roger": 9276,
      "1980s": 9277,
      "incredibly": 9278,
      "remarkable": 9279,
      "discipl": 9280,
      "Academy": 9281,
      "Ferguson": 9282,
      "89": 9283,
      "Bald": 9284,
      "Ol": 9285,
      "PRE": 9286,
      "Side": 9287,
      "Ven": 9288,
      "aus": 9289,
      "athing": 9290,
      "bars": 9291,
      "iety": 9292,
      "mant": 9293,
      "rical": 9294,
      "raged": 9295,
      "uated": 9296,
      "wich": 9297,
      "arity": 9298,
      "illegally": 9299,
      "mothers": 9300,
      "export": 9301,
      "epid": 9302,
      "Stew": 9303,
      "INE": 9304,
      "Sean": 9305,
      "carto": 9306,
      "Dead": 9307,
      "clothing": 9308,
      "transcri": 9309,
      "cured": 9310,
      "tradem": 9311,
      "arios": 9312,
      "painting": 9313,
      "discussions": 9314,
      "interviewed": 9315,
      "advised": 9316,
      "rolled": 9317,
      "Speaker": 9318,
      "NYT": 9319,
      "excuse": 9320,
      "complaint": 9321,
      "Ross": 9322,
      "flights": 9323,
      "shocked": 9324,
      "Madison": 9325,
      "engineering": 9326,
      "Cameron": 9327,
      "Communist": 9328,
      "deeper": 9329,
      "Progressive": 9330,
      "dialogue": 9331,
      "globe": 9332,
      "Diego": 9333,
      "ALIGNED": 9334,
      "Abdul": 9335,
      "Aud": 9336,
      "Bah": 9337,
      "Cast": 9338,
      "Dur": 9339,
      "Person": 9340,
      "Sports": 9341,
      "eed": 9342,
      "hr": 9343,
      "hij": 9344,
      "pup": 9345,
      "slo": 9346,
      "tone": 9347,
      "trem": 9348,
      "inth": 9349,
      "refr": 9350,
      "retain": 9351,
      "stall": 9352,
      "abis": 9353,
      "pez": 9354,
      "peak": 9355,
      "franch": 9356,
      "extr": 9357,
      "shame": 9358,
      "essions": 9359,
      "saving": 9360,
      "pron": 9361,
      "uding": 9362,
      "icals": 9363,
      "achment": 9364,
      "deserve": 9365,
      "guards": 9366,
      "chest": 9367,
      "restore": 9368,
      "opponent": 9369,
      "naturally": 9370,
      "Grant": 9371,
      "badly": 9372,
      "subjects": 9373,
      "Todd": 9374,
      "quotes": 9375,
      "Scotland": 9376,
      "qualified": 9377,
      "restricted": 9378,
      "capture": 9379,
      "itol": 9380,
      "Glenn": 9381,
      "resolved": 9382,
      "dramatic": 9383,
      "Brotherhood": 9384,
      "Abram": 9385,
      "ranean": 9386,
      "Pravda": 9387,
      "63": 9388,
      "83": 9389,
      "Bol": 9390,
      "BRE": 9391,
      "FP": 9392,
      "Fig": 9393,
      "Iron": 9394,
      "Luc": 9395,
      "PRI": 9396,
      "Son": 9397,
      "SHA": 9398,
      "Wolf": 9399,
      "fro": 9400,
      "gif": 9401,
      "inction": 9402,
      "atican": 9403,
      "unclear": 9404,
      "absent": 9405,
      "blamed": 9406,
      "grave": 9407,
      "Start": 9408,
      "oking": 9409,
      "legend": 9410,
      "ighth": 9411,
      "warfare": 9412,
      "рова": 9413,
      "handling": 9414,
      "loyal": 9415,
      "Carney": 9416,
      "counted": 9417,
      "concert": 9418,
      "distingu": 9419,
      "лось": 9420,
      "hosts": 9421,
      "treatments": 9422,
      "physically": 9423,
      "bollah": 9424,
      "pollution": 9425,
      "satell": 9426,
      "Medicine": 9427,
      "occupied": 9428,
      "proceeds": 9429,
      "Curren": 9430,
      "scores": 9431,
      "absence": 9432,
      "Lady": 9433,
      "abandoned": 9434,
      "Spring": 9435,
      "revenues": 9436,
      "odox": 9437,
      "FOREIGN": 9438,
      "Cash": 9439,
      "Five": 9440,
      "Games": 9441,
      "MI": 9442,
      "Pit": 9443,
      "SHO": 9444,
      "Use": 9445,
      "Wild": 9446,
      "aide": 9447,
      "bour": 9448,
      "dying": 9449,
      "fers": 9450,
      "gs": 9451,
      "hint": 9452,
      "hitting": 9453,
      "iate": 9454,
      "mud": 9455,
      "дни": 9456,
      "ск": 9457,
      "цен": 9458,
      "anne": 9459,
      "ication": 9460,
      "accompan": 9461,
      "uncle": 9462,
      "loves": 9463,
      "fron": 9464,
      "exha": 9465,
      "expl": 9466,
      "noting": 9467,
      "este": 9468,
      "aka": 9469,
      "grav": 9470,
      "indict": 9471,
      "tyran": 9472,
      "nationwide": 9473,
      "ном": 9474,
      "defensive": 9475,
      "operative": 9476,
      "ika": 9477,
      "ugly": 9478,
      "writers": 9479,
      "releases": 9480,
      "UTION": 9481,
      "accountability": 9482,
      "FORM": 9483,
      "locations": 9484,
      "expression": 9485,
      "bola": 9486,
      "answered": 9487,
      "Everything": 9488,
      "supposedly": 9489,
      "incidents": 9490,
      "songs": 9491,
      "scrutin": 9492,
      "Karl": 9493,
      "installed": 9494,
      "Representatives": 9495,
      "performing": 9496,
      "chaos": 9497,
      "Wayne": 9498,
      "Happy": 9499,
      "chapter": 9500,
      "mortgage": 9501,
      "acceler": 9502,
      "Ban": 9503,
      "Category": 9504,
      "Ep": 9505,
      "Find": 9506,
      "Future": 9507,
      "Hud": 9508,
      "Job": 9509,
      "Mah": 9510,
      "Name": 9511,
      "Pi": 9512,
      "Pot": 9513,
      "Pier": 9514,
      "TAK": 9515,
      "fut": 9516,
      "hiring": 9517,
      "lucky": 9518,
      "yr": 9519,
      "μα": 9520,
      "тре": 9521,
      "rebel": 9522,
      "reams": 9523,
      "atro": 9524,
      "asia": 9525,
      "healing": 9526,
      "ache": 9527,
      "igen": 9528,
      "hadn": 9529,
      "span": 9530,
      "Reilly": 9531,
      "dub": 9532,
      "Control": 9533,
      "studied": 9534,
      "channels": 9535,
      "signing": 9536,
      "engers": 9537,
      "INGTON": 9538,
      "greatly": 9539,
[...]
