{
  "version": "1.0",
  "truncation": null,
  "padding": null,
  "added_tokens": [
    {
      "id": 0,
      "content": "[PAD]",
      "single_word": false,
      "lstrip": false,
      "rstrip": false,
      "normalized": false,
      "special": true
    },
    {
      "id": 1,
      "content": "[UNK]",
      "single_word": false,
      "lstrip": false,
      "rstrip": false,
      "normalized": false,
      "special": true
    },
    {
      "id": 2,
      "content": "[CLS]",
      "single_word": false,
      "lstrip": false,
      "rstrip": false,
      "normalized": false,
      "special": true
    },
    {
      "id": 3,
      "content": "[SEP]",
      "single_word": false,
      "lstrip": false,
      "rstrip": false,
      "normalized": false,
      "special": true
    },
    {
      "id": 4,
      "content": "[MASK]",
      "single_word": false,
      "lstrip": false,
      "rstrip": false,
      "normalized": false,
      "special": true
    }
  ],
  "normalizer": {
    "type": "NFD"
  },
  "pre_tokenizer": {
    "type": "Whitespace"
  },
  "post_processor": null,
  "decoder": null,
  "model": {
    "type": "BPE",
    "dropout": null,
    "unk_token": null,
    "continuing_subword_prefix": null,
    "end_of_word_suffix": null,
    "fuse_unk": false,
    "byte_fallback": false,
    "ignore_merges": false,
    "vocab": {
      "[PAD]": 0,
      "[UNK]": 1,
      "[CLS]": 2,
      "[SEP]": 3,
      "[MASK]": 4,
      "!": 5,
      "\"": 6,
      "#": 7,
      "$": 8,
      "%": 9,
      "&": 10,
      "'": 11,
      "(": 12,
      ")": 13,
      "*": 14,
      "+": 15,
      ",": 16,
      "-": 17,
      ".": 18,
      "/": 19,
      "0": 20,
      "1": 21,
      "2": 22,
      "3": 23,
      "4": 24,
      "5": 25,
      "6": 26,
      "7": 27,
      "8": 28,
      "9": 29,
      ":": 30,
      ";": 31,
      "<": 32,
      "=": 33,
      ">": 34,
      "?": 35,
      "@": 36,
      "A": 37,
      "B": 38,
      "C": 39,
      "D": 40,
      "E": 41,
      "F": 42,
      "G": 43,
      "H": 44,
      "I": 45,
      "J": 46,
      "K": 47,
      "L": 48,
      "M": 49,
      "N": 50,
      "O": 51,
      "P": 52,
      "Q": 53,
      "R": 54,
      "S": 55,
      "T": 56,
      "U": 57,
      "V": 58,
      "W": 59,
      "X": 60,
      "Y": 61,
      "Z": 62,
      "[": 63,
      "\\": 64,
      "]": 65,
      "^": 66,
      "_": 67,
      "`": 68,
      "a": 69,
      "b": 70,
      "c": 71,
      "d": 72,
      "e": 73,
      "f": 74,
      "g": 75,
      "h": 76,
      "i": 77,
      "j": 78,
      "k": 79,
      "l": 80,
      "m": 81,
      "n": 82,
      "o": 83,
      "p": 84,
      "q": 85,
      "r": 86,
      "s": 87,
      "t": 88,
      "u": 89,
      "v": 90,
      "w": 91,
      "x": 92,
      "y": 93,
      "z": 94,
      "{": 95,
      "|": 96,
      "}": 97,
      "~": 98,
      "": 99,
      "": 100,
      "": 101,
      "": 102,
      "": 103,
      "": 104,
      "": 105,
      "": 106,
      "": 107,
      "": 108,
      "": 109,
      "": 110,
      "": 111,
      "": 112,
      "": 113,
      "": 114,
      "": 115,
      "": 116,
      "": 117,
      "": 118,
      "": 119,
      "": 120,
      "": 121,
      "": 122,
      "": 123,
      "": 124,
      "": 125,
      "": 126,
      "": 127,
      "": 128,
      "": 129,
      "": 130,
      "¡": 131,
      "¢": 132,
      "£": 133,
      "¤": 134,
      "¥": 135,
      "¦": 136,
      "§": 137,
      "¨": 138,
      "©": 139,
      "ª": 140,
      "«": 141,
      "¬": 142,
      "­": 143,
      "®": 144,
      "¯": 145,
      "°": 146,
      "±": 147,
      "²": 148,
      "³": 149,
      "´": 150,
      "µ": 151,
      "¶": 152,
      "·": 153,
      "¸": 154,
      "¹": 155,
      "º": 156,
      "»": 157,
      "¼": 158,
      "½": 159,
      "¾": 160,
      "¿": 161,
      "Æ": 162,
      "Ð": 163,
      "×": 164,
      "Ø": 165,
      "Þ": 166,
      "ß": 167,
      "æ": 168,
      "ð": 169,
      "÷": 170,
      "ø": 171,
      "þ": 172,
      "Đ": 173,
      "đ": 174,
      "Ħ": 175,
      "ħ": 176,
      "ı": 177,
      "ĳ": 178,
      "Ŀ": 179,
      "ŀ": 180,
      "Ł": 181,
      "ł": 182,
      "ŋ": 183,
      "Œ": 184,
      "œ": 185,
      "Ŧ": 186,
      "ſ": 187,
      "ƃ": 188,
      "Ǝ": 189,
      "ƒ": 190,
      "ƙ": 191,
      "Ɵ": 192,
      "Ʀ": 193,
      "Ʃ": 194,
      "Ʒ": 195,
      "Ƹ": 196,
      "ǃ": 197,
      "ǝ": 198,
      "ɐ": 199,
      "ɑ": 200,
      "ɒ": 201,
      "ɔ": 202,
      "ɗ": 203,
      "ə": 204,
      "ɛ": 205,
      "ɜ": 206,
      "ɡ": 207,
      "ɥ": 208,
      "ɨ": 209,
      "ɪ": 210,
      "ɴ": 211,
      "ɹ": 212,
      "ɾ": 213,
      "ʀ": 214,
      "ʁ": 215,
      "ʃ": 216,
      "ʇ": 217,
      "ʊ": 218,
      "ʌ": 219,
      "ʎ": 220,
      "ʒ": 221,
      "ʔ": 222,
      "ʜ": 223,
      "ʟ": 224,
      "ʲ": 225,
      "ʳ": 226,
      "ʷ": 227,
      "ʹ": 228,
      "ʺ": 229,
      "ʻ": 230,
      "ʼ": 231,
      "ʽ": 232,
      "ʾ": 233,
      "ʿ": 234,
      "˂": 235,
      "ˆ": 236,
      "ˇ": 237,
      "ˈ": 238,
      "ˉ": 239,
      "ˌ": 240,
      "ː": 241,
      "˙": 242,
      "˚": 243,
      "˜": 244,
      "˝": 245,
      "ˠ": 246,
      "̀": 247,
      "́": 248,
      "̂": 249,
      "̃": 250,
      "̄": 251,
      "̅": 252,
      "̆": 253,
      "̇": 254,
      "̈": 255,
      "̉": 256,
      "̊": 257,
      "̋": 258,
      "̌": 259,
      "̓": 260,
      "̔": 261,
      "̛": 262,
      "̡": 263,
      "̣": 264,
      "̦": 265,
      "̧": 266,
      "̨": 267,
      "̩": 268,
      "̪": 269,
      "̮": 270,
      "̯": 271,
      "̱": 272,
      "̴": 273,
      "̵": 274,
      "̶": 275,
      "̸": 276,
      "͂": 277,
      "ͅ": 278,
      "͕": 279,
      "͞": 280,
      "͟": 281,
      "͡": 282,
      "΄": 283,
      "Α": 284,
      "Β": 285,
      "Γ": 286,
      "Δ": 287,
      "Ε": 288,
      "Ζ": 289,
      "Η": 290,
      "Θ": 291,
      "Ι": 292,
      "Κ": 293,
      "Λ": 294,
      "Μ": 295,
      "Ν": 296,
      "Ξ": 297,
      "Ο": 298,
      "Π": 299,
      "Ρ": 300,
      "Σ": 301,
      "Τ": 302,
      "Υ": 303,
      "Φ": 304,
      "Χ": 305,
      "Ψ": 306,
      "Ω": 307,
      "α": 308,
      "β": 309,
      "γ": 310,
      "δ": 311,
      "ε": 312,
      "ζ": 313,
      "η": 314,
      "θ": 315,
      "ι": 316,
      "κ": 317,
      "λ": 318,
      "μ": 319,
      "ν": 320,
      "ξ": 321,
      "ο": 322,
      "π": 323,
      "ρ": 324,
      "ς": 325,
      "σ": 326,
      "τ": 327,
      "υ": 328,
      "φ": 329,
      "χ": 330,
      "ψ": 331,
      "ω": 332,
      "ϒ": 333,
      "ϙ": 334,
      "Ϝ": 335,
      "Ϟ": 336,
      "ϟ": 337,
      "Є": 338,
      "І": 339,
      "Ј": 340,
      "Љ": 341,
      "Њ": 342,
      "Ћ": 343,
      "А": 344,
      "Б": 345,
      "В": 346,
      "Г": 347,
      "Д": 348,
      "Е": 349,
      "Ж": 350,
      "З": 351,
      "И": 352,
      "К": 353,
      "Л": 354,
      "М": 355,
      "Н": 356,
      "О": 357,
      "П": 358,
      "Р": 359,
      "С": 360,
      "Т": 361,
      "У": 362,
      "Ф": 363,
      "Х": 364,
      "Ц": 365,
      "Ч": 366,
      "Ш": 367,
      "Щ": 368,
      "Ъ": 369,
      "Ы": 370,
      "Ь": 371,
      "Э": 372,
      "Ю": 373,
      "Я": 374,
      "а": 375,
      "б": 376,
      "в": 377,
      "г": 378,
      "д": 379,
      "е": 380,
      "ж": 381,
      "з": 382,
      "и": 383,
      "к": 384,
      "л": 385,
      "м": 386,
      "н": 387,
      "о": 388,
      "п": 389,
      "р": 390,
      "с": 391,
      "т": 392,
      "у": 393,
      "ф": 394,
      "х": 395,
      "ц": 396,
      "ч": 397,
      "ш": 398,
      "щ": 399,
      "ъ": 400,
      "ы": 401,
      "ь": 402,
      "э": 403,
      "ю": 404,
      "я": 405,
      "ђ": 406,
      "є": 407,
      "ѕ": 408,
      "і": 409,
      "ј": 410,
      "љ": 411,
      "њ": 412,
      "ћ": 413,
      "џ": 414,
      "ѣ": 415,
      "ѵ": 416,
      "ґ": 417,
      "қ": 418,
      "Ҫ": 419,
      "ҫ": 420,
      "ҳ": 421,
      "ҽ": 422,
      "Ԑ": 423,
      "ԛ": 424,
      "֔": 425,
      "֗": 426,
      "֙": 427,
      "֣": 428,
      "֤": 429,
      "֫": 430,
      "ְ": 431,
      "ֱ": 432,
      "ֲ": 433,
      "ִ": 434,
      "ֵ": 435,
      "ֶ": 436,
      "ַ": 437,
      "ָ": 438,
      "ֹ": 439,
      "ּ": 440,
      "ֽ": 441,
      "׀": 442,
      "ׁ": 443,
      "ׂ": 444,
      "׃": 445,
      "א": 446,
      "ב": 447,
      "ג": 448,
      "ד": 449,
      "ה": 450,
      "ו": 451,
      "ז": 452,
      "ח": 453,
      "ט": 454,
      "י": 455,
      "ך": 456,
      "כ": 457,
      "ל": 458,
      "ם": 459,
      "מ": 460,
      "ן": 461,
      "נ": 462,
      "ס": 463,
      "ע": 464,
      "ף": 465,
      "פ": 466,
      "ץ": 467,
      "צ": 468,
      "ק": 469,
      "ר": 470,
      "ש": 471,
      "ת": 472,
      "׳": 473,
      "״": 474,
      "،": 475,
      "؛": 476,
      "؟": 477,
      "ء": 478,
      "ا": 479,
      "ب": 480,
      "ة": 481,
      "ت": 482,
      "ث": 483,
      "ج": 484,
      "ح": 485,
      "خ": 486,
      "د": 487,
      "ذ": 488,
      "ر": 489,
      "ز": 490,
      "س": 491,
      "ش": 492,
      "ص": 493,
      "ض": 494,
      "ط": 495,
      "ظ": 496,
      "ع": 497,
      "غ": 498,
      "ـ": 499,
      "ف": 500,
      "ق": 501,
      "ك": 502,
      "ل": 503,
      "م": 504,
      "ن": 505,
      "ه": 506,
      "و": 507,
      "ى": 508,
      "ي": 509,
      "ً": 510,
      "ٌ": 511,
      "ٍ": 512,
      "َ": 513,
      "ُ": 514,
      "ِ": 515,
      "ّ": 516,
      "ْ": 517,
      "ٓ": 518,
      "ٔ": 519,
      "ٕ": 520,
      "٠": 521,
      "١": 522,
      "٢": 523,
      "٣": 524,
      "٤": 525,
      "٦": 526,
      "٩": 527,
      "٪": 528,
      "٬": 529,
      "٭": 530,
      "پ": 531,
      "چ": 532,
      "ژ": 533,
      "ک": 534,
      "گ": 535,
      "ڰ": 536,
      "ں": 537,
      "ھ": 538,
      "ڿ": 539,
      "ہ": 540,
      "ی": 541,
      "ے": 542,
      "ۚ": 543,
      "۝": 544,
      "۞": 545,
      "۟": 546,
      "ۡ": 547,
      "ۣ": 548,
      "۩": 549,
      "۲": 550,
      "۴": 551,
      "۶": 552,
      "ܗ": 553,
      "ܘ": 554,
      "ܢ": 555,
      "ܣ": 556,
      "ܬ": 557,
      "ߋ": 558,
      "ߕ": 559,
      "ߛ": 560,
      "ߠ": 561,
      "ं": 562,
      "ः": 563,
      "अ": 564,
      "आ": 565,
      "इ": 566,
      "उ": 567,
      "ऊ": 568,
      "ए": 569,
      "औ": 570,
      "क": 571,
      "ख": 572,
      "ग": 573,
      "च": 574,
      "ज": 575,
      "ट": 576,
      "ठ": 577,
      "ड": 578,
      "ण": 579,
      "त": 580,
      "थ": 581,
      "द": 582,
      "ध": 583,
      "न": 584,
      "प": 585,
      "फ": 586,
      "ब": 587,
      "भ": 588,
      "म": 589,
      "य": 590,
      "र": 591,
      "ल": 592,
      "व": 593,
      "श": 594,
      "ष": 595,
      "स": 596,
      "ह": 597,
      "़": 598,
      "ा": 599,
      "ि": 600,
      "ी": 601,
      "ु": 602,
      "ू": 603,
      "े": 604,
      "ै": 605,
      "ॉ": 606,
      "ो": 607,
      "्": 608,
      "ॐ": 609,
      "।": 610,
      "ঁ": 611,
      "ও": 612,
      "ক": 613,
      "গ": 614,
      "ছ": 615,
      "ট": 616,
      "ড": 617,
      "ত": 618,
      "ধ": 619,
      "ন": 620,
      "প": 621,
      "ব": 622,
      "ম": 623,
      "য": 624,
      "র": 625,
      "ল": 626,
      "শ": 627,
      "়": 628,
      "া": 629,
      "ি": 630,
      "ু": 631,
      "ূ": 632,
      "ে": 633,
      "ૐ": 634,
      "இ": 635,
      "ஐ": 636,
      "ச": 637,
      "ஜ": 638,
      "த": 639,
      "ந": 640,
      "ல": 641,
      "ி": 642,
      "ெ": 643,
      "்": 644,
      "ಂ": 645,
      "ಎ": 646,
      "ಕ": 647,
      "ಗ": 648,
      "ಚ": 649,
      "ಜ": 650,
      "ಠ": 651,
      "ಡ": 652,
      "ಣ": 653,
      "ತ": 654,
      "ದ": 655,
      "ನ": 656,
      "ಮ": 657,
      "ಯ": 658,
      "ರ": 659,
      "ಲ": 660,
      "ಳ": 661,
      "ವ": 662,
      "ಾ": 663,
      "ಿ": 664,
      "ು": 665,
      "ೂ": 666,
      "ೆ": 667,
      "್": 668,
      "മ": 669,
      "യ": 670,
      "ല": 671,
      "ള": 672,
      "സ": 673,
      "ാ": 674,
      "ീ": 675,
      "്": 676,
      "ต": 677,
      "ร": 678,
      "฿": 679,
      "ไ": 680,
      "๏": 681,
      "๑": 682,
      "ຶ": 683,
      "༎": 684,
      "༒": 685,
      "༼": 686,
      "༽": 687,
      "ღ": 688,
      "ᄀ": 689,
      "ᄁ": 690,
      "ᄂ": 691,
      "ᄃ": 692,
      "ᄄ": 693,
      "ᄅ": 694,
      "ᄆ": 695,
      "ᄇ": 696,
      "ᄉ": 697,
      "ᄊ": 698,
      "ᄋ": 699,
      "ᄌ": 700,
      "ᄍ": 701,
      "ᄎ": 702,
      "ᄏ": 703,
      "ᄐ": 704,
      "ᄑ": 705,
      "ᄒ": 706,
      "ᅡ": 707,
      "ᅢ": 708,
      "ᅣ": 709,
      "ᅥ": 710,
      "ᅦ": 711,
      "ᅧ": 712,
      "ᅨ": 713,
      "ᅩ": 714,
      "ᅪ": 715,
      "ᅬ": 716,
      "ᅭ": 717,
      "ᅮ": 718,
      "ᅯ": 719,
      "ᅱ": 720,
      "ᅲ": 721,
      "ᅳ": 722,
      "ᅴ": 723,
      "ᅵ": 724,
      "ᆨ": 725,
      "ᆫ": 726,
      "ᆭ": 727,
      "ᆮ": 728,
      "ᆯ": 729,
      "ᆲ": 730,
      "ᆶ": 731,
      "ᆷ": 732,
      "ᆸ": 733,
      "ᆹ": 734,
      "ᆺ": 735,
      "ᆻ": 736,
      "ᆼ": 737,
      "ᆽ": 738,
      "ᆾ": 739,
      "ᇀ": 740,
      "ᇁ": 741,
      "ᇂ": 742,
      "ለ": 743,
      "ል": 744,
      "ሎ": 745,
      "ም": 746,
      "ሞ": 747,
      "ራ": 748,
      "ስ": 749,
      "ተ": 750,
      "ታ": 751,
      "ት": 752,
      "ኣ": 753,
      "ክ": 754,
      "ኸ": 755,
      "ወ": 756,
      "ዓ": 757,
      "የ": 758,
      "ያ": 759,
      "ይ": 760,
      "ደ": 761,
      "፥": 762,
      "Ꭰ": 763,
      "Ꭵ": 764,
      "Ꭶ": 765,
      "Ꭿ": 766,
      "Ꮇ": 767,
      "Ꮋ": 768,
      "Ꮍ": 769,
      "Ꮑ": 770,
      "Ꮖ": 771,
      "Ꮤ": 772,
      "Ꮥ": 773,
      "Ꮪ": 774,
      "Ꮮ": 775,
      "Ꮶ": 776,
      "Ꮻ": 777,
      "Ᏸ": 778,
      "ᑎ": 779,
      "ᑕ": 780,
      "ᑭ": 781,
      "ᒪ": 782,
      "ᔕ": 783,
      "ᕮ": 784,
      "ᕼ": 785,
      "ᖇ": 786,
      "ᖴ": 787,
      "ᗩ": 788,
      "ᗪ": 789,
      "ᗴ": 790,
      "ᗷ": 791,
      "᛫": 792,
      "ក": 793,
      "ខ": 794,
      "គ": 795,
      "ង": 796,
      "ច": 797,
      "ឆ": 798,
      "ឌ": 799,
      "ត": 800,
      "ធ": 801,
      "ន": 802,
      "ប": 803,
      "ផ": 804,
      "ព": 805,
      "ភ": 806,
      "ម": 807,
      "យ": 808,
      "រ": 809,
      "ល": 810,
      "វ": 811,
      "ស": 812,
      "អ": 813,
      "ា": 814,
      "ិ": 815,
      "ី": 816,
      "ុ": 817,
      "ួ": 818,
      "េ": 819,
      "ែ": 820,
      "ោ": 821,
      "ំ": 822,
      "ៈ": 823,
      "៉": 824,
      "់": 825,
      "្": 826,
      "ᴀ": 827,
      "ᴄ": 828,
      "ᴅ": 829,
      "ᴇ": 830,
      "ᴊ": 831,
      "ᴋ": 832,
      "ᴍ": 833,
      "ᴏ": 834,
      "ᴗ": 835,
      "ᴘ": 836,
      "ᴛ": 837,
      "ᴜ": 838,
      "ᴠ": 839,
      "ᴡ": 840,
      "ᴬ": 841,
      "ᴮ": 842,
      "ᴰ": 843,
      "ᴱ": 844,
      "ᴸ": 845,
      "ᴹ": 846,
      "ᴺ": 847,
      "ᵀ": 848,
      "ᵁ": 849,
      "ᵈ": 850,
      "ᵉ": 851,
      "ᵒ": 852,
      "ᵛ": 853,
      "ᶠ": 854,
      "ᶦ": 855,
      "἗": 856,
      "᾽": 857,
      "᾿": 858,
      "​": 859,
      "‌": 860,
      "‍": 861,
      "‎": 862,
      "‏": 863,
      "‐": 864,
      "‑": 865,
      "‒": 866,
      "–": 867,
      "—": 868,
      "―": 869,
      "‖": 870,
      "‘": 871,
      "’": 872,
      "‚": 873,
      "‛": 874,
      "“": 875,
      "”": 876,
      "„": 877,
      "‟": 878,
      "†": 879,
      "‡": 880,
      "•": 881,
      "‣": 882,
      "․": 883,
      "…": 884,
      "‧": 885,
      "‪": 886,
      "‫": 887,
      "‬": 888,
      "‭": 889,
      "‮": 890,
      "‰": 891,
      "′": 892,
      "″": 893,
      "‹": 894,
      "›": 895,
      "※": 896,
      "‼": 897,
      "⁃": 898,
      "⁄": 899,
      "⁈": 900,
      "⁉": 901,
      "⁧": 902,
      "⁩": 903,
      "⁰": 904,
      "⁷": 905,
      "⁻": 906,
      "ⁿ": 907,
      "₁": 908,
      "₂": 909,
      "₃": 910,
      "₤": 911,
      "₪": 912,
      "€": 913,
      "₮": 914,
      "₰": 915,
      "₹": 916,
      "⃒": 917,
      "⃘": 918,
      "⃣": 919,
      "℃": 920,
      "℅": 921,
      "℉": 922,
      "ℐ": 923,
      "ℓ": 924,
      "№": 925,
      "ℙ": 926,
      "ℛ": 927,
      "℠": 928,
      "™": 929,
      "⅓": 930,
      "⅔": 931,
      "⅗": 932,
      "⅙": 933,
      "⅛": 934,
      "⅜": 935,
      "⅝": 936,
      "⅞": 937,
      "ⅵ": 938,
      "←": 939,
      "↑": 940,
      "→": 941,
      "↓": 942,
      "↠": 943,
      "↩": 944,
      "⇋": 945,
      "⇒": 946,
      "⇓": 947,
      "⇨": 948,
      "∀": 949,
      "∂": 950,
      "∃": 951,
      "∅": 952,
      "∆": 953,
      "∇": 954,
      "∈": 955,
      "∏": 956,
      "∑": 957,
      "−": 958,
      "∗": 959,
      "∙": 960,
      "√": 961,
      "∝": 962,
      "∞": 963,
      "∧": 964,
      "∨": 965,
      "∫": 966,
      "∴": 967,
      "∶": 968,
      "∼": 969,
      "∾": 970,
      "≅": 971,
      "≈": 972,
      "≡": 973,
      "≤": 974,
      "≥": 975,
      "⊂": 976,
      "⊕": 977,
      "⊗": 978,
      "⊙": 979,
      "⋅": 980,
      "⋆": 981,
      "⌐": 982,
      "⌘": 983,
      "⌚": 984,
      "⌛": 985,
      "⌣": 986,
      "⍕": 987,
      "⎙": 988,
      "⎯": 989,
      "⎼": 990,
      "Ⓐ": 991,
      "Ⓛ": 992,
      "Ⓜ": 993,
      "Ⓡ": 994,
      "Ⓥ": 995,
      "ⓐ": 996,
      "ⓑ": 997,
      "ⓖ": 998,
      "ⓝ": 999,
      "ⓥ": 1000,
      "⓿": 1001,
      "─": 1002,
      "│": 1003,
      "┃": 1004,
      "┏": 1005,
      "┓": 1006,
      "┗": 1007,
      "┛": 1008,
      "├": 1009,
      "┤": 1010,
      "┻": 1011,
      "═": 1012,
      "║": 1013,
      "╔": 1014,
      "╗": 1015,
      "╚": 1016,
      "╝": 1017,
      "╬": 1018,
      "╭": 1019,
      "╮": 1020,
      "╰": 1021,
      "▀": 1022,
      "▂": 1023,
      "█": 1024,
      "▓": 1025,
      "■": 1026,
      "▪": 1027,
      "▬": 1028,
      "▲": 1029,
      "△": 1030,
      "▶": 1031,
      "▸": 1032,
      "►": 1033,
      "▼": 1034,
      "▾": 1035,
      "◄": 1036,
      "◆": 1037,
      "◇": 1038,
      "◉": 1039,
      "◊": 1040,
      "○": 1041,
      "●": 1042,
      "◦": 1043,
      "◾": 1044,
      "☀": 1045,
      "☁": 1046,
      "☂": 1047,
      "☃": 1048,
      "☄": 1049,
      "★": 1050,
      "☆": 1051,
      "☉": 1052,
      "☎": 1053,
      "☐": 1054,
      "☑": 1055,
      "☔": 1056,
      "☕": 1057,
      "☘": 1058,
      "☚": 1059,
      "☛": 1060,
      "☜": 1061,
      "☝": 1062,
      "☞": 1063,
      "☟": 1064,
      "☠": 1065,
      "☢": 1066,
      "☤": 1067,
      "☥": 1068,
      "☦": 1069,
      "☨": 1070,
      "☩": 1071,
      "☪": 1072,
      "☭": 1073,
      "☮": 1074,
      "☯": 1075,
      "☹": 1076,
      "☺": 1077,
      "☼": 1078,
      "☿": 1079,
      "♀": 1080,
      "♂": 1081,
      "♉": 1082,
      "♊": 1083,
      "♋": 1084,
      "♌": 1085,
      "♍": 1086,
      "♎": 1087,
      "♏": 1088,
      "♑": 1089,
      "♒": 1090,
      "♓": 1091,
      "♔": 1092,
      "♕": 1093,
      "♚": 1094,
      "♛": 1095,
      "♞": 1096,
      "♟": 1097,
      "♠": 1098,
      "♡": 1099,
      "♣": 1100,
      "♥": 1101,
      "♦": 1102,
      "♧": 1103,
      "♪": 1104,
      "♫": 1105,
      "♭": 1106,
      "♮": 1107,
      "♯": 1108,
      "♻": 1109,
      "⚄": 1110,
      "⚓": 1111,
      "⚔": 1112,
      "⚖": 1113,
      "⚘": 1114,
      "⚙": 1115,
      "⚜": 1116,
      "⚠": 1117,
      "⚡": 1118,
      "⚧": 1119,
      "⚪": 1120,
      "⚰": 1121,
      "⚽": 1122,
      "⚾": 1123,
      "⛄": 1124,
      "⛈": 1125,
      "⛔": 1126,
      "⛩": 1127,
      "⛲": 1128,
      "⛳": 1129,
      "⛴": 1130,
      "⛵": 1131,
      "⛷": 1132,
      "⛽": 1133,
      "✅": 1134,
      "✈": 1135,
      "✊": 1136,
      "✋": 1137,
      "✌": 1138,
      "✎": 1139,
      "✏": 1140,
      "✒": 1141,
      "✓": 1142,
      "✔": 1143,
      "✕": 1144,
      "✖": 1145,
      "✘": 1146,
      "✜": 1147,
      "✝": 1148,
      "✞": 1149,
      "✠": 1150,
      "✡": 1151,
      "✦": 1152,
      "✧": 1153,
      "✨": 1154,
      "✩": 1155,
      "✪": 1156,
      "✭": 1157,
      "✯": 1158,
      "✰": 1159,
      "✱": 1160,
      "✲": 1161,
      "✳": 1162,
      "✶": 1163,
      "✺": 1164,
      "✻": 1165,
      "✿": 1166,
      "❀": 1167,
      "❁": 1168,
      "❄": 1169,
      "❅": 1170,
      "❋": 1171,
      "❌": 1172,
      "❍": 1173,
      "❖": 1174,
      "❗": 1175,
      "❡": 1176,
      "❣": 1177,
      "❤": 1178,
      "❮": 1179,
      "❷": 1180,
      "➙": 1181,
      "➜": 1182,
      "➡": 1183,
      "➢": 1184,
      "➨": 1185,
      "➯": 1186,
      "➳": 1187,
      "➶": 1188,
      "⠀": 1189,
      "⤵": 1190,
      "⤺": 1191,
      "⦁": 1192,
      "⦿": 1193,
      "⬅": 1194,
      "⬆": 1195,
      "⬇": 1196,
      "⬥": 1197,
      "⭐": 1198,
      "⭕": 1199,
      "Ȿ": 1200,
      "⸮": 1201,
      "、": 1202,
      "。": 1203,
      "々": 1204,
      "《": 1205,
      "》": 1206,
      "「": 1207,
      "」": 1208,
      "『": 1209,
      "』": 1210,
      "【": 1211,
      "】": 1212,
      "〰": 1213,
      "〽": 1214,
      "あ": 1215,
      "い": 1216,
      "う": 1217,
      "え": 1218,
      "お": 1219,
      "か": 1220,
      "き": 1221,
      "く": 1222,
      "け": 1223,
      "こ": 1224,
      "さ": 1225,
      "し": 1226,
      "す": 1227,
      "せ": 1228,
      "そ": 1229,
      "た": 1230,
      "ち": 1231,
      "っ": 1232,
      "つ": 1233,
      "て": 1234,
      "と": 1235,
      "な": 1236,
      "に": 1237,
      "ぬ": 1238,
      "ね": 1239,
      "の": 1240,
      "は": 1241,
      "ひ": 1242,
      "ふ": 1243,
      "へ": 1244,
      "ほ": 1245,
      "ま": 1246,
      "み": 1247,
      "む": 1248,
      "め": 1249,
      "も": 1250,
      "ゃ": 1251,
      "や": 1252,
      "ょ": 1253,
      "よ": 1254,
      "ら": 1255,
      "り": 1256,
      "る": 1257,
      "れ": 1258,
      "ろ": 1259,
      "わ": 1260,
      "を": 1261,
      "ん": 1262,
      "゙": 1263,
      "゚": 1264,
      "ア": 1265,
      "ィ": 1266,
      "イ": 1267,
      "ウ": 1268,
      "ェ": 1269,
      "エ": 1270,
      "オ": 1271,
      "カ": 1272,
      "キ": 1273,
      "ク": 1274,
      "ケ": 1275,
      "コ": 1276,
      "サ": 1277,
      "シ": 1278,
      "ス": 1279,
      "セ": 1280,
      "ソ": 1281,
      "タ": 1282,
      "チ": 1283,
      "ッ": 1284,
      "ツ": 1285,
      "テ": 1286,
      "ト": 1287,
      "ナ": 1288,
      "ニ": 1289,
      "ネ": 1290,
      "ノ": 1291,
      "ハ": 1292,
      "ヒ": 1293,
      "フ": 1294,
      "ヘ": 1295,
      "ホ": 1296,
      "マ": 1297,
      "ミ": 1298,
      "ム": 1299,
      "メ": 1300,
      "モ": 1301,
      "ャ": 1302,
      "ヤ": 1303,
      "ュ": 1304,
      "ョ": 1305,
      "ヨ": 1306,
      "ラ": 1307,
      "リ": 1308,
      "ル": 1309,
      "レ": 1310,
      "ロ": 1311,
      "ワ": 1312,
      "ン": 1313,
      "・": 1314,
      "ー": 1315,
      "ㅤ": 1316,
      "ㆆ": 1317,
      "㉭": 1318,
      "㊙": 1319,
      "㋛": 1320,
      "㋡": 1321,
      "一": 1322,
      "丁": 1323,
      "七": 1324,
      "万": 1325,
      "丈": 1326,
      "三": 1327,
      "上": 1328,
      "下": 1329,
      "不": 1330,
      "与": 1331,
      "丐": 1332,
      "专": 1333,
      "且": 1334,
      "世": 1335,
      "业": 1336,
      "丛": 1337,
      "东": 1338,
      "丝": 1339,
      "丟": 1340,
      "两": 1341,
      "严": 1342,
      "並": 1343,
      "个": 1344,
      "中": 1345,
      "丰": 1346,
      "串": 1347,
      "临": 1348,
      "丸": 1349,
      "丹": 1350,
      "为": 1351,
      "主": 1352,
      "丽": 1353,
      "举": 1354,
      "乃": 1355,
      "久": 1356,
      "么": 1357,
      "义": 1358,
      "之": 1359,
      "乌": 1360,
      "乎": 1361,
      "乏": 1362,
      "乐": 1363,
      "乗": 1364,
      "乘": 1365,
      "九": 1366,
      "乞": 1367,
      "也": 1368,
      "习": 1369,
      "乡": 1370,
      "书": 1371,
      "买": 1372,
      "乱": 1373,
      "乾": 1374,
      "亂": 1375,
      "了": 1376,
      "予": 1377,
      "争": 1378,
      "事": 1379,
      "二": 1380,
      "于": 1381,
      "云": 1382,
      "互": 1383,
      "五": 1384,
      "井": 1385,
      "亘": 1386,
      "亚": 1387,
      "些": 1388,
      "亞": 1389,
      "亡": 1390,
      "交": 1391,
      "亦": 1392,
      "产": 1393,
      "亩": 1394,
      "享": 1395,
      "京": 1396,
      "亭": 1397,
      "亮": 1398,
      "亲": 1399,
      "人": 1400,
      "亻": 1401,
      "什": 1402,
      "仁": 1403,
      "仅": 1404,
      "今": 1405,
      "介": 1406,
      "仍": 1407,
      "从": 1408,
      "仔": 1409,
      "他": 1410,
      "仗": 1411,
      "付": 1412,
      "仙": 1413,
      "代": 1414,
      "令": 1415,
      "以": 1416,
      "仪": 1417,
      "们": 1418,
      "仮": 1419,
      "仰": 1420,
      "件": 1421,
      "价": 1422,
      "任": 1423,
      "份": 1424,
      "仿": 1425,
      "企": 1426,
      "伊": 1427,
      "伍": 1428,
      "伏": 1429,
      "伐": 1430,
      "众": 1431,
      "伙": 1432,
      "会": 1433,
      "伝": 1434,
      "伞": 1435,
      "伟": 1436,
      "传": 1437,
      "伤": 1438,
      "伦": 1439,
      "伯": 1440,
      "估": 1441,
      "伴": 1442,
      "伸": 1443,
      "似": 1444,
      "但": 1445,
      "位": 1446,
      "低": 1447,
      "住": 1448,
      "佐": 1449,
      "体": 1450,
      "佔": 1451,
      "何": 1452,
      "余": 1453,
      "佛": 1454,
      "作": 1455,
      "你": 1456,
      "佳": 1457,
      "併": 1458,
      "使": 1459,
      "來": 1460,
      "例": 1461,
      "侍": 1462,
      "供": 1463,
      "依": 1464,
      "侵": 1465,
      "便": 1466,
      "係": 1467,
      "促": 1468,
      "俄": 1469,
      "俊": 1470,
      "俏": 1471,
      "俗": 1472,
      "保": 1473,
      "信": 1474,
      "修": 1475,
      "個": 1476,
      "倍": 1477,
      "們": 1478,
      "倒": 1479,
      "候": 1480,
      "借": 1481,
      "倡": 1482,
      "値": 1483,
      "倫": 1484,
      "债": 1485,
      "值": 1486,
      "倾": 1487,
      "假": 1488,
      "偉": 1489,
      "偏": 1490,
      "做": 1491,
      "停": 1492,
      "健": 1493,
      "偶": 1494,
      "偷": 1495,
      "偽": 1496,
      "偿": 1497,
      "傀": 1498,
      "傍": 1499,
      "備": 1500,
      "储": 1501,
      "傳": 1502,
      "傷": 1503,
      "僅": 1504,
      "働": 1505,
      "像": 1506,
      "僧": 1507,
      "僵": 1508,
      "價": 1509,
      "僻": 1510,
      "億": 1511,
      "償": 1512,
      "儡": 1513,
      "儿": 1514,
      "允": 1515,
      "元": 1516,
      "充": 1517,
      "兆": 1518,
      "先": 1519,
      "光": 1520,
      "克": 1521,
      "免": 1522,
      "児": 1523,
      "兒": 1524,
      "党": 1525,
      "兜": 1526,
      "入": 1527,
      "內": 1528,
      "全": 1529,
      "兩": 1530,
      "八": 1531,
      "公": 1532,
      "六": 1533,
      "兰": 1534,
      "共": 1535,
      "关": 1536,
      "兴": 1537,
      "兵": 1538,
      "其": 1539,
      "具": 1540,
      "典": 1541,
      "养": 1542,
      "兼": 1543,
      "兽": 1544,
      "内": 1545,
      "円": 1546,
      "再": 1547,
      "冒": 1548,
      "写": 1549,
      "军": 1550,
      "冠": 1551,
      "冥": 1552,
      "冬": 1553,
      "冰": 1554,
      "决": 1555,
      "况": 1556,
      "冷": 1557,
      "冻": 1558,
      "净": 1559,
      "准": 1560,
      "凈": 1561,
      "凉": 1562,
      "凋": 1563,
      "凌": 1564,
      "减": 1565,
      "凑": 1566,
      "凝": 1567,
      "几": 1568,
      "凡": 1569,
      "凤": 1570,
      "処": 1571,
      "凭": 1572,
      "凰": 1573,
      "出": 1574,
      "击": 1575,
      "凿": 1576,
      "刀": 1577,
      "分": 1578,
      "切": 1579,
      "刊": 1580,
      "刑": 1581,
      "划": 1582,
      "列": 1583,
      "刘": 1584,
      "则": 1585,
      "刚": 1586,
      "创": 1587,
      "初": 1588,
      "删": 1589,
      "判": 1590,
      "別": 1591,
      "刨": 1592,
      "利": 1593,
      "别": 1594,
      "到": 1595,
      "制": 1596,
      "刷": 1597,
      "券": 1598,
      "刺": 1599,
      "刻": 1600,
      "剃": 1601,
      "則": 1602,
      "削": 1603,
      "前": 1604,
      "剑": 1605,
      "剝": 1606,
      "剥": 1607,
      "剧": 1608,
      "剩": 1609,
      "剪": 1610,
      "副": 1611,
      "割": 1612,
      "創": 1613,
      "劃": 1614,
      "劇": 1615,
      "劍": 1616,
      "力": 1617,
      "劝": 1618,
      "办": 1619,
      "功": 1620,
      "加": 1621,
      "务": 1622,
      "劣": 1623,
      "动": 1624,
      "助": 1625,
      "努": 1626,
      "劫": 1627,
      "励": 1628,
      "劲": 1629,
      "劳": 1630,
      "労": 1631,
      "効": 1632,
      "势": 1633,
      "勃": 1634,
      "勇": 1635,
      "勒": 1636,
      "動": 1637,
      "務": 1638,
      "勝": 1639,
      "勢": 1640,
      "勤": 1641,
      "勾": 1642,
      "勿": 1643,
      "匀": 1644,
      "包": 1645,
      "化": 1646,
      "北": 1647,
      "匙": 1648,
      "匠": 1649,
      "匯": 1650,
      "区": 1651,
      "医": 1652,
      "匿": 1653,
      "區": 1654,
      "十": 1655,
      "千": 1656,
      "升": 1657,
      "午": 1658,
      "半": 1659,
      "华": 1660,
      "协": 1661,
      "卐": 1662,
      "協": 1663,
      "单": 1664,
      "卖": 1665,
      "南": 1666,
      "単": 1667,
      "博": 1668,
      "卜": 1669,
      "占": 1670,
      "卡": 1671,
      "卧": 1672,
      "卫": 1673,
      "印": 1674,
      "危": 1675,
      "即": 1676,
      "却": 1677,
      "卵": 1678,
      "卸": 1679,
      "卻": 1680,
      "厂": 1681,
      "厄": 1682,
      "历": 1683,
      "厉": 1684,
      "压": 1685,
      "厚": 1686,
      "原": 1687,
      "厥": 1688,
      "厨": 1689,
      "厲": 1690,
      "去": 1691,
      "参": 1692,
      "參": 1693,
      "又": 1694,
      "叉": 1695,
      "及": 1696,
      "友": 1697,
      "双": 1698,
      "反": 1699,
      "収": 1700,
      "发": 1701,
      "叔": 1702,
      "取": 1703,
      "受": 1704,
      "变": 1705,
      "叛": 1706,
      "口": 1707,
      "古": 1708,
      "句": 1709,
      "另": 1710,
      "叩": 1711,
      "只": 1712,
      "叫": 1713,
      "召": 1714,
      "可": 1715,
      "台": 1716,
      "史": 1717,
      "右": 1718,
      "叶": 1719,
      "号": 1720,
      "司": 1721,
      "吃": 1722,
      "各": 1723,
      "合": 1724,
      "吉": 1725,
      "同": 1726,
      "名": 1727,
      "后": 1728,
      "向": 1729,
      "吕": 1730,
      "君": 1731,
      "吟": 1732,
      "吠": 1733,
      "否": 1734,
      "吧": 1735,
      "含": 1736,
      "听": 1737,
      "启": 1738,
      "吵": 1739,
      "吸": 1740,
      "吹": 1741,
      "吻": 1742,
      "吾": 1743,
      "呂": 1744,
      "呈": 1745,
      "告": 1746,
      "员": 1747,
      "呢": 1748,
      "周": 1749,
      "味": 1750,
      "呵": 1751,
      "呼": 1752,
      "命": 1753,
      "和": 1754,
      "咒": 1755,
      "咨": 1756,
      "咱": 1757,
      "咸": 1758,
      "品": 1759,
      "哈": 1760,
      "哌": 1761,
      "响": 1762,
      "員": 1763,
      "哥": 1764,
      "哪": 1765,
      "哲": 1766,
      "唬": 1767,
      "售": 1768,
      "唯": 1769,
      "唱": 1770,
      "商": 1771,
      "啊": 1772,
      "問": 1773,
      "啥": 1774,
      "喀": 1775,
      "善": 1776,
      "喇": 1777,
      "喊": 1778,
      "喜": 1779,
      "喧": 1780,
      "單": 1781,
      "営": 1782,
      "喷": 1783,
      "喻": 1784,
      "嗎": 1785,
      "嗑": 1786,
      "嗨": 1787,
      "嘆": 1788,
      "嘉": 1789,
      "嘛": 1790,
      "嘲": 1791,
      "嘴": 1792,
      "器": 1793,
      "噴": 1794,
      "嚎": 1795,
      "嚏": 1796,
      "嚔": 1797,
      "嚴": 1798,
      "囊": 1799,
      "囚": 1800,
      "四": 1801,
      "回": 1802,
      "因": 1803,
      "团": 1804,
      "団": 1805,
      "园": 1806,
      "困": 1807,
      "囲": 1808,
      "図": 1809,
      "围": 1810,
      "固": 1811,
      "国": 1812,
      "图": 1813,
      "圆": 1814,
      "圈": 1815,
      "國": 1816,
      "圍": 1817,
      "圏": 1818,
      "園": 1819,
      "圓": 1820,
      "圖": 1821,
      "團": 1822,
      "土": 1823,
      "圣": 1824,
      "圧": 1825,
      "在": 1826,
      "圭": 1827,
      "地": 1828,
      "场": 1829,
      "址": 1830,
      "均": 1831,
      "坍": 1832,
      "坏": 1833,
      "块": 1834,
      "坚": 1835,
      "坛": 1836,
      "坝": 1837,
      "坟": 1838,
      "坡": 1839,
      "坤": 1840,
      "坦": 1841,
      "坳": 1842,
      "垂": 1843,
      "型": 1844,
      "埋": 1845,
      "城": 1846,
      "域": 1847,
      "執": 1848,
      "培": 1849,
      "基": 1850,
      "堂": 1851,
      "堅": 1852,
      "堆": 1853,
      "堡": 1854,
      "堤": 1855,
      "報": 1856,
      "場": 1857,
      "堵": 1858,
      "塌": 1859,
      "塔": 1860,
      "塘": 1861,
      "塚": 1862,
      "塞": 1863,
      "填": 1864,
      "塾": 1865,
      "境": 1866,
      "墅": 1867,
      "墓": 1868,
      "増": 1869,
      "墜": 1870,
      "增": 1871,
      "墨": 1872,
      "墮": 1873,
      "壊": 1874,
      "壓": 1875,
      "壞": 1876,
      "士": 1877,
      "声": 1878,
      "売": 1879,
      "壳": 1880,
      "壹": 1881,
      "处": 1882,
      "备": 1883,
      "変": 1884,
      "复": 1885,
      "夏": 1886,
      "夕": 1887,
      "外": 1888,
      "多": 1889,
      "夜": 1890,
      "够": 1891,
      "夠": 1892,
      "大": 1893,
      "天": 1894,
      "太": 1895,
      "夫": 1896,
      "央": 1897,
      "失": 1898,
      "头": 1899,
      "夺": 1900,
      "奇": 1901,
      "奈": 1902,
      "奏": 1903,
      "契": 1904,
      "奔": 1905,
      "套": 1906,
      "奥": 1907,
      "奧": 1908,
      "奪": 1909,
      "女": 1910,
      "奴": 1911,
      "奶": 1912,
      "她": 1913,
      "好": 1914,
      "妁": 1915,
      "如": 1916,
      "妄": 1917,
      "妇": 1918,
      "妈": 1919,
      "妊": 1920,
      "妖": 1921,
      "妙": 1922,
      "妥": 1923,
      "妨": 1924,
      "妻": 1925,
      "姆": 1926,
      "始": 1927,
      "姓": 1928,
      "委": 1929,
      "姻": 1930,
      "威": 1931,
      "娇": 1932,
      "娘": 1933,
      "娛": 1934,
      "娜": 1935,
      "娠": 1936,
      "娥": 1937,
      "娶": 1938,
      "婚": 1939,
      "婴": 1940,
      "婿": 1941,
      "媒": 1942,
      "嫁": 1943,
      "嫌": 1944,
      "嫦": 1945,
      "子": 1946,
      "孔": 1947,
      "孕": 1948,
      "字": 1949,
      "存": 1950,
      "孙": 1951,
      "孟": 1952,
      "季": 1953,
      "学": 1954,
      "孩": 1955,
      "孫": 1956,
      "孵": 1957,
      "學": 1958,
      "宁": 1959,
      "它": 1960,
      "宅": 1961,
      "宇": 1962,
      "守": 1963,
      "安": 1964,
      "宋": 1965,
      "完": 1966,
      "宏": 1967,
      "宗": 1968,
      "官": 1969,
      "宙": 1970,
      "定": 1971,
      "宜": 1972,
      "宝": 1973,
      "实": 1974,
      "実": 1975,
      "审": 1976,
      "客": 1977,
      "宣": 1978,
      "室": 1979,
      "宪": 1980,
      "宫": 1981,
      "宮": 1982,
      "宰": 1983,
      "害": 1984,
      "宴": 1985,
      "宵": 1986,
      "家": 1987,
      "容": 1988,
      "宽": 1989,
      "寂": 1990,
      "寄": 1991,
      "寅": 1992,
      "密": 1993,
      "富": 1994,
      "寓": 1995,
      "察": 1996,
      "實": 1997,
      "審": 1998,
      "寫": 1999,
      "寬": 2000,
      "寶": 2001,
      "寸": 2002,
      "对": 2003,
      "寺": 2004,
      "寻": 2005,
      "导": 2006,
      "対": 2007,
      "寿": 2008,
      "封": 2009,
      "専": 2010,
      "射": 2011,
      "将": 2012,
      "將": 2013,
      "專": 2014,
      "尊": 2015,
      "尋": 2016,
      "對": 2017,
      "導": 2018,
      "小": 2019,
      "少": 2020,
      "尔": 2021,
      "尖": 2022,
      "尚": 2023,
      "尝": 2024,
      "尤": 2025,
      "就": 2026,
      "尸": 2027,
      "尺": 2028,
      "尼": 2029,
      "尽": 2030,
      "局": 2031,
      "层": 2032,
      "居": 2033,
      "届": 2034,
      "屋": 2035,
      "屏": 2036,
      "展": 2037,
      "属": 2038,
      "屠": 2039,
      "層": 2040,
      "山": 2041,
      "岁": 2042,
      "岂": 2043,
      "岗": 2044,
      "岡": 2045,
      "岩": 2046,
      "岭": 2047,
      "岸": 2048,
      "島": 2049,
      "峽": 2050,
      "崛": 2051,
      "崩": 2052,
      "崽": 2053,
      "嶼": 2054,
      "川": 2055,
      "州": 2056,
      "工": 2057,
      "左": 2058,
      "巧": 2059,
      "巨": 2060,
      "巫": 2061,
      "差": 2062,
      "己": 2063,
      "已": 2064,
      "巴": 2065,
      "巷": 2066,
      "巾": 2067,
      "市": 2068,
      "布": 2069,
      "师": 2070,
      "希": 2071,
      "帐": 2072,
      "帕": 2073,
      "帖": 2074,
      "帚": 2075,
      "帛": 2076,
      "帜": 2077,
      "帝": 2078,
      "带": 2079,
      "師": 2080,
      "席": 2081,
      "帮": 2082,
      "帯": 2083,
      "帰": 2084,
      "常": 2085,
      "幂": 2086,
      "幅": 2087,
      "幕": 2088,
      "幣": 2089,
      "干": 2090,
      "平": 2091,
      "年": 2092,
      "并": 2093,
      "幸": 2094,
      "幹": 2095,
      "幻": 2096,
      "幼": 2097,
      "幽": 2098,
      "幾": 2099,
      "广": 2100,
      "庁": 2101,
      "広": 2102,
      "庄": 2103,
      "庆": 2104,
      "床": 2105,
      "序": 2106,
      "库": 2107,
      "应": 2108,
      "底": 2109,
      "店": 2110,
      "府": 2111,
      "度": 2112,
      "庫": 2113,
      "庭": 2114,
      "康": 2115,
      "廃": 2116,
      "廉": 2117,
      "廣": 2118,
      "延": 2119,
      "建": 2120,
      "廿": 2121,
      "开": 2122,
      "弁": 2123,
      "异": 2124,
      "弃": 2125,
      "弄": 2126,
      "弈": 2127,
      "式": 2128,
      "弓": 2129,
      "引": 2130,
      "弟": 2131,
      "张": 2132,
      "弦": 2133,
      "弧": 2134,
      "弱": 2135,
      "張": 2136,
      "強": 2137,
      "弹": 2138,
      "强": 2139,
      "彈": 2140,
      "归": 2141,
      "当": 2142,
      "录": 2143,
      "彗": 2144,
      "彡": 2145,
      "形": 2146,
      "彥": 2147,
      "彩": 2148,
      "彭": 2149,
      "影": 2150,
      "役": 2151,
      "彼": 2152,
      "往": 2153,
      "征": 2154,
      "径": 2155,
      "待": 2156,
      "很": 2157,
      "徊": 2158,
      "律": 2159,
      "後": 2160,
      "徐": 2161,
      "徑": 2162,
      "徒": 2163,
      "従": 2164,
      "得": 2165,
      "徘": 2166,
      "從": 2167,
      "御": 2168,
      "復": 2169,
      "微": 2170,
      "德": 2171,
      "徽": 2172,
      "心": 2173,
      "必": 2174,
      "忍": 2175,
      "志": 2176,
      "忘": 2177,
      "忙": 2178,
      "応": 2179,
      "忠": 2180,
      "忧": 2181,
      "快": 2182,
      "念": 2183,
      "忽": 2184,
      "怀": 2185,
      "态": 2186,
      "怎": 2187,
      "怕": 2188,
      "怖": 2189,
      "思": 2190,
      "急": 2191,
      "性": 2192,
      "怨": 2193,
      "总": 2194,
      "恋": 2195,
      "恐": 2196,
      "恒": 2197,
      "恕": 2198,
      "恢": 2199,
      "恣": 2200,
      "恭": 2201,
      "息": 2202,
      "恶": 2203,
      "悄": 2204,
      "悉": 2205,
      "悌": 2206,
      "悔": 2207,
      "悟": 2208,
      "悠": 2209,
      "患": 2210,
      "悦": 2211,
      "您": 2212,
      "悪": 2213,
      "悬": 2214,
      "悲": 2215,
      "情": 2216,
      "惊": 2217,
      "惜": 2218,
      "惠": 2219,
      "惨": 2220,
      "惩": 2221,
      "惯": 2222,
      "想": 2223,
      "意": 2224,
      "愚": 2225,
      "愛": 2226,
      "感": 2227,
      "愿": 2228,
      "慈": 2229,
      "態": 2230,
      "慌": 2231,
      "慑": 2232,
      "慕": 2233,
      "慘": 2234,
      "慢": 2235,
      "慣": 2236,
      "慧": 2237,
      "慮": 2238,
      "慰": 2239,
      "憲": 2240,
      "懂": 2241,
      "應": 2242,
      "懐": 2243,
      "懸": 2244,
      "戍": 2245,
      "戏": 2246,
      "成": 2247,
      "我": 2248,
      "戒": 2249,
      "或": 2250,
      "战": 2251,
      "戚": 2252,
      "戦": 2253,
      "截": 2254,
      "戰": 2255,
      "戲": 2256,
      "戶": 2257,
      "户": 2258,
      "戸": 2259,
      "房": 2260,
      "所": 2261,
      "手": 2262,
      "才": 2263,
      "扒": 2264,
      "打": 2265,
      "払": 2266,
      "托": 2267,
      "扣": 2268,
      "执": 2269,
      "扩": 2270,
      "扬": 2271,
      "扭": 2272,
      "扮": 2273,
      "扰": 2274,
      "扶": 2275,
      "批": 2276,
      "找": 2277,
      "承": 2278,
      "技": 2279,
      "抉": 2280,
      "把": 2281,
      "抑": 2282,
      "抓": 2283,
      "投": 2284,
      "抖": 2285,
      "抗": 2286,
      "折": 2287,
      "抛": 2288,
      "択": 2289,
      "抢": 2290,
      "护": 2291,
      "报": 2292,
      "抬": 2293,
      "抱": 2294,
      "抵": 2295,
      "抹": 2296,
      "押": 2297,
      "抽": 2298,
      "担": 2299,
      "拈": 2300,
      "拉": 2301,
      "拋": 2302,
      "拌": 2303,
      "拒": 2304,
      "拓": 2305,
      "拔": 2306,
      "拘": 2307,
      "拜": 2308,
      "拠": 2309,
      "拡": 2310,
      "拣": 2311,
      "拥": 2312,
      "拨": 2313,
      "择": 2314,
      "括": 2315,
      "拯": 2316,
      "拾": 2317,
      "拿": 2318,
      "持": 2319,
      "指": 2320,
      "按": 2321,
      "挑": 2322,
      "挖": 2323,
      "挣": 2324,
      "挥": 2325,
      "挪": 2326,
      "振": 2327,
      "捅": 2328,
      "捉": 2329,
      "捜": 2330,
      "捞": 2331,
      "损": 2332,
      "换": 2333,
      "捨": 2334,
      "据": 2335,
      "掃": 2336,
      "授": 2337,
      "掉": 2338,
      "掌": 2339,
      "掏": 2340,
      "排": 2341,
      "掘": 2342,
      "掛": 2343,
      "掠": 2344,
      "採": 2345,
      "探": 2346,
      "接": 2347,
      "控": 2348,
      "推": 2349,
      "措": 2350,
      "掬": 2351,
      "描": 2352,
      "提": 2353,
      "換": 2354,
      "握": 2355,
      "揭": 2356,
      "揮": 2357,
      "援": 2358,
      "損": 2359,
      "搞": 2360,
      "搭": 2361,
      "摂": 2362,
      "摄": 2363,
      "摆": 2364,
      "摊": 2365,
      "摘": 2366,
      "摧": 2367,
      "摩": 2368,
      "摸": 2369,
      "撑": 2370,
      "撒": 2371,
      "撓": 2372,
      "撤": 2373,
      "撫": 2374,
      "播": 2375,
      "撰": 2376,
      "撼": 2377,
      "撿": 2378,
      "擁": 2379,
      "擂": 2380,
      "擊": 2381,
      "擋": 2382,
      "操": 2383,
      "擎": 2384,
      "據": 2385,
      "擬": 2386,
      "擴": 2387,
      "攔": 2388,
      "支": 2389,
      "收": 2390,
      "改": 2391,
      "攻": 2392,
      "放": 2393,
      "政": 2394,
      "故": 2395,
      "效": 2396,
      "敌": 2397,
      "敏": 2398,
      "救": 2399,
      "敗": 2400,
      "敘": 2401,
      "教": 2402,
      "散": 2403,
      "敦": 2404,
      "敬": 2405,
      "数": 2406,
      "敲": 2407,
      "整": 2408,
      "敵": 2409,
      "敷": 2410,
      "數": 2411,
      "斃": 2412,
      "文": 2413,
      "斐": 2414,
      "斗": 2415,
      "料": 2416,
      "斜": 2417,
      "斧": 2418,
      "断": 2419,
      "斯": 2420,
      "新": 2421,
      "斷": 2422,
      "方": 2423,
      "於": 2424,
      "施": 2425,
      "旋": 2426,
      "旌": 2427,
      "族": 2428,
      "旗": 2429,
      "无": 2430,
      "既": 2431,
      "日": 2432,
      "旦": 2433,
      "旧": 2434,
      "旨": 2435,
      "早": 2436,
      "旭": 2437,
      "旱": 2438,
      "时": 2439,
      "旺": 2440,
      "昂": 2441,
      "昇": 2442,
      "明": 2443,
      "昏": 2444,
      "易": 2445,
      "昔": 2446,
      "星": 2447,
      "映": 2448,
      "春": 2449,
      "昨": 2450,
      "昭": 2451,
      "是": 2452,
      "昼": 2453,
      "显": 2454,
      "時": 2455,
      "晋": 2456,
      "晓": 2457,
      "晚": 2458,
      "普": 2459,
      "景": 2460,
      "晶": 2461,
      "智": 2462,
      "暂": 2463,
      "暖": 2464,
      "暗": 2465,
      "暫": 2466,
      "暮": 2467,
      "暴": 2468,
      "曙": 2469,
      "曜": 2470,
      "曝": 2471,
      "曰": 2472,
      "曲": 2473,
      "更": 2474,
      "書": 2475,
      "曾": 2476,
      "替": 2477,
      "最": 2478,
      "會": 2479,
      "月": 2480,
      "有": 2481,
      "朋": 2482,
      "服": 2483,
      "朗": 2484,
      "望": 2485,
      "朝": 2486,
      "期": 2487,
      "木": 2488,
      "未": 2489,
      "末": 2490,
      "本": 2491,
      "术": 2492,
      "朱": 2493,
      "机": 2494,
      "朽": 2495,
      "杀": 2496,
      "杂": 2497,
      "权": 2498,
      "杉": 2499,
      "李": 2500,
      "杏": 2501,
      "材": 2502,
      "村": 2503,
      "杖": 2504,
      "杜": 2505,
      "束": 2506,
      "条": 2507,
      "来": 2508,
      "杨": 2509,
      "杯": 2510,
      "杰": 2511,
      "東": 2512,
      "杵": 2513,
      "松": 2514,
      "板": 2515,
      "极": 2516,
      "构": 2517,
      "析": 2518,
      "枕": 2519,
      "林": 2520,
      "枚": 2521,
      "果": 2522,
      "枝": 2523,
      "枢": 2524,
      "枣": 2525,
      "枫": 2526,
      "架": 2527,
      "某": 2528,
      "染": 2529,
      "柜": 2530,
      "柠": 2531,
      "查": 2532,
      "柱": 2533,
      "柳": 2534,
      "査": 2535,
      "标": 2536,
      "栏": 2537,
      "树": 2538,
      "栖": 2539,
      "栗": 2540,
      "校": 2541,
      "样": 2542,
      "核": 2543,
      "根": 2544,
      "格": 2545,
      "栽": 2546,
      "桂": 2547,
      "框": 2548,
      "案": 2549,
      "档": 2550,
      "桥": 2551,
      "桿": 2552,
      "梁": 2553,
      "梅": 2554,
      "條": 2555,
      "梦": 2556,
      "梯": 2557,
      "械": 2558,
      "梳": 2559,
      "梵": 2560,
      "检": 2561,
      "棄": 2562,
      "棋": 2563,
      "棍": 2564,
      "棒": 2565,
      "森": 2566,
      "棹": 2567,
      "棺": 2568,
      "植": 2569,
      "椒": 2570,
      "検": 2571,
      "楔": 2572,
      "楚": 2573,
      "楢": 2574,
      "業": 2575,
      "極": 2576,
      "楼": 2577,
      "楽": 2578,
      "概": 2579,
      "榜": 2580,
      "構": 2581,
      "槍": 2582,
      "槓": 2583,
      "様": 2584,
      "樂": 2585,
      "標": 2586,
      "模": 2587,
      "樣": 2588,
      "権": 2589,
      "横": 2590,
      "樸": 2591,
      "橋": 2592,
      "機": 2593,
      "橡": 2594,
      "橫": 2595,
      "檔": 2596,
      "檢": 2597,
      "檬": 2598,
      "欄": 2599,
      "權": 2600,
      "次": 2601,
      "欢": 2602,
      "欣": 2603,
      "欧": 2604,
      "欲": 2605,
      "欺": 2606,
      "款": 2607,
      "歌": 2608,
      "歐": 2609,
      "歓": 2610,
      "歡": 2611,
      "止": 2612,
      "正": 2613,
      "此": 2614,
      "步": 2615,
      "武": 2616,
      "歧": 2617,
      "歩": 2618,
      "歪": 2619,
      "歳": 2620,
      "歷": 2621,
      "歸": 2622,
      "死": 2623,
      "殆": 2624,
      "殊": 2625,
      "残": 2626,
      "殖": 2627,
      "殘": 2628,
      "段": 2629,
      "殺": 2630,
      "殿": 2631,
      "毀": 2632,
      "毁": 2633,
      "母": 2634,
      "每": 2635,
      "毒": 2636,
      "比": 2637,
      "毕": 2638,
      "毛": 2639,
      "氏": 2640,
      "民": 2641,
      "氓": 2642,
      "气": 2643,
      "気": 2644,
      "氣": 2645,
      "氧": 2646,
      "水": 2647,
      "永": 2648,
      "氽": 2649,
      "汁": 2650,
      "求": 2651,
      "汇": 2652,
      "汉": 2653,
      "汗": 2654,
      "江": 2655,
      "池": 2656,
      "污": 2657,
      "汪": 2658,
      "決": 2659,
      "沁": 2660,
      "沂": 2661,
      "沉": 2662,
      "沌": 2663,
      "沒": 2664,
      "沙": 2665,
      "沟": 2666,
      "没": 2667,
      "沥": 2668,
      "沦": 2669,
      "河": 2670,
      "沸": 2671,
      "油": 2672,
      "治": 2673,
      "沿": 2674,
      "況": 2675,
      "泉": 2676,
      "法": 2677,
      "泛": 2678,
      "泡": 2679,
      "波": 2680,
      "泣": 2681,
      "泥": 2682,
      "注": 2683,
      "泽": 2684,
      "洁": 2685,
      "洋": 2686,
      "洗": 2687,
      "洛": 2688,
      "洞": 2689,
      "津": 2690,
      "洪": 2691,
      "洲": 2692,
      "洵": 2693,
      "活": 2694,
      "派": 2695,
      "流": 2696,
      "浄": 2697,
      "测": 2698,
      "济": 2699,
      "浏": 2700,
      "浩": 2701,
      "浪": 2702,
      "浮": 2703,
      "浴": 2704,
      "海": 2705,
      "浸": 2706,
      "涅": 2707,
      "消": 2708,
      "涉": 2709,
      "涌": 2710,
      "涙": 2711,
      "涛": 2712,
      "涣": 2713,
      "涤": 2714,
      "润": 2715,
      "涯": 2716,
      "液": 2717,
      "淑": 2718,
      "淘": 2719,
      "淨": 2720,
      "深": 2721,
      "混": 2722,
      "添": 2723,
      "清": 2724,
      "済": 2725,
      "渉": 2726,
      "渐": 2727,
      "渔": 2728,
      "減": 2729,
      "渠": 2730,
      "渡": 2731,
      "渣": 2732,
      "温": 2733,
      "測": 2734,
      "港": 2735,
      "渴": 2736,
      "游": 2737,
      "湖": 2738,
      "湧": 2739,
      "湯": 2740,
      "湾": 2741,
      "湿": 2742,
      "源": 2743,
      "準": 2744,
      "溥": 2745,
      "溪": 2746,
      "溶": 2747,
      "溺": 2748,
      "滅": 2749,
      "满": 2750,
      "滤": 2751,
      "滥": 2752,
      "滩": 2753,
      "滲": 2754,
      "滿": 2755,
      "漂": 2756,
      "漏": 2757,
      "演": 2758,
      "漫": 2759,
      "潜": 2760,
      "潦": 2761,
      "潭": 2762,
      "潮": 2763,
      "潰": 2764,
      "澄": 2765,
      "澤": 2766,
      "澳": 2767,
      "激": 2768,
      "濁": 2769,
      "濃": 2770,
      "濟": 2771,
      "瀬": 2772,
      "灌": 2773,
      "灘": 2774,
      "灣": 2775,
      "火": 2776,
      "灭": 2777,
      "灰": 2778,
      "灵": 2779,
      "灶": 2780,
      "災": 2781,
      "灾": 2782,
      "炉": 2783,
      "炒": 2784,
      "炙": 2785,
      "炮": 2786,
      "炸": 2787,
      "点": 2788,
      "為": 2789,
      "炼": 2790,
      "烈": 2791,
      "烛": 2792,
      "烟": 2793,
      "烦": 2794,
      "热": 2795,
      "焉": 2796,
      "無": 2797,
      "焦": 2798,
      "然": 2799,
      "焼": 2800,
      "煌": 2801,
      "煙": 2802,
      "照": 2803,
      "煮": 2804,
      "熙": 2805,
      "熟": 2806,
      "熱": 2807,
      "燃": 2808,
      "燒": 2809,
      "營": 2810,
      "燥": 2811,
      "爆": 2812,
      "爐": 2813,
      "爥": 2814,
      "爬": 2815,
      "爭": 2816,
      "爱": 2817,
      "父": 2818,
      "爷": 2819,
      "爾": 2820,
      "片": 2821,
      "版": 2822,
      "牌": 2823,
      "牛": 2824,
      "牢": 2825,
      "牧": 2826,
      "物": 2827,
      "牵": 2828,
      "特": 2829,
      "牽": 2830,
      "犀": 2831,
      "犇": 2832,
      "犬": 2833,
      "犯": 2834,
      "状": 2835,
      "狀": 2836,
      "狂": 2837,
      "狗": 2838,
      "狙": 2839,
      "狛": 2840,
      "独": 2841,
      "狭": 2842,
      "狮": 2843,
      "猛": 2844,
      "献": 2845,
      "猴": 2846,
      "猶": 2847,
      "獅": 2848,
      "獎": 2849,
      "獨": 2850,
      "獲": 2851,
      "獸": 2852,
      "玄": 2853,
      "率": 2854,
      "玉": 2855,
      "王": 2856,
      "玛": 2857,
      "玩": 2858,
      "玮": 2859,
      "环": 2860,
      "现": 2861,
      "玺": 2862,
      "珍": 2863,
      "珠": 2864,
      "班": 2865,
      "現": 2866,
      "球": 2867,
      "理": 2868,
      "琉": 2869,
      "琦": 2870,
      "琳": 2871,
      "琴": 2872,
      "琶": 2873,
      "瑜": 2874,
      "瑞": 2875,
      "瑰": 2876,
      "環": 2877,
      "瓜": 2878,
      "瓶": 2879,
      "瓷": 2880,
      "甘": 2881,
      "甚": 2882,
      "甜": 2883,
      "生": 2884,
      "產": 2885,
      "産": 2886,
      "用": 2887,
      "田": 2888,
      "由": 2889,
      "甲": 2890,
      "申": 2891,
      "电": 2892,
      "男": 2893,
      "甸": 2894,
      "町": 2895,
      "画": 2896,
      "畅": 2897,
      "界": 2898,
      "畑": 2899,
      "留": 2900,
      "畜": 2901,
      "略": 2902,
      "番": 2903,
      "異": 2904,
      "當": 2905,
      "畸": 2906,
      "疏": 2907,
      "疑": 2908,
      "疗": 2909,
      "疫": 2910,
      "疯": 2911,
      "疾": 2912,
      "病": 2913,
      "症": 2914,
      "痛": 2915,
      "瘋": 2916,
      "瘫": 2917,
      "瘾": 2918,
      "療": 2919,
      "癌": 2920,
      "発": 2921,
      "登": 2922,
      "發": 2923,
      "白": 2924,
      "百": 2925,
      "的": 2926,
      "皆": 2927,
      "皇": 2928,
      "皋": 2929,
      "皮": 2930,
      "益": 2931,
      "盐": 2932,
      "监": 2933,
      "盒": 2934,
      "盗": 2935,
      "盘": 2936,
      "盛": 2937,
      "盟": 2938,
      "盡": 2939,
      "監": 2940,
      "盤": 2941,
      "盧": 2942,
      "目": 2943,
      "盲": 2944,
      "直": 2945,
      "相": 2946,
      "盾": 2947,
      "省": 2948,
      "眉": 2949,
      "看": 2950,
      "県": 2951,
      "真": 2952,
      "眼": 2953,
      "眾": 2954,
      "着": 2955,
      "睛": 2956,
      "督": 2957,
      "睦": 2958,
      "睹": 2959,
      "睾": 2960,
      "睿": 2961,
      "瞎": 2962,
      "瞧": 2963,
      "矛": 2964,
      "矢": 2965,
      "知": 2966,
      "矩": 2967,
      "短": 2968,
      "石": 2969,
      "矶": 2970,
      "码": 2971,
      "砂": 2972,
      "砌": 2973,
      "研": 2974,
      "破": 2975,
      "础": 2976,
      "硕": 2977,
      "硬": 2978,
      "确": 2979,
      "碎": 2980,
      "碟": 2981,
      "碳": 2982,
      "確": 2983,
      "磁": 2984,
      "磐": 2985,
      "磨": 2986,
      "示": 2987,
      "礼": 2988,
      "社": 2989,
      "祈": 2990,
      "祖": 2991,
      "祝": 2992,
      "神": 2993,
      "祭": 2994,
      "祷": 2995,
      "祺": 2996,
      "禁": 2997,
      "福": 2998,
      "禦": 2999,
      "禪": 3000,
      "离": 3001,
      "私": 3002,
      "秋": 3003,
      "种": 3004,
      "科": 3005,
      "秒": 3006,
      "秘": 3007,
      "秧": 3008,
      "积": 3009,
      "称": 3010,
      "移": 3011,
      "程": 3012,
      "稍": 3013,
      "税": 3014,
      "稚": 3015,
      "種": 3016,
      "稱": 3017,
      "稲": 3018,
      "稳": 3019,
      "稼": 3020,
      "稿": 3021,
      "穂": 3022,
      "穌": 3023,
      "積": 3024,
      "穩": 3025,
      "穫": 3026,
      "穴": 3027,
      "究": 3028,
      "穷": 3029,
      "空": 3030,
      "穿": 3031,
      "突": 3032,
      "窃": 3033,
      "窗": 3034,
      "窝": 3035,
      "窠": 3036,
      "窮": 3037,
      "窰": 3038,
      "立": 3039,
      "竖": 3040,
      "站": 3041,
      "竞": 3042,
      "章": 3043,
      "童": 3044,
      "端": 3045,
      "竹": 3046,
      "笃": 3047,
      "笑": 3048,
      "笔": 3049,
      "笛": 3050,
      "笠": 3051,
      "符": 3052,
      "第": 3053,
      "笼": 3054,
      "等": 3055,
      "筑": 3056,
      "筒": 3057,
      "答": 3058,
      "策": 3059,
      "筘": 3060,
      "筮": 3061,
      "签": 3062,
      "简": 3063,
      "算": 3064,
      "管": 3065,
      "箩": 3066,
      "箫": 3067,
      "箭": 3068,
      "箱": 3069,
      "節": 3070,
      "範": 3071,
      "篇": 3072,
      "簡": 3073,
      "簸": 3074,
      "簽": 3075,
      "籍": 3076,
      "米": 3077,
      "类": 3078,
      "籽": 3079,
      "粉": 3080,
      "粒": 3081,
      "粮": 3082,
      "精": 3083,
      "糕": 3084,
      "糖": 3085,
      "糟": 3086,
      "糧": 3087,
      "系": 3088,
      "紀": 3089,
      "約": 3090,
      "紅": 3091,
      "紊": 3092,
      "納": 3093,
      "純": 3094,
      "紙": 3095,
      "級": 3096,
      "素": 3097,
      "索": 3098,
      "紫": 3099,
      "細": 3100,
      "終": 3101,
      "組": 3102,
      "絆": 3103,
      "経": 3104,
      "結": 3105,
      "絕": 3106,
      "絡": 3107,
      "給": 3108,
      "統": 3109,
      "絶": 3110,
      "經": 3111,
      "続": 3112,
      "綜": 3113,
      "綠": 3114,
      "維": 3115,
      "網": 3116,
      "緊": 3117,
      "総": 3118,
      "線": 3119,
      "緣": 3120,
      "編": 3121,
      "練": 3122,
      "縁": 3123,
      "縮": 3124,
      "總": 3125,
      "織": 3126,
      "繫": 3127,
      "繰": 3128,
      "繼": 3129,
      "續": 3130,
      "红": 3131,
      "约": 3132,
      "级": 3133,
      "纯": 3134,
      "纱": 3135,
      "纲": 3136,
      "纳": 3137,
      "纵": 3138,
      "纸": 3139,
      "纺": 3140,
      "线": 3141,
      "练": 3142,
      "组": 3143,
      "细": 3144,
      "织": 3145,
      "终": 3146,
      "经": 3147,
      "结": 3148,
      "绕": 3149,
      "绘": 3150,
      "给": 3151,
      "络": 3152,
      "绝": 3153,
      "统": 3154,
      "继": 3155,
      "续": 3156,
      "绯": 3157,
      "绳": 3158,
      "维": 3159,
      "绵": 3160,
      "综": 3161,
      "绿": 3162,
      "缓": 3163,
      "缔": 3164,
      "编": 3165,
      "缘": 3166,
      "缩": 3167,
      "缶": 3168,
      "缺": 3169,
      "网": 3170,
      "罕": 3171,
      "罗": 3172,
      "罚": 3173,
      "罩": 3174,
      "罪": 3175,
      "置": 3176,
      "罰": 3177,
      "署": 3178,
      "罵": 3179,
      "罹": 3180,
      "羅": 3181,
      "羊": 3182,
      "美": 3183,
      "羔": 3184,
      "羡": 3185,
      "群": 3186,
      "義": 3187,
      "羽": 3188,
      "翎": 3189,
      "習": 3190,
      "翘": 3191,
      "翻": 3192,
      "老": 3193,
      "考": 3194,
      "者": 3195,
      "而": 3196,
      "耳": 3197,
      "耶": 3198,
      "耻": 3199,
      "聆": 3200,
      "聊": 3201,
      "职": 3202,
      "联": 3203,
      "聖": 3204,
      "聚": 3205,
      "聞": 3206,
      "聡": 3207,
      "聯": 3208,
      "聰": 3209,
      "職": 3210,
      "聽": 3211,
      "肉": 3212,
      "肖": 3213,
      "肚": 3214,
      "肠": 3215,
      "股": 3216,
      "肤": 3217,
      "肥": 3218,
      "肯": 3219,
      "育": 3220,
      "肺": 3221,
      "肾": 3222,
      "胁": 3223,
      "胃": 3224,
      "胆": 3225,
      "背": 3226,
      "胎": 3227,
      "胖": 3228,
      "胜": 3229,
      "胡": 3230,
      "胺": 3231,
      "能": 3232,
      "脅": 3233,
      "脆": 3234,
      "脈": 3235,
      "脍": 3236,
      "脏": 3237,
      "脐": 3238,
      "脑": 3239,
      "脚": 3240,
      "脫": 3241,
      "脱": 3242,
      "脸": 3243,
      "脾": 3244,
      "腐": 3245,
      "腦": 3246,
      "腫": 3247,
      "腮": 3248,
      "腰": 3249,
      "腺": 3250,
      "腾": 3251,
      "臣": 3252,
      "臨": 3253,
      "自": 3254,
      "臭": 3255,
      "至": 3256,
      "致": 3257,
      "臼": 3258,
      "舆": 3259,
      "與": 3260,
      "興": 3261,
      "舉": 3262,
      "舊": 3263,
      "舌": 3264,
      "舍": 3265,
      "舒": 3266,
      "舔": 3267,
      "舘": 3268,
      "舞": 3269,
      "舟": 3270,
      "航": 3271,
      "般": 3272,
      "舰": 3273,
      "船": 3274,
      "艇": 3275,
      "艘": 3276,
      "良": 3277,
      "色": 3278,
      "艺": 3279,
      "艾": 3280,
      "节": 3281,
      "芒": 3282,
      "芝": 3283,
      "芫": 3284,
      "芬": 3285,
      "芯": 3286,
      "花": 3287,
      "芳": 3288,
      "苏": 3289,
      "苗": 3290,
      "苞": 3291,
      "若": 3292,
      "苦": 3293,
      "英": 3294,
      "范": 3295,
      "茨": 3296,
      "茫": 3297,
      "茲": 3298,
      "茶": 3299,
      "草": 3300,
      "荐": 3301,
      "荒": 3302,
      "荡": 3303,
      "荣": 3304,
      "荷": 3305,
      "荽": 3306,
      "莫": 3307,
      "莲": 3308,
      "获": 3309,
      "菁": 3310,
      "菌": 3311,
      "菜": 3312,
      "菠": 3313,
      "華": 3314,
      "菱": 3315,
      "菲": 3316,
      "萄": 3317,
      "萍": 3318,
      "萝": 3319,
      "营": 3320,
      "萧": 3321,
      "萬": 3322,
      "落": 3323,
      "葉": 3324,
      "著": 3325,
      "葛": 3326,
      "葡": 3327,
      "董": 3328,
      "葬": 3329,
      "蒂": 3330,
      "蒋": 3331,
      "蒙": 3332,
      "蒸": 3333,
      "蓄": 3334,
      "蓋": 3335,
      "蓝": 3336,
      "蔡": 3337,
      "蔣": 3338,
      "蔬": 3339,
      "蔵": 3340,
      "蔻": 3341,
      "蔽": 3342,
      "蕭": 3343,
      "蕴": 3344,
      "薄": 3345,
      "薯": 3346,
      "藍": 3347,
      "藏": 3348,
      "藤": 3349,
      "蘅": 3350,
      "蘭": 3351,
      "虎": 3352,
      "虐": 3353,
      "虑": 3354,
      "處": 3355,
      "虚": 3356,
      "虛": 3357,
      "號": 3358,
      "虹": 3359,
      "虽": 3360,
      "虾": 3361,
      "蛇": 3362,
      "蛋": 3363,
      "蜀": 3364,
      "蜂": 3365,
      "蜜": 3366,
      "蜷": 3367,
      "融": 3368,
      "螺": 3369,
      "血": 3370,
      "衆": 3371,
      "行": 3372,
      "衍": 3373,
      "術": 3374,
      "衔": 3375,
      "街": 3376,
      "衛": 3377,
      "衝": 3378,
      "衡": 3379,
      "衣": 3380,
      "补": 3381,
      "表": 3382,
      "衰": 3383,
      "衷": 3384,
      "袈": 3385,
      "袋": 3386,
      "袍": 3387,
      "被": 3388,
      "裂": 3389,
      "装": 3390,
      "裆": 3391,
      "裏": 3392,
      "裘": 3393,
      "裙": 3394,
      "補": 3395,
      "裳": 3396,
      "製": 3397,
      "襲": 3398,
      "西": 3399,
      "要": 3400,
      "覆": 3401,
      "見": 3402,
      "規": 3403,
      "視": 3404,
      "親": 3405,
      "観": 3406,
      "覺": 3407,
      "觀": 3408,
      "见": 3409,
      "观": 3410,
      "规": 3411,
      "视": 3412,
      "览": 3413,
      "觉": 3414,
      "角": 3415,
      "解": 3416,
      "触": 3417,
      "觸": 3418,
      "言": 3419,
      "計": 3420,
      "討": 3421,
      "訓": 3422,
      "託": 3423,
      "記": 3424,
      "訟": 3425,
      "訪": 3426,
      "設": 3427,
      "許": 3428,
      "訴": 3429,
      "診": 3430,
      "証": 3431,
      "評": 3432,
      "試": 3433,
      "詰": 3434,
      "話": 3435,
      "該": 3436,
      "詳": 3437,
      "誉": 3438,
      "誌": 3439,
      "認": 3440,
      "誓": 3441,
      "語": 3442,
      "誠": 3443,
      "誤": 3444,
      "說": 3445,
      "説": 3446,
      "読": 3447,
      "誰": 3448,
      "課": 3449,
      "調": 3450,
      "談": 3451,
      "請": 3452,
      "論": 3453,
      "諭": 3454,
      "諮": 3455,
      "諸": 3456,
      "謀": 3457,
      "講": 3458,
      "謝": 3459,
      "謹": 3460,
      "證": 3461,
      "識": 3462,
      "警": 3463,
      "譯": 3464,
      "議": 3465,
      "護": 3466,
      "譽": 3467,
      "讀": 3468,
      "變": 3469,
      "讓": 3470,
      "计": 3471,
      "认": 3472,
      "讨": 3473,
      "让": 3474,
      "训": 3475,
      "议": 3476,
      "讯": 3477,
      "记": 3478,
      "讲": 3479,
      "许": 3480,
      "论": 3481,
      "讼": 3482,
      "设": 3483,
      "访": 3484,
      "诀": 3485,
      "证": 3486,
      "诃": 3487,
      "评": 3488,
      "识": 3489,
      "诉": 3490,
      "词": 3491,
      "诏": 3492,
      "译": 3493,
      "试": 3494,
      "话": 3495,
      "诞": 3496,
      "询": 3497,
      "该": 3498,
      "诫": 3499,
      "语": 3500,
      "误": 3501,
      "诱": 3502,
      "说": 3503,
      "请": 3504,
      "诺": 3505,
      "读": 3506,
      "谁": 3507,
      "调": 3508,
      "谈": 3509,
      "谋": 3510,
      "谍": 3511,
      "谓": 3512,
      "谛": 3513,
      "谜": 3514,
      "谢": 3515,
      "谣": 3516,
      "谭": 3517,
      "谴": 3518,
      "谷": 3519,
      "豁": 3520,
      "豆": 3521,
      "豐": 3522,
      "豚": 3523,
      "象": 3524,
      "豫": 3525,
      "負": 3526,
      "財": 3527,
      "貢": 3528,
      "貧": 3529,
      "貨": 3530,
      "販": 3531,
      "貫": 3532,
      "責": 3533,
      "貯": 3534,
      "貴": 3535,
      "買": 3536,
      "貸": 3537,
      "費": 3538,
      "賀": 3539,
      "資": 3540,
      "賊": 3541,
      "賢": 3542,
      "賦": 3543,
      "質": 3544,
      "賬": 3545,
      "賭": 3546,
      "賴": 3547,
      "賺": 3548,
      "購": 3549,
      "贈": 3550,
      "贏": 3551,
      "负": 3552,
      "贡": 3553,
      "财": 3554,
      "责": 3555,
      "贤": 3556,
      "败": 3557,
      "账": 3558,
      "货": 3559,
      "质": 3560,
      "贪": 3561,
      "贫": 3562,
      "购": 3563,
      "贮": 3564,
      "贯": 3565,
      "贵": 3566,
      "贸": 3567,
      "费": 3568,
      "贺": 3569,
      "资": 3570,
      "赋": 3571,
      "赌": 3572,
      "赎": 3573,
      "赖": 3574,
      "赚": 3575,
      "赝": 3576,
      "赠": 3577,
      "赢": 3578,
      "赤": 3579,
      "赦": 3580,
      "走": 3581,
      "赴": 3582,
      "赵": 3583,
      "起": 3584,
      "超": 3585,
      "越": 3586,
      "趋": 3587,
      "趙": 3588,
      "趣": 3589,
      "足": 3590,
      "趴": 3591,
      "跃": 3592,
      "跌": 3593,
      "跑": 3594,
      "跟": 3595,
      "跨": 3596,
      "跪": 3597,
      "路": 3598,
      "跳": 3599,
      "践": 3600,
      "踏": 3601,
      "踐": 3602,
      "踪": 3603,
      "身": 3604,
      "躯": 3605,
      "躲": 3606,
      "車": 3607,
      "軍": 3608,
      "軒": 3609,
      "軽": 3610,
      "較": 3611,
      "載": 3612,
      "輔": 3613,
      "輝": 3614,
      "輪": 3615,
      "輸": 3616,
      "轉": 3617,
      "轟": 3618,
      "车": 3619,
      "轨": 3620,
      "转": 3621,
      "轮": 3622,
      "软": 3623,
      "轴": 3624,
      "轻": 3625,
      "载": 3626,
      "较": 3627,
      "辆": 3628,
      "辉": 3629,
      "辑": 3630,
      "输": 3631,
      "辙": 3632,
      "辛": 3633,
      "辞": 3634,
      "辟": 3635,
      "辣": 3636,
      "辦": 3637,
      "辨": 3638,
      "農": 3639,
      "边": 3640,
      "辺": 3641,
      "込": 3642,
      "达": 3643,
      "迂": 3644,
      "迅": 3645,
      "过": 3646,
      "迎": 3647,
      "运": 3648,
      "近": 3649,
      "返": 3650,
      "还": 3651,
      "这": 3652,
      "进": 3653,
      "远": 3654,
      "违": 3655,
      "连": 3656,
      "迪": 3657,
      "迫": 3658,
      "述": 3659,
      "迷": 3660,
      "追": 3661,
      "退": 3662,
      "送": 3663,
      "适": 3664,
      "逆": 3665,
      "选": 3666,
      "透": 3667,
      "逐": 3668,
      "递": 3669,
      "途": 3670,
      "逗": 3671,
      "這": 3672,
      "通": 3673,
      "速": 3674,
      "造": 3675,
      "連": 3676,
      "週": 3677,
      "進": 3678,
      "逾": 3679,
      "遅": 3680,
      "遇": 3681,
      "遊": 3682,
      "運": 3683,
      "遍": 3684,
      "過": 3685,
      "道": 3686,
      "達": 3687,
      "違": 3688,
      "遗": 3689,
      "遙": 3690,
      "遞": 3691,
      "遠": 3692,
      "適": 3693,
      "遭": 3694,
      "選": 3695,
      "避": 3696,
      "邀": 3697,
      "邃": 3698,
      "還": 3699,
      "邊": 3700,
      "邓": 3701,
      "那": 3702,
      "邦": 3703,
      "邮": 3704,
      "邻": 3705,
      "郁": 3706,
      "郊": 3707,
      "郎": 3708,
      "郑": 3709,
      "郡": 3710,
      "部": 3711,
      "郭": 3712,
      "郵": 3713,
      "都": 3714,
      "鄉": 3715,
      "配": 3716,
      "酬": 3717,
      "酱": 3718,
      "酶": 3719,
      "酸": 3720,
      "醍": 3721,
      "醒": 3722,
      "醜": 3723,
      "醫": 3724,
      "采": 3725,
      "释": 3726,
      "釋": 3727,
      "里": 3728,
      "重": 3729,
      "野": 3730,
      "量": 3731,
      "金": 3732,
      "針": 3733,
      "鉄": 3734,
      "鉢": 3735,
      "鉴": 3736,
      "銀": 3737,
      "銮": 3738,
      "鋼": 3739,
      "錄": 3740,
      "錢": 3741,
      "鍵": 3742,
      "鐘": 3743,
      "鐵": 3744,
      "鑒": 3745,
      "鑫": 3746,
      "针": 3747,
      "钉": 3748,
      "钟": 3749,
      "钥": 3750,
      "钱": 3751,
      "钵": 3752,
      "钻": 3753,
      "铁": 3754,
      "铃": 3755,
      "铛": 3756,
      "银": 3757,
      "链": 3758,
      "销": 3759,
      "锁": 3760,
      "锅": 3761,
      "错": 3762,
      "锣": 3763,
      "锦": 3764,
      "键": 3765,
      "镇": 3766,
      "镜": 3767,
      "镰": 3768,
      "長": 3769,
      "长": 3770,
      "門": 3771,
      "開": 3772,
      "間": 3773,
      "関": 3774,
      "閣": 3775,
      "閱": 3776,
      "關": 3777,
      "门": 3778,
      "闫": 3779,
      "闭": 3780,
      "问": 3781,
      "闯": 3782,
      "闲": 3783,
      "间": 3784,
      "闺": 3785,
      "闻": 3786,
      "阁": 3787,
      "阅": 3788,
      "阎": 3789,
      "阔": 3790,
      "阙": 3791,
      "阜": 3792,
      "队": 3793,
      "阱": 3794,
      "防": 3795,
      "阳": 3796,
      "阴": 3797,
      "阵": 3798,
      "阶": 3799,
      "阻": 3800,
      "阿": 3801,
      "附": 3802,
      "际": 3803,
      "陆": 3804,
      "陈": 3805,
      "降": 3806,
      "限": 3807,
      "院": 3808,
      "除": 3809,
      "险": 3810,
      "陪": 3811,
      "陵": 3812,
      "陷": 3813,
      "陸": 3814,
      "険": 3815,
      "陽": 3816,
      "隅": 3817,
      "隆": 3818,
      "隈": 3819,
      "隊": 3820,
      "階": 3821,
      "随": 3822,
      "隐": 3823,
      "隔": 3824,
      "際": 3825,
      "障": 3826,
      "隠": 3827,
      "隧": 3828,
      "隨": 3829,
      "險": 3830,
      "隱": 3831,
      "隸": 3832,
      "隻": 3833,
      "难": 3834,
      "雀": 3835,
      "雄": 3836,
      "雅": 3837,
      "集": 3838,
      "雌": 3839,
      "雑": 3840,
      "雖": 3841,
      "雚": 3842,
      "離": 3843,
      "難": 3844,
      "雨": 3845,
      "雪": 3846,
      "雲": 3847,
      "零": 3848,
      "雷": 3849,
      "電": 3850,
      "需": 3851,
      "震": 3852,
      "霊": 3853,
      "霍": 3854,
      "露": 3855,
      "霸": 3856,
      "霹": 3857,
      "靂": 3858,
      "青": 3859,
      "靖": 3860,
      "静": 3861,
      "非": 3862,
      "靠": 3863,
      "面": 3864,
      "革": 3865,
      "韋": 3866,
      "韩": 3867,
      "音": 3868,
      "響": 3869,
      "頂": 3870,
      "項": 3871,
      "順": 3872,
      "須": 3873,
      "預": 3874,
      "頒": 3875,
      "領": 3876,
      "頭": 3877,
      "頼": 3878,
      "題": 3879,
      "額": 3880,
      "願": 3881,
      "顛": 3882,
      "類": 3883,
      "顧": 3884,
      "页": 3885,
      "顶": 3886,
      "项": 3887,
      "顺": 3888,
      "顾": 3889,
      "顿": 3890,
      "预": 3891,
      "领": 3892,
      "颈": 3893,
      "频": 3894,
      "颗": 3895,
      "题": 3896,
      "風": 3897,
      "风": 3898,
      "飛": 3899,
      "飞": 3900,
      "食": 3901,
      "飯": 3902,
      "飾": 3903,
      "餃": 3904,
      "饮": 3905,
      "饰": 3906,
      "馆": 3907,
      "馈": 3908,
      "首": 3909,
      "香": 3910,
      "馬": 3911,
      "馭": 3912,
      "駐": 3913,
      "駕": 3914,
      "騎": 3915,
      "騒": 3916,
      "験": 3917,
      "騙": 3918,
      "驗": 3919,
      "驚": 3920,
      "马": 3921,
      "驭": 3922,
      "驱": 3923,
      "驶": 3924,
      "驾": 3925,
      "骂": 3926,
      "验": 3927,
      "骑": 3928,
      "骗": 3929,
      "骨": 3930,
      "骷": 3931,
      "骼": 3932,
      "髏": 3933,
      "髓": 3934,
      "體": 3935,
      "高": 3936,
      "鬼": 3937,
      "魂": 3938,
      "魅": 3939,
      "魔": 3940,
      "魯": 3941,
      "鮮": 3942,
      "鱼": 3943,
      "鲁": 3944,
      "鲍": 3945,
      "鲫": 3946,
      "鳥": 3947,
      "鶏": 3948,
      "鶴": 3949,
      "鷹": 3950,
      "鸟": 3951,
      "鸡": 3952,
      "鸣": 3953,
      "鸦": 3954,
      "鸾": 3955,
      "鹊": 3956,
      "鹤": 3957,
      "鹰": 3958,
      "鹿": 3959,
      "麒": 3960,
      "麟": 3961,
      "麦": 3962,
      "麻": 3963,
      "麼": 3964,
      "黃": 3965,
      "黄": 3966,
      "黎": 3967,
      "黑": 3968,
      "默": 3969,
      "點": 3970,
      "黨": 3971,
      "鼎": 3972,
      "鼓": 3973,
      "鼠": 3974,
      "齐": 3975,
      "齿": 3976,
      "龙": 3977,
      "龟": 3978,
      "": 3979,
      "": 3980,
      "": 3981,
      "": 3982,
      "": 3983,
      "": 3984,
      "": 3985,
      "": 3986,
      "": 3987,
      "": 3988,
      "": 3989,
      "": 3990,
      "": 3991,
      "": 3992,
      "": 3993,
      "": 3994,
      "": 3995,
      "": 3996,
      "": 3997,
      "": 3998,
      "": 3999,
      "": 4000,
      "": 4001,
      "": 4002,
      "": 4003,
      "": 4004,
      "": 4005,
      "": 4006,
      "": 4007,
      "": 4008,
      "": 4009,
      "": 4010,
      "": 4011,
      "": 4012,
      "": 4013,
      "": 4014,
      "": 4015,
      "": 4016,
      "": 4017,
      "": 4018,
      "": 4019,
      "": 4020,
      "": 4021,
      "": 4022,
      "": 4023,
      "": 4024,
      "": 4025,
      "": 4026,
      "": 4027,
      "": 4028,
      "": 4029,
      "": 4030,
      "": 4031,
      "": 4032,
      "": 4033,
      "": 4034,
      "": 4035,
      "": 4036,
      "": 4037,
      "": 4038,
      "": 4039,
      "": 4040,
      "": 4041,
      "ﬀ": 4042,
      "ﬁ": 4043,
      "ﬂ": 4044,
      "ﬃ": 4045,
      "ﷺ": 4046,
      "︎": 4047,
      "️": 4048,
      "﹏": 4049,
      "ﺀ": 4050,
      "ﺁ": 4051,
      "ﺃ": 4052,
      "ﺇ": 4053,
      "ﺍ": 4054,
      "ﺎ": 4055,
      "ﺑ": 4056,
      "ﺒ": 4057,
      "ﺓ": 4058,
      "ﺔ": 4059,
      "ﺕ": 4060,
      "ﺖ": 4061,
      "ﺗ": 4062,
      "ﺘ": 4063,
      "ﺚ": 4064,
      "ﺜ": 4065,
      "ﺝ": 4066,
      "ﺟ": 4067,
      "ﺠ": 4068,
      "ﺣ": 4069,
      "ﺤ": 4070,
      "ﺧ": 4071,
      "ﺨ": 4072,
      "ﺩ": 4073,
      "ﺪ": 4074,
      "ﺬ": 4075,
      "ﺭ": 4076,
      "ﺮ": 4077,
      "ﺳ": 4078,
      "ﺴ": 4079,
      "ﺶ": 4080,
      "ﺷ": 4081,
      "ﺸ": 4082,
      "ﺺ": 4083,
      "ﺻ": 4084,
      "ﺿ": 4085,
      "ﻁ": 4086,
      "ﻂ": 4087,
      "ﻃ": 4088,
      "ﻄ": 4089,
      "ﻋ": 4090,
      "ﻌ": 4091,
      "ﻏ": 4092,
      "ﻑ": 4093,
      "ﻒ": 4094,
      "ﻓ": 4095,
      "ﻔ": 4096,
      "ﻕ": 4097,
      "ﻗ": 4098,
      "ﻘ": 4099,
      "ﻛ": 4100,
      "ﻜ": 4101,
      "ﻝ": 4102,
      "ﻞ": 4103,
      "ﻟ": 4104,
      "ﻠ": 4105,
      "ﻢ": 4106,
      "ﻣ": 4107,
      "ﻤ": 4108,
      "ﻥ": 4109,
      "ﻦ": 4110,
      "ﻧ": 4111,
      "ﻨ": 4112,
      "ﻩ": 4113,
      "ﻪ": 4114,
      "ﻫ": 4115,
      "ﻬ": 4116,
      "ﻭ": 4117,
      "ﻮ": 4118,
      "ﻰ": 4119,
      "ﻱ": 4120,
      "ﻲ": 4121,
      "ﻳ": 4122,
      "ﻴ": 4123,
      "ﻵ": 4124,
      "ﻷ": 4125,
      "ﻹ": 4126,
      "ﻼ": 4127,
      "﻿": 4128,
      "！": 4129,
      "＆": 4130,
      "（": 4131,
      "）": 4132,
      "＋": 4133,
      "，": 4134,
      "－": 4135,
      "／": 4136,
      "０": 4137,
      "１": 4138,
      "２": 4139,
      "３": 4140,
      "４": 4141,
      "５": 4142,
      "６": 4143,
      "７": 4144,
      "８": 4145,
      "９": 4146,
      "：": 4147,
      "；": 4148,
      "＜": 4149,
      "＞": 4150,
      "？": 4151,
      "Ａ": 4152,
      "Ｂ": 4153,
      "Ｃ": 4154,
      "Ｄ": 4155,
      "Ｆ": 4156,
      "Ｈ": 4157,
      "Ｊ": 4158,
      "Ｍ": 4159,
      "Ｏ": 4160,
      "Ｐ": 4161,
      "Ｓ": 4162,
      "Ｗ": 4163,
      "＼": 4164,
      "ｂ": 4165,
      "ｅ": 4166,
      "ｇ": 4167,
      "ｈ": 4168,
      "ｉ": 4169,
      "ｋ": 4170,
      "ｑ": 4171,
      "ｓ": 4172,
      "～": 4173,
      "｡": 4174,
      "･": 4175,
      "ﾒ": 4176,
      "ﾖ": 4177,
      "ﾟ": 4178,
      "￡": 4179,
      "￼": 4180,
      "�": 4181,
      "𐃿": 4182,
      "𐡍": 4183,
      "𝒂": 4184,
      "𝒉": 4185,
      "𝒕": 4186,
      "🆘": 4187,
      "🆙": 4188,
      "🇦": 4189,
      "🇧": 4190,
      "🇨": 4191,
      "🇩": 4192,
      "🇪": 4193,
      "🇫": 4194,
      "🇬": 4195,
      "🇮": 4196,
      "🇯": 4197,
      "🇰": 4198,
      "🇱": 4199,
      "🇲": 4200,
      "🇳": 4201,
      "🇴": 4202,
      "🇵": 4203,
      "🇶": 4204,
      "🇷": 4205,
      "🇸": 4206,
      "🇹": 4207,
      "🇺": 4208,
      "🇻": 4209,
      "🇼": 4210,
      "🇽": 4211,
      "🇾": 4212,
      "🇿": 4213,
      "🌀": 4214,
      "🌄": 4215,
      "🌈": 4216,
      "🌊": 4217,
      "🌍": 4218,
      "🌎": 4219,
      "🌏": 4220,
      "🌐": 4221,
      "🌙": 4222,
      "🌞": 4223,
      "🌟": 4224,
      "🌧": 4225,
      "🌩": 4226,
      "🌪": 4227,
      "🌬": 4228,
      "🌮": 4229,
      "🌲": 4230,
      "🌴": 4231,
      "🌵": 4232,
      "🌶": 4233,
      "🌷": 4234,
      "🌸": 4235,
      "🌹": 4236,
      "🌺": 4237,
      "🌻": 4238,
      "🌼": 4239,
      "🌽": 4240,
      "🌿": 4241,
      "🍀": 4242,
      "🍁": 4243,
      "🍂": 4244,
      "🍃": 4245,
      "🍄": 4246,
      "🍆": 4247,
      "🍇": 4248,
      "🍉": 4249,
      "🍊": 4250,
      "🍋": 4251,
      "🍍": 4252,
      "🍎": 4253,
      "🍑": 4254,
      "🍒": 4255,
      "🍓": 4256,
      "🍔": 4257,
      "🍕": 4258,
      "🍝": 4259,
      "🍦": 4260,
      "🍩": 4261,
      "🍫": 4262,
      "🍭": 4263,
      "🍰": 4264,
      "🍳": 4265,
      "🍴": 4266,
      "🍵": 4267,
      "🍷": 4268,
      "🍸": 4269,
      "🍹": 4270,
      "🍺": 4271,
      "🍻": 4272,
      "🍼": 4273,
      "🍾": 4274,
      "🍿": 4275,
      "🎀": 4276,
      "🎁": 4277,
      "🎂": 4278,
      "🎃": 4279,
      "🎄": 4280,
      "🎅": 4281,
      "🎆": 4282,
      "🎈": 4283,
      "🎉": 4284,
      "🎊": 4285,
      "🎙": 4286,
      "🎟": 4287,
      "🎠": 4288,
      "🎤": 4289,
      "🎥": 4290,
      "🎧": 4291,
      "🎩": 4292,
      "🎬": 4293,
      "🎮": 4294,
      "🎯": 4295,
      "🎵": 4296,
      "🎶": 4297,
      "🎸": 4298,
      "🎾": 4299,
      "🏀": 4300,
      "🏆": 4301,
      "🏈": 4302,
      "🏋": 4303,
      "🏍": 4304,
      "🏏": 4305,
      "🏒": 4306,
      "🏔": 4307,
      "🏚": 4308,
      "🏡": 4309,
      "🏰": 4310,
      "🏳": 4311,
      "🏴": 4312,
      "🏻": 4313,
      "🏼": 4314,
      "🏽": 4315,
      "🏾": 4316,
      "🏿": 4317,
      "🐀": 4318,
      "🐂": 4319,
      "🐃": 4320,
      "🐇": 4321,
      "🐉": 4322,
      "🐍": 4323,
      "🐐": 4324,
      "🐓": 4325,
      "🐔": 4326,
      "🐕": 4327,
      "🐗": 4328,
      "🐘": 4329,
      "🐙": 4330,
      "🐝": 4331,
      "🐟": 4332,
      "🐢": 4333,
      "🐣": 4334,
      "🐥": 4335,
      "🐦": 4336,
      "🐧": 4337,
      "🐬": 4338,
      "🐮": 4339,
      "🐯": 4340,
      "🐰": 4341,
      "🐱": 4342,
      "🐶": 4343,
      "🐷": 4344,
      "🐸": 4345,
      "🐺": 4346,
      "🐻": 4347,
      "🐼": 4348,
      "🐿": 4349,
      "👀": 4350,
      "👁": 4351,
      "👃": 4352,
      "👅": 4353,
      "👆": 4354,
      "👇": 4355,
      "👈": 4356,
      "👉": 4357,
      "👊": 4358,
      "👋": 4359,
      "👌": 4360,
      "👍": 4361,
      "👎": 4362,
      "👏": 4363,
      "👐": 4364,
      "👑": 4365,
      "👒": 4366,
      "👓": 4367,
      "👙": 4368,
      "👟": 4369,
      "👠": 4370,
      "👦": 4371,
      "👧": 4372,
      "👨": 4373,
      "👩": 4374,
      "👪": 4375,
      "👫": 4376,
      "👬": 4377,
      "👮": 4378,
      "👯": 4379,
      "👱": 4380,
      "👶": 4381,
      "👸": 4382,
      "👹": 4383,
      "👺": 4384,
      "👻": 4385,
      "👽": 4386,
      "💀": 4387,
      "💁": 4388,
      "💃": 4389,
      "💄": 4390,
      "💅": 4391,
      "💋": 4392,
      "💌": 4393,
      "💍": 4394,
      "💎": 4395,
      "💓": 4396,
      "💔": 4397,
      "💕": 4398,
      "💖": 4399,
      "💗": 4400,
      "💘": 4401,
      "💙": 4402,
      "💚": 4403,
      "💛": 4404,
      "💜": 4405,
      "💝": 4406,
      "💞": 4407,
      "💡": 4408,
      "💣": 4409,
      "💥": 4410,
      "💦": 4411,
      "💩": 4412,
      "💪": 4413,
      "💫": 4414,
      "💬": 4415,
      "💯": 4416,
      "💰": 4417,
      "💳": 4418,
      "💸": 4419,
      "💽": 4420,
      "📈": 4421,
      "📎": 4422,
      "📓": 4423,
      "📚": 4424,
      "📜": 4425,
      "📞": 4426,
      "📡": 4427,
      "📢": 4428,
      "📣": 4429,
      "📰": 4430,
      "📱": 4431,
      "📷": 4432,
      "📸": 4433,
      "📹": 4434,
      "📺": 4435,
      "🔆": 4436,
      "🔊": 4437,
      "🔋": 4438,
      "🔍": 4439,
      "🔎": 4440,
      "🔑": 4441,
      "🔒": 4442,
      "🔓": 4443,
      "🔔": 4444,
      "🔝": 4445,
      "🔥": 4446,
      "🔧": 4447,
      "🔪": 4448,
      "🔫": 4449,
      "🔮": 4450,
      "🔴": 4451,
      "🔵": 4452,
      "🔹": 4453,
      "🕀": 4454,
      "🕊": 4455,
      "🕵": 4456,
      "🕶": 4457,
      "🕷": 4458,
      "🕹": 4459,
      "🖇": 4460,
      "🖕": 4461,
      "🖖": 4462,
      "🖥": 4463,
      "🖱": 4464,
      "🗞": 4465,
      "🗣": 4466,
      "🗳": 4467,
      "🗺": 4468,
      "🗽": 4469,
      "🗿": 4470,
      "😀": 4471,
      "😁": 4472,
      "😂": 4473,
      "😃": 4474,
      "😄": 4475,
      "😅": 4476,
      "😆": 4477,
      "😇": 4478,
      "😈": 4479,
      "😉": 4480,
      "😊": 4481,
      "😋": 4482,
      "😌": 4483,
      "😍": 4484,
      "😎": 4485,
      "😏": 4486,
      "😐": 4487,
      "😑": 4488,
      "😒": 4489,
      "😓": 4490,
      "😔": 4491,
      "😕": 4492,
      "😖": 4493,
      "😘": 4494,
      "😛": 4495,
      "😜": 4496,
      "😝": 4497,
      "😞": 4498,
      "😠": 4499,
      "😡": 4500,
      "😢": 4501,
      "😣": 4502,
      "😤": 4503,
      "😥": 4504,
      "😦": 4505,
      "😩": 4506,
      "😫": 4507,
      "😬": 4508,
      "😭": 4509,
      "😮": 4510,
      "😰": 4511,
      "😱": 4512,
      "😲": 4513,
      "😳": 4514,
      "😴": 4515,
      "😷": 4516,
      "😹": 4517,
      "😺": 4518,
      "😻": 4519,
      "😼": 4520,
      "😿": 4521,
      "🙁": 4522,
      "🙂": 4523,
      "🙄": 4524,
      "🙅": 4525,
      "🙆": 4526,
      "🙇": 4527,
      "🙈": 4528,
      "🙉": 4529,
      "🙊": 4530,
      "🙋": 4531,
      "🙌": 4532,
      "🙏": 4533,
      "🚂": 4534,
      "🚓": 4535,
      "🚔": 4536,
      "🚗": 4537,
      "🚙": 4538,
      "🚝": 4539,
      "🚞": 4540,
      "🚟": 4541,
      "🚢": 4542,
      "🚣": 4543,
      "🚥": 4544,
      "🚦": 4545,
      "🚨": 4546,
      "🚫": 4547,
      "🚮": 4548,
      "🚶": 4549,
      "🚺": 4550,
      "🚽": 4551,
      "🛂": 4552,
      "🛃": 4553,
      "🛩": 4554,
      "🛫": 4555,
      "🛶": 4556,
      "🤐": 4557,
      "🤑": 4558,
      "🤓": 4559,
      "🤔": 4560,
      "🤗": 4561,
      "🤘": 4562,
      "🤙": 4563,
      "🤝": 4564,
      "🤠": 4565,
      "🤡": 4566,
      "🤣": 4567,
      "🤤": 4568,
      "🤦": 4569,
      "🤩": 4570,
      "🤮": 4571,
      "🤰": 4572,
      "🤶": 4573,
      "🤷": 4574,
      "🥀": 4575,
      "🥃": 4576,
      "🥄": 4577,
      "🥅": 4578,
      "🥈": 4579,
      "🥛": 4580,
      "🦀": 4581,
      "🦁": 4582,
      "🦂": 4583,
      "🦃": 4584,
      "🦄": 4585,
      "🦅": 4586,
      "🦍": 4587,
      "🧐": 4588,
      "🿿": 4589,
      "󠁢": 4590,
      "󠁣": 4591,
      "󠁧": 4592,
      "󠁬": 4593,
      "󠁳": 4594,
      "󠁴": 4595,
      "󠁷": 4596,
      "󠁿": 4597,
      "th": 4598,
      "in": 4599,
      "er": 4600,
      "an": 4601,
      "on": 4602,
      "the": 4603,
      "re": 4604,
      "at": 4605,
      "en": 4606,
      "or": 4607,
      "is": 4608,
      "al": 4609,
      "es": 4610,
      "ed": 4611,
      "ou": 4612,
      "to": 4613,
      "ing": 4614,
      "ar": 4615,
      "of": 4616,
      "as": 4617,
      "it": 4618,
      "and": 4619,
      "ic": 4620,
      "le": 4621,
      "st": 4622,
      "ion": 4623,
      "om": 4624,
      "ent": 4625,
      "he": 4626,
      "il": 4627,
      "se": 4628,
      "ac": 4629,
      "ad": 4630,
      "id": 4631,
      "be": 4632,
      "ve": 4633,
      "ly": 4634,
      "ro": 4635,
      "for": 4636,
      "am": 4637,
      "that": 4638,
      "ol": 4639,
      "wh": 4640,
      "ch": 4641,
      "ow": 4642,
      "im": 4643,
      "ter": 4644,
      "ay": 4645,
      "ig": 4646,
      "ver": 4647,
      "ot": 4648,
      "ation": 4649,
      "un": 4650,
      "ur": 4651,
      "ut": 4652,
      "ce": 4653,
      "are": 4654,
      "ir": 4655,
      "de": 4656,
      "ag": 4657,
      "us": 4658,
      "con": 4659,
      "ct": 4660,
      "et": 4661,
      "The": 4662,
      "ith": 4663,
      "ab": 4664,
      "ill": 4665,
      "res": 4666,
      "tr": 4667,
      "em": 4668,
      "el": 4669,
      "com": 4670,
      "su": 4671,
      "ha": 4672,
      "pe": 4673,
      "ne": 4674,
      "ers": 4675,
      "with": 4676,
      "li": 4677,
      "our": 4678,
      "ere": 4679,
      "op": 4680,
      "ld": 4681,
      "all": 4682,
      "ate": 4683,
      "ul": 4684,
      "mo": 4685,
      "pro": 4686,
      "ts": 4687,
      "ain": 4688,
      "fr": 4689,
      "lo": 4690,
      "was": 4691,
      "ke": 4692,
      "out": 4693,
      "est": 4694,
      "ment": 4695,
      "oun": 4696,
      "we": 4697,
      "by": 4698,
      "not": 4699,
      "ex": 4700,
      "his": 4701,
      "igh": 4702,
      "ap": 4703,
      "sh": 4704,
      "have": 4705,
      "one": 4706,
      "if": 4707,
      "so": 4708,
      "um": 4709,
      "ity": 4710,
      "po": 4711,
      "pl": 4712,
      "ther": 4713,
      "from": 4714,
      "ess": 4715,
      "art": 4716,
      "ould": 4717,
      "ri": 4718,
      "ew": 4719,
      "sa": 4720,
      "you": 4721,
      "has": 4722,
      "ies": 4723,
      "ive": 4724,
      "over": 4725,
      "ist": 4726,
      "this": 4727,
      "end": 4728,
      "up": 4729,
      "ial": 4730,
      "20": 4731,
      "por": 4732,
      "do": 4733,
      "ear": 4734,
      "ant": 4735,
      "qu": 4736,
      "ack": 4737,
      "od": 4738,
      "ust": 4739,
      "wor": 4740,
      "act": 4741,
      "In": 4742,
      "per": 4743,
      "cl": 4744,
      "bl": 4745,
      "gh": 4746,
      "who": 4747,
      "man": 4748,
      "ak": 4749,
      "ight": 4750,
      "au": 4751,
      "ast": 4752,
      "ans": 4753,
      "said": 4754,
      "they": 4755,
      "te": 4756,
      "ge": 4757,
      "pr": 4758,
      "der": 4759,
      "iv": 4760,
      "ome": 4761,
      "will": 4762,
      "mer": 4763,
      "gr": 4764,
      "Th": 4765,
      "ore": 4766,
      "ep": 4767,
      "me": 4768,
      "ard": 4769,
      "ran": 4770,
      "ich": 4771,
      "but": 4772,
      "ev": 4773,
      "ia": 4774,
      "ra": 4775,
      "ally": 4776,
      "their": 4777,
      "day": 4778,
      "ous": 4779,
      "ong": 4780,
      "can": 4781,
      "ough": 4782,
      "ary": 4783,
      "ind": 4784,
      "ber": 4785,
      "now": 4786,
      "ud": 4787,
      "oc": 4788,
      "ign": 4789,
      "off": 4790,
      "go": 4791,
      "ice": 4792,
      "ine": 4793,
      "port": 4794,
      "ions": 4795,
      "An": 4796,
      "ian": 4797,
      ".”": 4798,
      "red": 4799,
      "fe": 4800,
      "ide": 4801,
      "new": 4802,
      "more": 4803,
      "about": 4804,
      "..": 4805,
      "St": 4806,
      "ell": 4807,
      "ail": 4808,
      "ok": 4809,
      "ound": 4810,
      "iz": 4811,
      "its": 4812,
      "00": 4813,
      "ef": 4814,
      "af": 4815,
      "ass": 4816,
      "had": 4817,
      "which": 4818,
      "year": 4819,
      "age": 4820,
      "bo": 4821,
      "any": 4822,
      "ated": 4823,
      "New": 4824,
      "would": 4825,
      "no": 4826,
      "It": 4827,
      "tim": 4828,
      "pres": 4829,
      "ence": 4830,
      "dis": 4831,
      "ubl": 4832,
      "sc": 4833,
      "own": 4834,
      "int": 4835,
      "Ch": 4836,
      "la": 4837,
      "other": 4838,
      "ue": 4839,
      "vi": 4840,
      "sp": 4841,
      "ople": 4842,
      "been": 4843,
      "her": 4844,
      "were": 4845,
      "pol": 4846,
      "201": 4847,
      "Wh": 4848,
      "ure": 4849,
      "some": 4850,
      "ite": 4851,
      "ident": 4852,
      "ory": 4853,
      "cent": 4854,
      "ates": 4855,
      "ip": 4856,
      "comp": 4857,
      "ks": 4858,
      "uc": 4859,
      "ser": 4860,
      "like": 4861,
      "thing": 4862,
      "ical": 4863,
      "ations": 4864,
      "people": 4865,
      "ake": 4866,
      "ame": 4867,
      "way": 4868,
      "av": 4869,
      "He": 4870,
      "ase": 4871,
      "pre": 4872,
      "ire": 4873,
      "very": 4874,
      "ublic": 4875,
      "co": 4876,
      "ren": 4877,
      "Amer": 4878,
      "Americ": 4879,
      "able": 4880,
      "ish": 4881,
      "ace": 4882,
      "cr": 4883,
      "att": 4884,
      "inter": 4885,
      "get": 4886,
      "pos": 4887,
      "read": 4888,
      "ll": 4889,
      "cont": 4890,
      "ach": 4891,
      "than": 4892,
      "what": 4893,
      "ree": 4894,
      "Re": 4895,
      "Tr": 4896,
      "old": 4897,
      "part": 4898,
      "--": 4899,
      "coun": 4900,
      "cre": 4901,
      "med": 4902,
      "my": 4903,
      "ib": 4904,
      "them": 4905,
      "cor": 4906,
      "ho": 4907,
      "Iran": 4908,
      "Con": 4909,
      "lect": 4910,
      "there": 4911,
      "min": 4912,
      ",”": 4913,
      "Un": 4914,
      "''": 4915,
      "pt": 4916,
      "your": 4917,
      "ick": 4918,
      "br": 4919,
      "ance": 4920,
      "just": 4921,
      "ress": 4922,
      "ens": 4923,
      "when": 4924,
      "cur": 4925,
      "We": 4926,
      "work": 4927,
      "ors": 4928,
      "Is": 4929,
      "ile": 4930,
      "also": 4931,
      "fore": 4932,
      "time": 4933,
      "spe": 4934,
      "ump": 4935,
      "try": 4936,
      "overn": 4937,
      "wo": 4938,
      "ob": 4939,
      "ade": 4940,
      "str": 4941,
      "again": 4942,
      "fir": 4943,
      "ang": 4944,
      "low": 4945,
      "mar": 4946,
      "cial": 4947,
      "Mr": 4948,
      "enc": 4949,
      "19": 4950,
      "ose": 4951,
      "cau": 4952,
      "ition": 4953,
      "ama": 4954,
      "into": 4955,
      "ater": 4956,
      "know": 4957,
      "mon": 4958,
      "most": 4959,
      "ink": 4960,
      "say": 4961,
      "ty": 4962,
      "sy": 4963,
      "she": 4964,
      "uct": 4965,
      "But": 4966,
      "Ob": 4967,
      "fer": 4968,
      "after": 4969,
      "him": 4970,
      "ters": 4971,
      "cause": 4972,
      "form": 4973,
      "ning": 4974,
      "how": 4975,
      "ild": 4976,
      "og": 4977,
      "ult": 4978,
      "sub": 4979,
      "amp": 4980,
      "sel": 4981,
      "ict": 4982,
      "And": 4983,
      "This": 4984,
      "only": 4985,
      "row": 4986,
      "let": 4987,
      "govern": 4988,
      "As": 4989,
      "US": 4990,
      "ful": 4991,
      "back": 4992,
      "mis": 4993,
      "uss": 4994,
      "lear": 4995,
      "reg": 4996,
      "pp": 4997,
      "even": 4998,
      "add": 4999,
      "Trump": 5000,
      "under": 5001,
      "ie": 5002,
      "ck": 5003,
      "could": 5004,
      "vers": 5005,
      "nation": 5006,
      "os": 5007,
      "main": 5008,
      "Obama": 5009,
      "inv": 5010,
      "ry": 5011,
      "ited": 5012,
      "ents": 5013,
      "reat": 5014,
      "Ad": 5015,
      "two": 5016,
      "war": 5017,
      "leg": 5018,
      "call": 5019,
      "serv": 5020,
      "vel": 5021,
      "ating": 5022,
      "cess": 5023,
      "don": 5024,
      "come": 5025,
      "government": 5026,
      "many": 5027,
      "comm": 5028,
      "You": 5029,
      "des": 5030,
      "years": 5031,
      "alth": 5032,
      "rough": 5033,
      "ons": 5034,
      "ting": 5035,
      "where": 5036,
      "use": 5037,
      "fin": 5038,
      "IN": 5039,
      "because": 5040,
      "Rep": 5041,
      "see": 5042,
      "did": 5043,
      "Al": 5044,
      "200": 5045,
      "down": 5046,
      "first": 5047,
      "ash": 5048,
      "rit": 5049,
      "vis": 5050,
      "cer": 5051,
      "sup": 5052,
      "Se": 5053,
      "col": 5054,
      "bet": 5055,
      "fl": 5056,
      "air": 5057,
      "ins": 5058,
      "ious": 5059,
      "ст": 5060,
      "RE": 5061,
      "law": 5062,
      "...": 5063,
      "hel": 5064,
      "ual": 5065,
      "ph": 5066,
      "urn": 5067,
      "ement": 5068,
      "incl": 5069,
      "right": 5070,
      "illion": 5071,
      "ork": 5072,
      "ative": 5073,
      "gu": 5074,
      "ath": 5075,
      "being": 5076,
      "ci": 5077,
      "may": 5078,
      "ism": 5079,
      "und": 5080,
      "TH": 5081,
      "ven": 5082,
      "ving": 5083,
      "news": 5084,
      "ities": 5085,
      "oup": 5086,
      "ON": 5087,
      "against": 5088,
      "ener": 5089,
      "every": 5090,
      "cord": 5091,
      "through": 5092,
      "then": 5093,
      "ann": 5094,
      "ics": 5095,
      "ort": 5096,
      "those": 5097,
      "News": 5098,
      "last": 5099,
      "cho": 5100,
      "need": 5101,
      "ved": 5102,
      "mu": 5103,
      "these": 5104,
      "IS": 5105,
      "lead": 5106,
      "ists": 5107,
      "ied": 5108,
      "American": 5109,
      "high": 5110,
      "think": 5111,
      "world": 5112,
      "less": 5113,
      "Le": 5114,
      "rel": 5115,
      "story": 5116,
      "Republic": 5117,
      "Mar": 5118,
      "polit": 5119,
      "ments": 5120,
      "gan": 5121,
      "If": 5122,
      "ug": 5123,
      "Russ": 5124,
      "should": 5125,
      "lar": 5126,
      "Ar": 5127,
      "long": 5128,
      "tain": 5129,
      "prod": 5130,
      "ise": 5131,
      "par": 5132,
      "top": 5133,
      "resident": 5134,
      "ton": 5135,
      "uring": 5136,
      "je": 5137,
      "aking": 5138,
      "ble": 5139,
      "used": 5140,
      "ouse": 5141,
      "conom": 5142,
      "public": 5143,
      "10": 5144,
      "dec": 5145,
      "play": 5146,
      "bu": 5147,
      "well": 5148,
      "ever": 5149,
      "York": 5150,
      "ves": 5151,
      "stem": 5152,
      "wee": 5153,
      "land": 5154,
      "ces": 5155,
      "cut": 5156,
      "No": 5157,
      "tt": 5158,
      "й": 5159,
      "ings": 5160,
      "lease": 5161,
      "self": 5162,
      "AT": 5163,
      "want": 5164,
      "make": 5165,
      "ince": 5166,
      "mem": 5167,
      "offic": 5168,
      "tal": 5169,
      "state": 5170,
      "cond": 5171,
      "does": 5172,
      "made": 5173,
      "look": 5174,
      "ax": 5175,
      "pect": 5176,
      "ject": 5177,
      "ank": 5178,
      "before": 5179,
      "ily": 5180,
      "imes": 5181,
      "miss": 5182,
      "show": 5183,
      "AN": 5184,
      "elect": 5185,
      "For": 5186,
      "view": 5187,
      "report": 5188,
      "но": 5189,
      "sur": 5190,
      "ific": 5191,
      "imp": 5192,
      "led": 5193,
      "such": 5194,
      "They": 5195,
      "als": 5196,
      "much": 5197,
      "stand": 5198,
      "Jo": 5199,
      "system": 5200,
      "ER": 5201,
      "rat": 5202,
      "ft": 5203,
      "ner": 5204,
      "turn": 5205,
      "ys": 5206,
      "includ": 5207,
      "going": 5208,
      "minis": 5209,
      "di": 5210,
      "Dem": 5211,
      "Com": 5212,
      "pers": 5213,
      "President": 5214,
      "ional": 5215,
      "то": 5216,
      "ра": 5217,
      "put": 5218,
      "here": 5219,
      "itt": 5220,
      "fo": 5221,
      "ices": 5222,
      "ss": 5223,
      ".\"": 5224,
      "Cl": 5225,
      "cons": 5226,
      "aim": 5227,
      "ни": 5228,
      "ower": 5229,
      "ased": 5230,
      "lam": 5231,
      "inue": 5232,
      "ible": 5233,
      "point": 5234,
      "fect": 5235,
      "на": 5236,
      "real": 5237,
      "ilit": 5238,
      "car": 5239,
      "fam": 5240,
      "mark": 5241,
      "help": 5242,
      "ror": 5243,
      "while": 5244,
      "ense": 5245,
      "ward": 5246,
      "olog": 5247,
      "cour": 5248,
      "ush": 5249,
      "head": 5250,
      "United": 5251,
      "though": 5252,
      "ms": 5253,
      "ris": 5254,
      "io": 5255,
      "dr": 5256,
      "000": 5257,
      "national": 5258,
      "order": 5259,
      "fact": 5260,
      "les": 5261,
      "Iranian": 5262,
      "beli": 5263,
      "De": 5264,
      "son": 5265,
      "child": 5266,
      "econom": 5267,
      "king": 5268,
      "ten": 5269,
      "val": 5270,
      "ma": 5271,
      "ency": 5272,
      "Democ": 5273,
      ").": 5274,
      "line": 5275,
      "sure": 5276,
      "ced": 5277,
      "group": 5278,
      "irect": 5279,
      "president": 5280,
      "ро": 5281,
      "good": 5282,
      "There": 5283,
      "country": 5284,
      "gy": 5285,
      "take": 5286,
      "ason": 5287,
      "book": 5288,
      "stud": 5289,
      "ave": 5290,
      "clo": 5291,
      "percent": 5292,
      "press": 5293,
      "ility": 5294,
      "So": 5295,
      "week": 5296,
      "ко": 5297,
      "wom": 5298,
      "That": 5299,
      "ww": 5300,
      "dif": 5301,
      "def": 5302,
      "Cont": 5303,
      "Sen": 5304,
      "tern": 5305,
      "ub": 5306,
      "Democrat": 5307,
      "plan": 5308,
      "11": 5309,
      "Islam": 5310,
      "ular": 5311,
      "ually": 5312,
      "ines": 5313,
      "aw": 5314,
      "plo": 5315,
      "ext": 5316,
      "vot": 5317,
      "cover": 5318,
      "issu": 5319,
      "pri": 5320,
      "ivers": 5321,
      "camp": 5322,
      "che": 5323,
      "aren": 5324,
      "reading": 5325,
      "invest": 5326,
      "ollow": 5327,
      "power": 5328,
      "по": 5329,
      "during": 5330,
      "stit": 5331,
      "sign": 5332,
      "arch": 5333,
      "attack": 5334,
      "support": 5335,
      "cap": 5336,
      "Please": 5337,
      "run": 5338,
      "vert": 5339,
      "Mo": 5340,
      "oper": 5341,
      "uro": 5342,
      "ah": 5343,
      "resp": 5344,
      "atch": 5345,
      "EN": 5346,
      "happ": 5347,
      "still": 5348,
      "$$": 5349,
      "ime": 5350,
      "America": 5351,
      "ives": 5352,
      "She": 5353,
      "person": 5354,
      "quest": 5355,
      "Ira": 5356,
      "life": 5357,
      "found": 5358,
      "chool": 5359,
      "char": 5360,
      "same": 5361,
      "ff": 5362,
      "On": 5363,
      "Iraq": 5364,
      "Pro": 5365,
      "month": 5366,
      "ween": 5367,
      "Be": 5368,
      "care": 5369,
      "enter": 5370,
      "pay": 5371,
      "fi": 5372,
      "ask": 5373,
      "gram": 5374,
      "oney": 5375,
      "prov": 5376,
      "ues": 5377,
      "stitut": 5378,
      "claim": 5379,
      "num": 5380,
      "AL": 5381,
      "big": 5382,
      "sto": 5383,
      "must": 5384,
      "ider": 5385,
      "chan": 5386,
      "called": 5387,
      "cording": 5388,
      "),": 5389,
      "ik": 5390,
      "coming": 5391,
      "States": 5392,
      "ds": 5393,
      "million": 5394,
      "eral": 5395,
      "between": 5396,
      "acy": 5397,
      "health": 5398,
      "Times": 5399,
      "got": 5400,
      "since": 5401,
      "iness": 5402,
      "uclear": 5403,
      ",\"": 5404,
      "bers": 5405,
      "ared": 5406,
      "ре": 5407,
      "cept": 5408,
      "bus": 5409,
      "ilitary": 5410,
      "Sh": 5411,
      "ights": 5412,
      "hand": 5413,
      "eng": 5414,
      "ically": 5415,
      "OR": 5416,
      "set": 5417,
      "ized": 5418,
      "Up": 5419,
      "including": 5420,
      "three": 5421,
      "cal": 5422,
      "hn": 5423,
      "12": 5424,
      "Fr": 5425,
      "official": 5426,
      "tax": 5427,
      "hum": 5428,
      "commun": 5429,
      "lim": 5430,
      "sm": 5431,
      "product": 5432,
      "Ro": 5433,
      "hoto": 5434,
      "far": 5435,
      "cs": 5436,
      "appe": 5437,
      "To": 5438,
      "political": 5439,
      "ste": 5440,
      "Sy": 5441,
      "direct": 5442,
      "ina": 5443,
      "start": 5444,
      "//": 5445,
      "soci": 5446,
      "market": 5447,
      "ures": 5448,
      "ians": 5449,
      "ness": 5450,
      "told": 5451,
      "az": 5452,
      "curren": 5453,
      "ports": 5454,
      "akes": 5455,
      "around": 5456,
      "writ": 5457,
      "post": 5458,
      "find": 5459,
      "another": 5460,
      "trans": 5461,
      "Recs": 5462,
      "kill": 5463,
      "blo": 5464,
      "too": 5465,
      "aign": 5466,
      "House": 5467,
      "recent": 5468,
      "contro": 5469,
      "John": 5470,
      "Pl": 5471,
      "net": 5472,
      "ames": 5473,
      "ли": 5474,
      "chang": 5475,
      "How": 5476,
      "го": 5477,
      "50": 5478,
      "stat": 5479,
      "bal": 5480,
      "never": 5481,
      "few": 5482,
      "THE": 5483,
      "What": 5484,
      "ttp": 5485,
      "://": 5486,
      "http": 5487,
      "rist": 5488,
      "cas": 5489,
      "----": 5490,
      "не": 5491,
      "vertis": 5492,
      "rece": 5493,
      "AS": 5494,
      "app": 5495,
      "inform": 5496,
      "place": 5497,
      "ways": 5498,
      "Continue": 5499,
      "poss": 5500,
      "AR": 5501,
      "icle": 5502,
      "program": 5503,
      "Don": 5504,
      "En": 5505,
      "prom": 5506,
      "money": 5507,
      "thor": 5508,
      "pass": 5509,
      "jo": 5510,
      "Go": 5511,
      "both": 5512,
      "came": 5513,
      "Euro": 5514,
      "30": 5515,
      "Pol": 5516,
      "prof": 5517,
      "ient": 5518,
      "former": 5519,
      "follow": 5520,
      "ages": 5521,
      "ety": 5522,
      "mat": 5523,
      "Af": 5524,
      "gest": 5525,
      "rest": 5526,
      "gener": 5527,
      "tra": 5528,
      "home": 5529,
      "ction": 5530,
      "vent": 5531,
      "Sup": 5532,
      "polic": 5533,
      "ship": 5534,
      "Co": 5535,
      "ES": 5536,
      "bre": 5537,
      "olut": 5538,
      "seem": 5539,
      "ural": 5540,
      "really": 5541,
      "Russia": 5542,
      "tell": 5543,
      "jor": 5544,
      "vo": 5545,
      "xt": 5546,
      "ger": 5547,
      "ale": 5548,
      "Islamic": 5549,
      "ready": 5550,
      "ED": 5551,
      "requ": 5552,
      "ederal": 5553,
      "campaign": 5554,
      "Bo": 5555,
      "ather": 5556,
      "ond": 5557,
      "Or": 5558,
      "hist": 5559,
      "letter": 5560,
      "exper": 5561,
      "ington": 5562,
      "den": 5563,
      "ital": 5564,
      "contr": 5565,
      "organ": 5566,
      "ants": 5567,
      "ational": 5568,
      "wit": 5569,
      "bro": 5570,
      "incre": 5571,
      "ned": 5572,
      "outh": 5573,
      "reme": 5574,
      "Nor": 5575,
      "ize": 5576,
      "ago": 5577,
      "change": 5578,
      "curity": 5579,
      "ails": 5580,
      "school": 5581,
      "ister": 5582,
      "move": 5583,
      "children": 5584,
      "во": 5585,
      "vir": 5586,
      "bor": 5587,
      "scri": 5588,
      "differ": 5589,
      "bod": 5590,
      "mission": 5591,
      "later": 5592,
      "won": 5593,
      "When": 5594,
      "might": 5595,
      "great": 5596,
      "media": 5597,
      "keep": 5598,
      "Te": 5599,
      "free": 5600,
      "reet": 5601,
      "ross": 5602,
      "ix": 5603,
      "without": 5604,
      "unt": 5605,
      "men": 5606,
      "ministr": 5607,
      "15": 5608,
      "ending": 5609,
      "allow": 5610,
      "Clint": 5611,
      "Christ": 5612,
      "pop": 5613,
      "ization": 5614,
      "ref": 5615,
      "says": 5616,
      "Europe": 5617,
      "search": 5618,
      "open": 5619,
      "sing": 5620,
      "IT": 5621,
      "left": 5622,
      "ator": 5623,
      "present": 5624,
      "99": 5625,
      "proble": 5626,
      "days": 5627,
      "ls": 5628,
      "consider": 5629,
      "pur": 5630,
      "fil": 5631,
      "ately": 5632,
      "exp": 5633,
      "IC": 5634,
      "State": 5635,
      "current": 5636,
      "ude": 5637,
      "lot": 5638,
      "Clinton": 5639,
      "business": 5640,
      "giv": 5641,
      "ony": 5642,
      "military": 5643,
      "using": 5644,
      "rael": 5645,
      "cy": 5646,
      "next": 5647,
      "ished": 5648,
      "At": 5649,
      "ploy": 5650,
      "appro": 5651,
      "Israel": 5652,
      "fund": 5653,
      "grow": 5654,
      "ify": 5655,
      "terror": 5656,
      "ont": 5657,
      "Col": 5658,
      "ief": 5659,
      "Car": 5660,
      "18": 5661,
      "major": 5662,
      "win": 5663,
      "ittle": 5664,
      "things": 5665,
      "2016": 5666,
      "something": 5667,
      "hold": 5668,
      "Ex": 5669,
      "thers": 5670,
      "job": 5671,
      "site": 5672,
      "case": 5673,
      "Pr": 5674,
      "today": 5675,
      "Mc": 5676,
      "comes": 5677,
      "Syri": 5678,
      "fac": 5679,
      "Pe": 5680,
      "near": 5681,
      "human": 5682,
      "ва": 5683,
      "aid": 5684,
      "test": 5685,
      "family": 5686,
      "least": 5687,
      "ends": 5688,
      "iday": 5689,
      "Wash": 5690,
      "Advertis": 5691,
      "author": 5692,
      "ars": 5693,
      "iversity": 5694,
      "Cong": 5695,
      "acc": 5696,
      "foreign": 5697,
      "mber": 5698,
      "Republican": 5699,
      "ban": 5700,
      "sit": 5701,
      "те": 5702,
      "sum": 5703,
      "deb": 5704,
      "cu": 5705,
      "import": 5706,
      "ling": 5707,
      "clear": 5708,
      "ney": 5709,
      "gin": 5710,
      "ны": 5711,
      "plain": 5712,
      "women": 5713,
      "company": 5714,
      "ended": 5715,
      "uary": 5716,
      "why": 5717,
      "social": 5718,
      "police": 5719,
      "Washington": 5720,
      "adv": 5721,
      "ри": 5722,
      "ca": 5723,
      "TO": 5724,
      "special": 5725,
      "four": 5726,
      "May": 5727,
      "list": 5728,
      "gress": 5729,
      "де": 5730,
      "ided": 5731,
      "ald": 5732,
      "ка": 5733,
      "cret": 5734,
      "fort": 5735,
      "viol": 5736,
      "uck": 5737,
      "ru": 5738,
      "ministration": 5739,
      "inc": 5740,
      "mand": 5741,
      "Americans": 5742,
      "Congress": 5743,
      "fri": 5744,
      "interest": 5745,
      "ably": 5746,
      "partic": 5747,
      "ged": 5748,
      "velop": 5749,
      "light": 5750,
      "ground": 5751,
      "eve": 5752,
      "dep": 5753,
      "subscri": 5754,
      "Ag": 5755,
      "best": 5756,
      "ests": 5757,
      "aff": 5758,
      "happen": 5759,
      "little": 5760,
      "ле": 5761,
      "Bar": 5762,
      "ord": 5763,
      "War": 5764,
      "posed": 5765,
      "OF": 5766,
      "ral": 5767,
      "Li": 5768,
      "ese": 5769,
      "expect": 5770,
      "ential": 5771,
      "Po": 5772,
      "ль": 5773,
      "ric": 5774,
      "away": 5775,
      "ier": 5776,
      "build": 5777,
      "Dav": 5778,
      "cri": 5779,
      "second": 5780,
      "ted": 5781,
      "prote": 5782,
      "information": 5783,
      "ury": 5784,
      "article": 5785,
      "imm": 5786,
      "bed": 5787,
      "Sign": 5788,
      "Min": 5789,
      "nuclear": 5790,
      "vious": 5791,
      "level": 5792,
      "feel": 5793,
      "body": 5794,
      "rad": 5795,
      "Fran": 5796,
      "har": 5797,
      "past": 5798,
      "class": 5799,
      "Advertisement": 5800,
      "One": 5801,
      "states": 5802,
      "ret": 5803,
      "reed": 5804,
      "team": 5805,
      "hal": 5806,
      "sever": 5807,
      "hard": 5808,
      "Hill": 5809,
      "imin": 5810,
      "Now": 5811,
      "number": 5812,
      "ION": 5813,
      "__": 5814,
      "Man": 5815,
      "ired": 5816,
      "already": 5817,
      "та": 5818,
      "Dep": 5819,
      "believe": 5820,
      "deal": 5821,
      "legal": 5822,
      "14": 5823,
      "White": 5824,
      "known": 5825,
      "ING": 5826,
      "del": 5827,
      "nor": 5828,
      "ball": 5829,
      "effect": 5830,
      "force": 5831,
      "whe": 5832,
      "better": 5833,
      "ones": 5834,
      "ource": 5835,
      "contin": 5836,
      "ior": 5837,
      "mor": 5838,
      "cost": 5839,
      "ides": 5840,
      "ience": 5841,
      "bar": 5842,
      "members": 5843,
      "lobal": 5844,
      "ID": 5845,
      "Mon": 5846,
      "employ": 5847,
      "night": 5848,
      "Ac": 5849,
      "17": 5850,
      "become": 5851,
      "ibut": 5852,
      "cand": 5853,
      "eas": 5854,
      "ла": 5855,
      "each": 5856,
      "gun": 5857,
      "mit": 5858,
      "pat": 5859,
      "University": 5860,
      "bill": 5861,
      "All": 5862,
      "Dr": 5863,
      "eld": 5864,
      "hol": 5865,
      "address": 5866,
      "Ed": 5867,
      "develop": 5868,
      "food": 5869,
      "city": 5870,
      "Med": 5871,
      "Wor": 5872,
      "With": 5873,
      "Russian": 5874,
      "itions": 5875,
      "vide": 5876,
      "13": 5877,
      "sk": 5878,
      "Supreme": 5879,
      "key": 5880,
      "federal": 5881,
      "tem": 5882,
      ",''": 5883,
      "wr": 5884,
      "gl": 5885,
      "election": 5886,
      "position": 5887,
      "une": 5888,
      "action": 5889,
      "chn": 5890,
      "Ge": 5891,
      "Vi": 5892,
      "crit": 5893,
      "sex": 5894,
      "ham": 5895,
      "meet": 5896,
      "ader": 5897,
      "augh": 5898,
      "based": 5899,
      "ps": 5900,
      "ark": 5901,
      "reported": 5902,
      "side": 5903,
      "16": 5904,
      "Sun": 5905,
      "ecut": 5906,
      "large": 5907,
      "Part": 5908,
      "ben": 5909,
      "bing": 5910,
      "chief": 5911,
      "ched": 5912,
      ".,": 5913,
      "ley": 5914,
      "Coun": 5915,
      "important": 5916,
      "according": 5917,
      "making": 5918,
      "itor": 5919,
      "cit": 5920,
      "room": 5921,
      "remain": 5922,
      "reen": 5923,
      "Gr": 5924,
      "25": 5925,
      "OP": 5926,
      "**": 5927,
      "concer": 5928,
      "Mus": 5929,
      "Fe": 5930,
      "UN": 5931,
      "idence": 5932,
      "policy": 5933,
      "likely": 5934,
      "threat": 5935,
      "ories": 5936,
      "ither": 5937,
      "nat": 5938,
      "small": 5939,
      "didn": 5940,
      "ified": 5941,
      "give": 5942,
      "ought": 5943,
      "www": 5944,
      "да": 5945,
      "Bl": 5946,
      "services": 5947,
      "anger": 5948,
      "spir": 5949,
      "investig": 5950,
      "ali": 5951,
      "Brit": 5952,
      "Photo": 5953,
      "ве": 5954,
      "ey": 5955,
      "aged": 5956,
      "enough": 5957,
      "course": 5958,
      "Just": 5959,
      "ised": 5960,
      "economic": 5961,
      "ology": 5962,
      "question": 5963,
      "different": 5964,
      "always": 5965,
      "sent": 5966,
      "Ste": 5967,
      "ivil": 5968,
      "Res": 5969,
      "mind": 5970,
      "finan": 5971,
      "water": 5972,
      "reason": 5973,
      "cult": 5974,
      "bot": 5975,
      "gether": 5976,
      "took": 5977,
      "liber": 5978,
      "went": 5979,
      "suc": 5980,
      "ability": 5981,
      "opp": 5982,
      "AC": 5983,
      "ision": 5984,
      "за": 5985,
      "Add": 5986,
      "face": 5987,
      "sug": 5988,
      "certain": 5989,
      "nes": 5990,
      "olution": 5991,
      "artment": 5992,
      "ло": 5993,
      "dri": 5994,
      "ream": 5995,
      "fail": 5996,
      "candid": 5997,
      "struct": 5998,
      "billion": 5999,
      "simp": 6000,
      "aily": 6001,
      "black": 6002,
      "aph": 6003,
      "agree": 6004,
      "More": 6005,
      "research": 6006,
      "name": 6007,
      "non": 6008,
      "control": 6009,
      "hour": 6010,
      "death": 6011,
      "kind": 6012,
      "North": 6013,
      "que": 6014,
      "email": 6015,
      "whether": 6016,
      "count": 6017,
      "idd": 6018,
      "wn": 6019,
      "ured": 6020,
      "ches": 6021,
      "officials": 6022,
      "lat": 6023,
      "Sp": 6024,
      "comple": 6025,
      "security": 6026,
      "ме": 6027,
      "party": 6028,
      "vote": 6029,
      "dom": 6030,
      "aken": 6031,
      "house": 6032,
      "administration": 6033,
      "leaders": 6034,
      "among": 6035,
      "Bush": 6036,
      "After": 6037,
      "turned": 6038,
      "member": 6039,
      "plac": 6040,
      "National": 6041,
      "Donald": 6042,
      "nal": 6043,
      "By": 6044,
      "until": 6045,
      "tries": 6046,
      "together": 6047,
      "record": 6048,
      "ife": 6049,
      "Ms": 6050,
      "met": 6051,
      "qual": 6052,
      "2017": 6053,
      "possible": 6054,
      "stead": 6055,
      "tar": 6056,
      "ison": 6057,
      "Health": 6058,
      "His": 6059,
      "China": 6060,
      "upd": 6061,
      "Do": 6062,
      "half": 6063,
      "once": 6064,
      "viron": 6065,
      "times": 6066,
      "ET": 6067,
      "Tor": 6068,
      "activ": 6069,
      "weap": 6070,
      "ament": 6071,
      "ulation": 6072,
      "changes": 6073,
      "mean": 6074,
      "process": 6075,
      "ined": 6076,
      "others": 6077,
      "CO": 6078,
      "iss": 6079,
      "history": 6080,
      "announ": 6081,
      "fight": 6082,
      "spec": 6083,
      "priv": 6084,
      "offer": 6085,
      "kes": 6086,
      "aring": 6087,
      "oung": 6088,
      "cle": 6089,
      "ть": 6090,
      "execut": 6091,
      "bas": 6092,
      "ки": 6093,
      "rights": 6094,
      "Jan": 6095,
      "ST": 6096,
      "several": 6097,
      "sen": 6098,
      "doing": 6099,
      "occur": 6100,
      "Har": 6101,
      "ets": 6102,
      "Not": 6103,
      "fut": 6104,
      "Street": 6105,
      "Ali": 6106,
      "share": 6107,
      "talk": 6108,
      "trad": 6109,
      "ird": 6110,
      "199": 6111,
      "invol": 6112,
      "working": 6113,
      "Can": 6114,
      "Ger": 6115,
      "AM": 6116,
      "anti": 6117,
      "empt": 6118,
      "aul": 6119,
      "tru": 6120,
      "bank": 6121,
      "often": 6122,
      "selves": 6123,
      "Ju": 6124,
      "disc": 6125,
      "Mic": 6126,
      "seen": 6127,
      "full": 6128,
      "ots": 6129,
      "lement": 6130,
      "compan": 6131,
      "ove": 6132,
      ".''": 6133,
      "World": 6134,
      "ences": 6135,
      "understand": 6136,
      "actually": 6137,
      "months": 6138,
      "outs": 6139,
      "itional": 6140,
      "Hillary": 6141,
      "term": 6142,
      "issue": 6143,
      "strong": 6144,
      "decl": 6145,
      "doesn": 6146,
      "West": 6147,
      "box": 6148,
      "indust": 6149,
      "products": 6150,
      "ти": 6151,
      "ns": 6152,
      "local": 6153,
      "Republicans": 6154,
      "ler": 6155,
      "five": 6156,
      "having": 6157,
      "game": 6158,
      "given": 6159,
      "My": 6160,
      "plic": 6161,
      "makes": 6162,
      "ges": 6163,
      "ivid": 6164,
      "AND": 6165,
      "EC": 6166,
      "ived": 6167,
      "че": 6168,
      "fall": 6169,
      "Fo": 6170,
      "yet": 6171,
      "done": 6172,
      "Will": 6173,
      "asked": 6174,
      "ards": 6175,
      "spo": 6176,
      "protect": 6177,
      "infl": 6178,
      "bit": 6179,
      "Im": 6180,
      "Leader": 6181,
      "IL": 6182,
      "uced": 6183,
      "office": 6184,
      "speak": 6185,
      "Am": 6186,
      "ying": 6187,
      "close": 6188,
      "Some": 6189,
      "det": 6190,
      "bad": 6191,
      "techn": 6192,
      "Muslim": 6193,
      "pot": 6194,
      "Ser": 6195,
      "24": 6196,
      "lah": 6197,
      "Ind": 6198,
      "lies": 6199,
      "saying": 6200,
      "igr": 6201,
      "unity": 6202,
      "thought": 6203,
      "Br": 6204,
      "video": 6205,
      "ENT": 6206,
      "pie": 6207,
      "Stud": 6208,
      "Democrats": 6209,
      "early": 6210,
      "uses": 6211,
      "offers": 6212,
      "proper": 6213,
      "conf": 6214,
      "ata": 6215,
      "Department": 6216,
      "nothing": 6217,
      "sal": 6218,
      "со": 6219,
      "Geor": 6220,
      "front": 6221,
      "Senate": 6222,
      "dol": 6223,
      "live": 6224,
      "countries": 6225,
      "Democratic": 6226,
      "mass": 6227,
      "future": 6228,
      "uge": 6229,
      "ators": 6230,
      "witter": 6231,
      "bur": 6232,
      "hip": 6233,
      "fire": 6234,
      "rac": 6235,
      "RO": 6236,
      "short": 6237,
      "oil": 6238,
      "ait": 6239,
      "dra": 6240,
      "select": 6241,
      "icking": 6242,
      "Cor": 6243,
      "God": 6244,
      "cks": 6245,
      "global": 6246,
      "civil": 6247,
      "Pal": 6248,
      "either": 6249,
      "rup": 6250,
      "Ph": 6251,
      "Soc": 6252,
      "along": 6253,
      "rele": 6254,
      ".)": 6255,
      "docu": 6256,
      "rul": 6257,
      "ми": 6258,
      "white": 6259,
      "Me": 6260,
      "ster": 6261,
      "watch": 6262,
      "gen": 6263,
      "South": 6264,
      "environ": 6265,
      "100": 6266,
      "receive": 6267,
      "problem": 6268,
      "court": 6269,
      "anal": 6270,
      "pose": 6271,
      "event": 6272,
      "web": 6273,
      "IR": 6274,
      "financial": 6275,
      "Ber": 6276,
      "ari": 6277,
      "imate": 6278,
      "means": 6279,
      "discuss": 6280,
      "trying": 6281,
      "result": 6282,
      "across": 6283,
      "minister": 6284,
      "publ": 6285,
      "Sep": 6286,
      "season": 6287,
      "benef": 6288,
      "tee": 6289,
      "Day": 6290,
      "jud": 6291,
      "Friday": 6292,
      "iddle": 6293,
      "enn": 6294,
      "wer": 6295,
      "EL": 6296,
      "stop": 6297,
      "scient": 6298,
      "ming": 6299,
      "sl": 6300,
      "error": 6301,
      "graph": 6302,
      "reach": 6303,
      "fully": 6304,
      "ample": 6305,
      "thern": 6306,
      "soon": 6307,
      "pecial": 6308,
      "Bro": 6309,
      "within": 6310,
      "added": 6311,
      "ium": 6312,
      "sho": 6313,
      "paren": 6314,
      "While": 6315,
      "rain": 6316,
      "до": 6317,
      "Syria": 6318,
      "igin": 6319,
      "40": 6320,
      "woman": 6321,
      "uel": 6322,
      "step": 6323,
      "ging": 6324,
      "companies": 6325,
      "success": 6326,
      "2012": 6327,
      "depend": 6328,
      "vember": 6329,
      "conserv": 6330,
      "nam": 6331,
      "stri": 6332,
      "avail": 6333,
      "November": 6334,
      "2014": 6335,
      "leave": 6336,
      "alk": 6337,
      "urs": 6338,
      "almost": 6339,
      "ock": 6340,
      "mom": 6341,
      "taking": 6342,
      "economy": 6343,
      "22": 6344,
      "weapons": 6345,
      "crimin": 6346,
      "dollar": 6347,
      "sol": 6348,
      "ats": 6349,
      "fur": 6350,
      "lin": 6351,
      "mus": 6352,
      "gir": 6353,
      "issues": 6354,
      "dro": 6355,
      "cus": 6356,
      "relig": 6357,
      "young": 6358,
      "2015": 6359,
      "Inter": 6360,
      "hind": 6361,
      "Gu": 6362,
      "Paul": 6363,
      "risk": 6364,
      "atives": 6365,
      "demand": 6366,
      "hom": 6367,
      "respons": 6368,
      "taken": 6369,
      "doct": 6370,
      "ford": 6371,
      "anything": 6372,
      "sim": 6373,
      "getting": 6374,
      "descri": 6375,
      "ournal": 6376,
      "mess": 6377,
      "educ": 6378,
      "defense": 6379,
      "love": 6380,
      "sell": 6381,
      "claims": 6382,
      "interview": 6383,
      "fun": 6384,
      "fic": 6385,
      "dest": 6386,
      "aster": 6387,
      "subject": 6388,
      "ся": 6389,
      "Ab": 6390,
      "мо": 6391,
      "ividual": 6392,
      "explain": 6393,
      "danger": 6394,
      "AP": 6395,
      "ints": 6396,
      "reports": 6397,
      "urch": 6398,
      "particular": 6399,
      "ensive": 6400,
      "--------": 6401,
      "ention": 6402,
      "groups": 6403,
      "rew": 6404,
      "aper": 6405,
      "ви": 6406,
      "citiz": 6407,
      "town": 6408,
      "23": 6409,
      "Party": 6410,
      "audi": 6411,
      "ane": 6412,
      "hy": 6413,
      "же": 6414,
      "istan": 6415,
      "60": 6416,
      "sus": 6417,
      "distr": 6418,
      "occas": 6419,
      "available": 6420,
      "online": 6421,
      "EM": 6422,
      "ands": 6423,
      "formed": 6424,
      "istance": 6425,
      "vision": 6426,
      "gn": 6427,
      "drug": 6428,
      "Dis": 6429,
      "break": 6430,
      "David": 6431,
      "про": 6432,
      "above": 6433,
      "individual": 6434,
      "ference": 6435,
      "design": 6436,
      "continue": 6437,
      "bert": 6438,
      "evidence": 6439,
      "energy": 6440,
      "lege": 6441,
      "rote": 6442,
      "ults": 6443,
      "project": 6444,
      "train": 6445,
      "BC": 6446,
      "itive": 6447,
      "Sat": 6448,
      "bring": 6449,
      "wide": 6450,
      "entire": 6451,
      "Per": 6452,
      "six": 6453,
      "ources": 6454,
      "These": 6455,
      "cred": 6456,
      "Blo": 6457,
      "However": 6458,
      "iam": 6459,
      "Ra": 6460,
      "ibility": 6461,
      "21": 6462,
      "Bef": 6463,
      "City": 6464,
      "following": 6465,
      "Before": 6466,
      "photo": 6467,
      "argu": 6468,
      "conne": 6469,
      "atic": 6470,
      "community": 6471,
      "reedom": 6472,
      "star": 6473,
      "View": 6474,
      "dou": 6475,
      "late": 6476,
      "held": 6477,
      "NO": 6478,
      "wrote": 6479,
      "tom": 6480,
      "March": 6481,
      "ech": 6482,
      "Of": 6483,
      "occurred": 6484,
      "profess": 6485,
      "Act": 6486,
      "behind": 6487,
      "Ne": 6488,
      "access": 6489,
      "27": 6490,
      "Em": 6491,
      "OU": 6492,
      "statement": 6493,
      "prob": 6494,
      "According": 6495,
      "itted": 6496,
      "fav": 6497,
      "private": 6498,
      "ogle": 6499,
      "ery": 6500,
      "friend": 6501,
      "ene": 6502,
      "represent": 6503,
      "cast": 6504,
      "strate": 6505,
      "begin": 6506,
      "inst": 6507,
      "се": 6508,
      "foc": 6509,
      "uation": 6510,
      "corpor": 6511,
      "ron": 6512,
      "Jew": 6513,
      "complete": 6514,
      "vic": 6515,
      "abl": 6516,
      "AD": 6517,
      "matter": 6518,
      "example": 6519,
      "pract": 6520,
      "themselves": 6521,
      "2013": 6522,
      "Agency": 6523,
      "treat": 6524,
      "updates": 6525,
      "hit": 6526,
      "ination": 6527,
      "indow": 6528,
      "decision": 6529,
      "vict": 6530,
      "words": 6531,
      "advis": 6532,
      "ried": 6533,
      "Mark": 6534,
      "host": 6535,
      "serious": 6536,
      "toward": 6537,
      "ids": 6538,
      "Cour": 6539,
      "seems": 6540,
      "rather": 6541,
      "asing": 6542,
      "appoint": 6543,
      "stay": 6544,
      "ops": 6545,
      "recently": 6546,
      "bi": 6547,
      "ai": 6548,
      "feat": 6549,
      "Tur": 6550,
      "Here": 6551,
      "minut": 6552,
      "abor": 6553,
      "ilar": 6554,
      "equ": 6555,
      "Tues": 6556,
      "students": 6557,
      "ising": 6558,
      "personal": 6559,
      "someone": 6560,
      "avy": 6561,
      "tion": 6562,
      "firm": 6563,
      "killed": 6564,
      "area": 6565,
      "true": 6566,
      "cris": 6567,
      "pain": 6568,
      "European": 6569,
      "IA": 6570,
      "lives": 6571,
      "80": 6572,
      "previous": 6573,
      "Fl": 6574,
      "border": 6575,
      "uce": 6576,
      "East": 6577,
      "suggest": 6578,
      "lost": 6579,
      "commit": 6580,
      "Associ": 6581,
      "Par": 6582,
      "opping": 6583,
      "else": 6584,
      "lier": 6585,
      "pret": 6586,
      "Post": 6587,
      "pite": 6588,
      "Thank": 6589,
      "pen": 6590,
      "bom": 6591,
      "international": 6592,
      "communic": 6593,
      "anks": 6594,
      "began": 6595,
      "June": 6596,
      "emy": 6597,
      "rate": 6598,
      "Monday": 6599,
      "idea": 6600,
      "gets": 6601,
      "Afr": 6602,
      "exist": 6603,
      "Ho": 6604,
      "quar": 6605,
      "forces": 6606,
      "mental": 6607,
      "bruary": 6608,
      "hope": 6609,
      "From": 6610,
      "Char": 6611,
      "February": 6612,
      "letters": 6613,
      "ци": 6614,
      "whose": 6615,
      "Her": 6616,
      "ester": 6617,
      "origin": 6618,
      "data": 6619,
      "looking": 6620,
      "Sunday": 6621,
      "mother": 6622,
      "Wed": 6623,
      "believ": 6624,
      "igence": 6625,
      "famil": 6626,
      "sych": 6627,
      "himself": 6628,
      "dam": 6629,
      "iles": 6630,
      "си": 6631,
      "Oc": 6632,
      "uter": 6633,
      "pan": 6634,
      "Minister": 6635,
      "Google": 6636,
      "comment": 6637,
      "study": 6638,
      "demo": 6639,
      "field": 6640,
      "Aug": 6641,
      "gas": 6642,
      "decad": 6643,
      "vol": 6644,
      "Why": 6645,
      "Govern": 6646,
      "Daily": 6647,
      "legis": 6648,
      "lap": 6649,
      "OS": 6650,
      "compet": 6651,
      "cannot": 6652,
      "Tuesday": 6653,
      "chall": 6654,
      "valid": 6655,
      "continu": 6656,
      "word": 6657,
      "points": 6658,
      "26": 6659,
      "sold": 6660,
      "nia": 6661,
      "piece": 6662,
      "potential": 6663,
      "moved": 6664,
      "Tails": 6665,
      "sou": 6666,
      "cell": 6667,
      "ру": 6668,
      "Afric": 6669,
      "rown": 6670,
      "fig": 6671,
      "George": 6672,
      "simply": 6673,
      "IM": 6674,
      "emp": 6675,
      "accept": 6676,
      "everyone": 6677,
      "roll": 6678,
      "Kore": 6679,
      "mal": 6680,
      "cretary": 6681,
      "July": 6682,
      "manag": 6683,
      "visit": 6684,
      "works": 6685,
      "foot": 6686,
      "laun": 6687,
      "Ear": 6688,
      "irst": 6689,
      "hor": 6690,
      "reas": 6691,
      "wrong": 6692,
      "ди": 6693,
      "Polit": 6694,
      "cil": 6695,
      "director": 6696,
      "establ": 6697,
      "race": 6698,
      "Face": 6699,
      "zer": 6700,
      "prim": 6701,
      "industry": 6702,
      "Hol": 6703,
      "further": 6704,
      "father": 6705,
      "fair": 6706,
      "expected": 6707,
      "anyone": 6708,
      "Read": 6709,
      "alleg": 6710,
      "Sch": 6711,
      "collect": 6712,
      "Off": 6713,
      "Center": 6714,
      "especial": 6715,
      "hon": 6716,
      "round": 6717,
      "general": 6718,
      "ague": 6719,
      "third": 6720,
      "especially": 6721,
      "needs": 6722,
      "Thurs": 6723,
      "shopping": 6724,
      "hael": 6725,
      "weeks": 6726,
      "games": 6727,
      "flo": 6728,
      "however": 6729,
      "abs": 6730,
      "ances": 6731,
      "izing": 6732,
      "AG": 6733,
      "II": 6734,
      "truth": 6735,
      "elt": 6736,
      "mach": 6737,
      "mot": 6738,
      "LE": 6739,
      "stitution": 6740,
      "70": 6741,
      "estern": 6742,
      "wing": 6743,
      "ively": 6744,
      "dead": 6745,
      "capital": 6746,
      "Court": 6747,
      "isn": 6748,
      "role": 6749,
      "(@": 6750,
      "ped": 6751,
      "wanted": 6752,
      "Cali": 6753,
      "medi": 6754,
      "robot": 6755,
      "aver": 6756,
      "buy": 6757,
      "due": 6758,
      "porters": 6759,
      "Source": 6760,
      "Apr": 6761,
      "cot": 6762,
      "Califor": 6763,
      "aterial": 6764,
      "hood": 6765,
      "mag": 6766,
      "28": 6767,
      "meas": 6768,
      "phone": 6769,
      "Even": 6770,
      "tele": 6771,
      "utin": 6772,
      "pped": 6773,
      "yed": 6774,
      "cop": 6775,
      "leav": 6776,
      "Nuclear": 6777,
      "ма": 6778,
      "Twitter": 6779,
      "started": 6780,
      "Wednes": 6781,
      "provide": 6782,
      "ceed": 6783,
      "dangerous": 6784,
      "ull": 6785,
      "2007": 6786,
      "defin": 6787,
      "itself": 6788,
      "worth": 6789,
      "bass": 6790,
      "Bill": 6791,
      "clicking": 6792,
      "uff": 6793,
      "whole": 6794,
      "div": 6795,
      "CE": 6796,
      "van": 6797,
      "common": 6798,
      "heart": 6799,
      "Facebook": 6800,
      "fear": 6801,
      "CH": 6802,
      "Plus": 6803,
      "service": 6804,
      "aut": 6805,
      "living": 6806,
      "iding": 6807,
      "Econom": 6808,
      "hours": 6809,
      "haps": 6810,
      "push": 6811,
      "mill": 6812,
      "cra": 6813,
      "everything": 6814,
      "British": 6815,
      "ently": 6816,
      "pet": 6817,
      "Thursday": 6818,
      "vice": 6819,
      "GOP": 6820,
      "moder": 6821,
      "readers": 6822,
      "California": 6823,
      "super": 6824,
      "building": 6825,
      "Press": 6826,
      "insur": 6827,
      "shot": 6828,
      "Michael": 6829,
      "amoun": 6830,
      "account": 6831,
      "latest": 6832,
      "saw": 6833,
      "First": 6834,
      "об": 6835,
      "2011": 6836,
      "fell": 6837,
      "probably": 6838,
      "board": 6839,
      "subscribe": 6840,
      "voters": 6841,
      "Teh": 6842,
      "return": 6843,
      "igration": 6844,
      "necess": 6845,
      "thous": 6846,
      "newsletter": 6847,
      "sense": 6848,
      "Satur": 6849,
      "became": 6850,
      "require": 6851,
      "running": 6852,
      "April": 6853,
      "sil": 6854,
      "TV": 6855,
      "shows": 6856,
      "Lo": 6857,
      "attacks": 6858,
      "editor": 6859,
      "reng": 6860,
      "yan": 6861,
      "Tehran": 6862,
      "Wednesday": 6863,
      "secut": 6864,
      "org": 6865,
      "workers": 6866,
      "blog": 6867,
      "respon": 6868,
      "regard": 6869,
      "han": 6870,
      "ico": 6871,
      "respect": 6872,
      "occasional": 6873,
      "outside": 6874,
      "ken": 6875,
      "material": 6876,
      "Pat": 6877,
      "People": 6878,
      "comb": 6879,
      "Tex": 6880,
      "jobs": 6881,
      "emer": 6882,
      "Christian": 6883,
      "psych": 6884,
      "problems": 6885,
      "computer": 6886,
      "вы": 6887,
      "road": 6888,
      "agre": 6889,
      "reve": 6890,
      "January": 6891,
      "leader": 6892,
      "prevent": 6893,
      "Septem": 6894,
      "iod": 6895,
      "September": 6896,
      "urning": 6897,
      "actions": 6898,
      "respond": 6899,
      "deep": 6900,
      "Tod": 6901,
      "website": 6902,
      "verify": 6903,
      "Arab": 6904,
      "democr": 6905,
      "attempt": 6906,
      "band": 6907,
      "Gener": 6908,
      "streng": 6909,
      "supp": 6910,
      "Uk": 6911,
      "dist": 6912,
      "presidential": 6913,
      "similar": 6914,
      "signific": 6915,
      "below": 6916,
      "oting": 6917,
      "executive": 6918,
      "candidate": 6919,
      "ze": 6920,
      "Jer": 6921,
      "space": 6922,
      "plom": 6923,
      "iter": 6924,
      "medic": 6925,
      "sed": 6926,
      "quick": 6927,
      "meeting": 6928,
      "lower": 6929,
      "single": 6930,
      "EU": 6931,
      "gain": 6932,
      "intell": 6933,
      "James": 6934,
      "rich": 6935,
      "Newsletter": 6936,
      "nearly": 6937,
      "29": 6938,
      "debt": 6939,
      "tro": 6940,
      "contribut": 6941,
      "stories": 6942,
      "ет": 6943,
      "ny": 6944,
      "newsletters": 6945,
      "appear": 6946,
      "refer": 6947,
      "include": 6948,
      "loss": 6949,
      "bud": 6950,
      "mad": 6951,
      "repe": 6952,
      "wait": 6953,
      "Student": 6954,
      "sequ": 6955,
      "aud": 6956,
      "els": 6957,
      "berg": 6958,
      "increase": 6959,
      "experience": 6960,
      "connect": 6961,
      "speech": 6962,
      "ino": 6963,
      "instead": 6964,
      "от": 6965,
      "FOR": 6966,
      "higher": 6967,
      "apan": 6968,
      "link": 6969,
      "Rom": 6970,
      "explo": 6971,
      "crisis": 6972,
      "friends": 6973,
      "natural": 6974,
      "cir": 6975,
      "coup": 6976,
      "price": 6977,
      "opport": 6978,
      "tained": 6979,
      "omet": 6980,
      "agency": 6981,
      "ored": 6982,
      "wood": 6983,
      "ffer": 6984,
      "total": 6985,
      "Our": 6986,
      "popular": 6987,
      "ihad": 6988,
      "Black": 6989,
      "ста": 6990,
      "prove": 6991,
      "ya": 6992,
      "Ukrain": 6993,
      "page": 6994,
      "express": 6995,
      "series": 6996,
      "longer": 6997,
      "progress": 6998,
      "ners": 6999,
      "arm": 7000,
      "Japan": 7001,
      "surpr": 7002,
      "laws": 7003,
      "NA": 7004,
      "subscribing": 7005,
      "favor": 7006,
      "ements": 7007,
      "Are": 7008,
      "что": 7009,
      "create": 7010,
      "plans": 7011,
      "Invalid": 7012,
      "mir": 7013,
      "cogn": 7014,
      "attle": 7015,
      "Public": 7016,
      "tober": 7017,
      "BI": 7018,
      "released": 7019,
      "published": 7020,
      "upon": 7021,
      "Fin": 7022,
      "lex": 7023,
      "mur": 7024,
      "response": 7025,
      "contain": 7026,
      "moment": 7027,
      "hear": 7028,
      "cing": 7029,
      "lied": 7030,
      "CON": 7031,
      "received": 7032,
      "prison": 7033,
      "October": 7034,
      "fill": 7035,
      "init": 7036,
      "pred": 7037,
      "acts": 7038,
      "check": 7039,
      "effort": 7040,
      "arrest": 7041,
      "hot": 7042,
      "Ann": 7043,
      "istic": 7044,
      "ada": 7045,
      "fa": 7046,
      "minim": 7047,
      "trade": 7048,
      "created": 7049,
      "2008": 7050,
      "iety": 7051,
      "announced": 7052,
      "period": 7053,
      "parents": 7054,
      "covered": 7055,
      "grad": 7056,
      "Qu": 7057,
      "mp": 7058,
      "phys": 7059,
      "answer": 7060,
      "spending": 7061,
      "anned": 7062,
      "____": 7063,
      "operating": 7064,
      "spect": 7065,
      "involved": 7066,
      "ring": 7067,
      "Well": 7068,
      "victim": 7069,
      "document": 7070,
      "iling": 7071,
      "counter": 7072,
      "lie": 7073,
      "Mex": 7074,
      "violence": 7075,
      "Saturday": 7076,
      "oud": 7077,
      "pict": 7078,
      "forward": 7079,
      "sound": 7080,
      "range": 7081,
      "Many": 7082,
      "ties": 7083,
      "ско": 7084,
      "Rahim": 7085,
      "William": 7086,
      "tit": 7087,
      "growth": 7088,
      "inj": 7089,
      "situation": 7090,
      "mult": 7091,
      "itch": 7092,
      "bel": 7093,
      "Thanks": 7094,
      "register": 7095,
      "tw": 7096,
      "SU": 7097,
      "diffic": 7098,
      "San": 7099,
      "See": 7100,
      "gold": 7101,
      "Texas": 7102,
      "Iraqi": 7103,
      "....": 7104,
      "conduct": 7105,
      "loc": 7106,
      "happened": 7107,
      "influ": 7108,
      "liament": 7109,
      "significant": 7110,
      "eg": 7111,
      "2010": 7112,
      "ee": 7113,
      "ises": 7114,
      "era": 7115,
      "wife": 7116,
      "icles": 7117,
      "Security": 7118,
      "Putin": 7119,
      "var": 7120,
      "load": 7121,
      "consu": 7122,
      "Rich": 7123,
      "shut": 7124,
      "calls": 7125,
      "final": 7126,
      "бы": 7127,
      "produced": 7128,
      "gave": 7129,
      "charac": 7130,
      "August": 7131,
      "бо": 7132,
      "cup": 7133,
      "freedom": 7134,
      "ees": 7135,
      "ender": 7136,
      "journal": 7137,
      "film": 7138,
      "ption": 7139,
      "Gold": 7140,
      "teach": 7141,
      "relation": 7142,
      "ston": 7143,
      "lying": 7144,
      "earlier": 7145,
      "ded": 7146,
      "property": 7147,
      "questions": 7148,
      "tly": 7149,
      "paid": 7150,
      "SA": 7151,
      "пе": 7152,
      "bol": 7153,
      "majority": 7154,
      "Then": 7155,
      "ples": 7156,
      "giving": 7157,
      "implement": 7158,
      "Dece": 7159,
      "Di": 7160,
      "cases": 7161,
      "leading": 7162,
      "music": 7163,
      "truct": 7164,
      "nom": 7165,
      "born": 7166,
      "target": 7167,
      "critic": 7168,
      "ghan": 7169,
      "wants": 7170,
      "Art": 7171,
      "Bre": 7172,
      "suffer": 7173,
      "aled": 7174,
      "Let": 7175,
      "population": 7176,
      "December": 7177,
      "sha": 7178,
      "alls": 7179,
      "medical": 7180,
      "legisl": 7181,
      "internet": 7182,
      "regul": 7183,
      "forts": 7184,
      "goes": 7185,
      "citizens": 7186,
      "35": 7187,
      "ana": 7188,
      "stream": 7189,
      "heard": 7190,
      "lebr": 7191,
      "lines": 7192,
      "indic": 7193,
      "aging": 7194,
      "changed": 7195,
      "Every": 7196,
      "worked": 7197,
      "45": 7198,
      "quite": 7199,
      "Law": 7200,
      "needed": 7201,
      "Back": 7202,
      "lack": 7203,
      "results": 7204,
      "review": 7205,
      "ened": 7206,
      "Red": 7207,
      "General": 7208,
      "morning": 7209,
      "rants": 7210,
      "decided": 7211,
      "society": 7212,
      "Syrian": 7213,
      "investigation": 7214,
      "IV": 7215,
      "center": 7216,
      "Window": 7217,
      "stick": 7218,
      "ival": 7219,
      "rench": 7220,
      "movement": 7221,
      "undred": 7222,
      "yle": 7223,
      "destro": 7224,
      "Year": 7225,
      "suit": 7226,
      "usion": 7227,
      "Jud": 7228,
      "conservative": 7229,
      "immedi": 7230,
      "9999": 7231,
      "Ang": 7232,
      "neigh": 7233,
      "UK": 7234,
      "prop": 7235,
      "ATION": 7236,
      "sat": 7237,
      "demon": 7238,
      "при": 7239,
      "communications": 7240,
      "travel": 7241,
      "played": 7242,
      "Sm": 7243,
      "deli": 7244,
      "Robert": 7245,
      "Cent": 7246,
      "bir": 7247,
      "aughter": 7248,
      "ugg": 7249,
      "gre": 7250,
      "intelligence": 7251,
      "==": 7252,
      "grand": 7253,
      "stitute": 7254,
      "hop": 7255,
      "takes": 7256,
      "Union": 7257,
      "surv": 7258,
      "BE": 7259,
      "writes": 7260,
      "blood": 7261,
      "approach": 7262,
      "wel": 7263,
      "venue": 7264,
      "allowed": 7265,
      "recogn": 7266,
      "Lon": 7267,
      "girls": 7268,
      "concl": 7269,
      "independ": 7270,
      "Mart": 7271,
      "via": 7272,
      "opin": 7273,
      "labor": 7274,
      "Justice": 7275,
      "ung": 7276,
      "specific": 7277,
      "ote": 7278,
      "rap": 7279,
      "ruz": 7280,
      "scientific": 7281,
      "sem": 7282,
      "ays": 7283,
      "198": 7284,
      "CN": 7285,
      "rect": 7286,
      "actors": 7287,
      "Ener": 7288,
      "aur": 7289,
      "mas": 7290,
      "bon": 7291,
      "Sand": 7292,
      "erson": 7293,
      "efforts": 7294,
      "mid": 7295,
      "ISIS": 7296,
      "Palest": 7297,
      "Head": 7298,
      "reform": 7299,
      "increasing": 7300,
      "quarter": 7301,
      "network": 7302,
      "ilt": 7303,
      "Afghan": 7304,
      "income": 7305,
      "Today": 7306,
      "Air": 7307,
      "politics": 7308,
      "za": 7309,
      "reality": 7310,
      "Fox": 7311,
      "exact": 7312,
      "street": 7313,
      "500": 7314,
      "Aust": 7315,
      "events": 7316,
      "religious": 7317,
      "prot": 7318,
      "cultural": 7319,
      "san": 7320,
      "minutes": 7321,
      "quality": 7322,
      "Phil": 7323,
      "ال": 7324,
      "rates": 7325,
      "date": 7326,
      "termin": 7327,
      "talking": 7328,
      "ля": 7329,
      "arri": 7330,
      "tells": 7331,
      "wise": 7332,
      "OL": 7333,
      "univers": 7334,
      "El": 7335,
      "rod": 7336,
      "thousands": 7337,
      "aries": 7338,
      "safe": 7339,
      "sw": 7340,
      "avo": 7341,
      "base": 7342,
      "value": 7343,
      "content": 7344,
      "families": 7345,
      "dollars": 7346,
      "hosp": 7347,
      "Energy": 7348,
      "rid": 7349,
      "rep": 7350,
      "poor": 7351,
      "histor": 7352,
      "object": 7353,
      "anony": 7354,
      "spent": 7355,
      "ilities": 7356,
      "Bank": 7357,
      "sue": 7358,
      "Rev": 7359,
      "particip": 7360,
      "sec": 7361,
      "atory": 7362,
      "education": 7363,
      "Def": 7364,
      "written": 7365,
      "message": 7366,
      "Organ": 7367,
      "Cha": 7368,
      "Des": 7369,
      "source": 7370,
      "ani": 7371,
      "attend": 7372,
      "mak": 7373,
      "terms": 7374,
      "?”": 7375,
      "ift": 7376,
      "London": 7377,
      "Federal": 7378,
      "staff": 7379,
      "illegal": 7380,
      "enemy": 7381,
      "difficult": 7382,
      "anim": 7383,
      "died": 7384,
      "bs": 7385,
      "peace": 7386,
      "bey": 7387,
      "esterday": 7388,
      "сти": 7389,
      "ov": 7390,
      "auto": 7391,
      "politic": 7392,
      "wonder": 7393,
      "huge": 7394,
      "iver": 7395,
      "forced": 7396,
      "uk": 7397,
      "erve": 7398,
      "poll": 7399,
      "chair": 7400,
      "King": 7401,
      "Wal": 7402,
      "attention": 7403,
      "appointed": 7404,
      "ature": 7405,
      "ida": 7406,
      "McC": 7407,
      "banks": 7408,
      "holiday": 7409,
      "rem": 7410,
      "Mor": 7411,
      "mention": 7412,
      "Hor": 7413,
      "Barack": 7414,
      "bab": 7415,
      "rout": 7416,
      "Mac": 7417,
      "NE": 7418,
      "bul": 7419,
      "ча": 7420,
      "ometimes": 7421,
      "ния": 7422,
      "millions": 7423,
      "organization": 7424,
      "French": 7425,
      "ening": 7426,
      "FBI": 7427,
      "ases": 7428,
      "lif": 7429,
      "ordin": 7430,
      "Senator": 7431,
      "budget": 7432,
      "sect": 7433,
      "\".": 7434,
      "associ": 7435,
      "affect": 7436,
      "ike": 7437,
      "appeared": 7438,
      "debate": 7439,
      "brought": 7440,
      "squ": 7441,
      "aks": 7442,
      "Secretary": 7443,
      "сто": 7444,
      "wasn": 7445,
      "hundred": 7446,
      "sn": 7447,
      "active": 7448,
      "policies": 7449,
      "Commit": 7450,
      "celebr": 7451,
      "Str": 7452,
      "PA": 7453,
      "hur": 7454,
      "secret": 7455,
      "из": 7456,
      "science": 7457,
      "International": 7458,
      "average": 7459,
      "Society": 7460,
      "ailed": 7461,
      "relationship": 7462,
      "despite": 7463,
      "chance": 7464,
      "Thom": 7465,
      "stock": 7466,
      "Tom": 7467,
      "climate": 7468,
      "Wall": 7469,
      "angu": 7470,
      "production": 7471,
      "registered": 7472,
      "spokes": 7473,
      "ски": 7474,
      "prices": 7475,
      "inese": 7476,
      "2009": 7477,
      "Most": 7478,
      "iers": 7479,
      "”.": 7480,
      "hib": 7481,
      "stant": 7482,
      "mouth": 7483,
      "01": 7484,
      "197": 7485,
      "Nov": 7486,
      "ological": 7487,
      "pick": 7488,
      "conven": 7489,
      "confl": 7490,
      "umb": 7491,
      "criminal": 7492,
      "Ben": 7493,
      "prep": 7494,
      "MO": 7495,
      "Bel": 7496,
      "NY": 7497,
      "credit": 7498,
      "DA": 7499,
      "dog": 7500,
      "pil": 7501,
      "Over": 7502,
      "tried": 7503,
      "RES": 7504,
      "broad": 7505,
      "ние": 7506,
      "goti": 7507,
      "knew": 7508,
      "sett": 7509,
      "Chinese": 7510,
      "Ah": 7511,
      "rev": 7512,
      "murder": 7513,
      "deed": 7514,
      "са": 7515,
      "goal": 7516,
      "terrorist": 7517,
      "cli": 7518,
      "ulture": 7519,
      "Cr": 7520,
      "orney": 7521,
      "Ham": 7522,
      "Spe": 7523,
      "track": 7524,
      "Chris": 7525,
      "ube": 7526,
      "schools": 7527,
      "seven": 7528,
      "willing": 7529,
      "ood": 7530,
      "Ma": 7531,
      "century": 7532,
      "Cap": 7533,
      "carry": 7534,
      "Korea": 7535,
      "Mu": 7536,
      "Che": 7537,
      "boys": 7538,
      "amount": 7539,
      "middle": 7540,
      "wealth": 7541,
      "Green": 7542,
      "Your": 7543,
      "ij": 7544,
      "Kos": 7545,
      "ше": 7546,
      "Oh": 7547,
      "Committee": 7548,
      "numbers": 7549,
      "stitutional": 7550,
      "пре": 7551,
      "operation": 7552,
      "31": 7553,
      "expans": 7554,
      "TER": 7555,
      "growing": 7556,
      "riage": 7557,
      "continued": 7558,
      "immigration": 7559,
      "Net": 7560,
      "ishing": 7561,
      "hous": 7562,
      "ert": 7563,
      "ients": 7564,
      "players": 7565,
      "igrants": 7566,
      "passed": 7567,
      "rock": 7568,
      "ites": 7569,
      "propos": 7570,
      "provided": 7571,
      "PR": 7572,
      "SE": 7573,
      "ona": 7574,
      "related": 7575,
      "failed": 7576,
      "Last": 7577,
      "weet": 7578,
      "tour": 7579,
      "Hum": 7580,
      "kept": 7581,
      "TY": 7582,
      "informed": 7583,
      "Israeli": 7584,
      "negoti": 7585,
      "traff": 7586,
      "remember": 7587,
      "considered": 7588,
      "iff": 7589,
      "па": 7590,
      "served": 7591,
      "claimed": 7592,
      "ple": 7593,
      "version": 7594,
      "officers": 7595,
      "Western": 7596,
      "sexual": 7597,
      "abort": 7598,
      "ibly": 7599,
      "block": 7600,
      "region": 7601,
      "encour": 7602,
      "brings": 7603,
      "County": 7604,
      "Gen": 7605,
      "ysis": 7606,
      "чи": 7607,
      "pic": 7608,
      "Scot": 7609,
      "typ": 7610,
      "technology": 7611,
      "Council": 7612,
      "lad": 7613,
      "insurance": 7614,
      "ously": 7615,
      "Ken": 7616,
      "TR": 7617,
      "ky": 7618,
      "currently": 7619,
      "iple": 7620,
      "mun": 7621,
      "mail": 7622,
      "development": 7623,
      "Pri": 7624,
      "levels": 7625,
      "School": 7626,
      "ander": 7627,
      "vast": 7628,
      "comments": 7629,
      "surve": 7630,
      "costs": 7631,
      "largest": 7632,
      "chain": 7633,
      "vil": 7634,
      "couple": 7635,
      "Ret": 7636,
      "radio": 7637,
      "agreement": 7638,
      "summer": 7639,
      "****": 7640,
      "Germany": 7641,
      "sea": 7642,
      "southern": 7643,
      "zy": 7644,
      "ры": 7645,
      "assistance": 7646,
      "IG": 7647,
      "Eng": 7648,
      "acted": 7649,
      "Bu": 7650,
      "inations": 7651,
      "German": 7652,
      "areas": 7653,
      "Media": 7654,
      "Jack": 7655,
      "WH": 7656,
      "lawy": 7657,
      "Navy": 7658,
      "programs": 7659,
      "crime": 7660,
      "Trade": 7661,
      "various": 7662,
      "Rel": 7663,
      "iting": 7664,
      "vest": 7665,
      "Flor": 7666,
      "felt": 7667,
      "log": 7668,
      "justice": 7669,
      "encies": 7670,
      "apol": 7671,
      "earth": 7672,
      "inside": 7673,
      "strugg": 7674,
      "Since": 7675,
      "vie": 7676,
      "ledge": 7677,
      "protest": 7678,
      "boy": 7679,
      "perhaps": 7680,
      "yst": 7681,
      "posted": 7682,
      "Get": 7683,
      "Who": 7684,
      "90": 7685,
      "sales": 7686,
      "imag": 7687,
      "beyond": 7688,
      "obvious": 7689,
      "alone": 7690,
      "spr": 7691,
      "prosecut": 7692,
      "rules": 7693,
      "expansion": 7694,
      "nar": 7695,
      "walk": 7696,
      "Military": 7697,
      "depart": 7698,
      "necessary": 7699,
      "central": 7700,
      "Elect": 7701,
      "lyn": 7702,
      "Mer": 7703,
      "paper": 7704,
      "noted": 7705,
      "medicine": 7706,
      "fast": 7707,
      "milit": 7708,
      "Earth": 7709,
      "rise": 7710,
      "Church": 7711,
      "ду": 7712,
      "introd": 7713,
      "Britain": 7714,
      "easy": 7715,
      "CIA": 7716,
      "corporate": 7717,
      "cancer": 7718,
      "benefits": 7719,
      "parliament": 7720,
      "Wik": 7721,
      "Vir": 7722,
      "arily": 7723,
      "hands": 7724,
      "decades": 7725,
      "particularly": 7726,
      "arian": 7727,
      "extreme": 7728,
      "Ukraine": 7729,
      "ux": 7730,
      "senior": 7731,
      "ked": 7732,
      "vention": 7733,
      "France": 7734,
      "bri": 7735,
      "attr": 7736,
      "regular": 7737,
      "college": 7738,
      "pack": 7739,
      "standing": 7740,
      "LY": 7741,
      "door": 7742,
      "voted": 7743,
      "omen": 7744,
      "organiz": 7745,
      "placed": 7746,
      "join": 7747,
      "eight": 7748,
      "neg": 7749,
      "choice": 7750,
      "calling": 7751,
      "pun": 7752,
      "Park": 7753,
      "recomm": 7754,
      "enforce": 7755,
      "named": 7756,
      "sad": 7757,
      "bes": 7758,
      "moving": 7759,
      "rupt": 7760,
      "ires": 7761,
      "assa": 7762,
      "pretty": 7763,
      "estic": 7764,
      "culture": 7765,
      "release": 7766,
      "restr": 7767,
      "doub": 7768,
      "exam": 7769,
      "cents": 7770,
      "except": 7771,
      "stor": 7772,
      "theater": 7773,
      "ATE": 7774,
      "taxes": 7775,
      "opt": 7776,
      "described": 7777,
      "33": 7778,
      "forman": 7779,
      "included": 7780,
      "endment": 7781,
      "liberal": 7782,
      "prior": 7783,
      "Sal": 7784,
      "Florida": 7785,
      "suspect": 7786,
      "character": 7787,
      "fal": 7788,
      "owners": 7789,
      "candidates": 7790,
      "draw": 7791,
      "ram": 7792,
      "FO": 7793,
      "modern": 7794,
      "plant": 7795,
      "GET": 7796,
      "https": 7797,
      "primary": 7798,
      "Because": 7799,
      "opposition": 7800,
      "Like": 7801,
      "views": 7802,
      "App": 7803,
      "faith": 7804,
      "DV": 7805,
      "Ron": 7806,
      "finally": 7807,
      "separ": 7808,
      "Palestin": 7809,
      "Medic": 7810,
      "eff": 7811,
      "gone": 7812,
      "mitted": 7813,
      "Bern": 7814,
      "Government": 7815,
      "Clo": 7816,
      "cul": 7817,
      "kids": 7818,
      "Middle": 7819,
      "Politics": 7820,
      "Follow": 7821,
      "Brown": 7822,
      "eth": 7823,
      "Coast": 7824,
      "avi": 7825,
      "Saudi": 7826,
      "certainly": 7827,
      "original": 7828,
      "spot": 7829,
      "trust": 7830,
      "pressure": 7831,
      "correct": 7832,
      "profit": 7833,
      "appears": 7834,
      "ering": 7835,
      "Lin": 7836,
      "Constitution": 7837,
      "fighting": 7838,
      "dy": 7839,
      "UR": 7840,
      "rine": 7841,
      "construct": 7842,
      "Ay": 7843,
      "playing": 7844,
      "ologist": 7845,
      "supports": 7846,
      "Fed": 7847,
      "Mat": 7848,
      "trial": 7849,
      "quickly": 7850,
      "ease": 7851,
      "Found": 7852,
      "looks": 7853,
      "sey": 7854,
      "Jewish": 7855,
      "antic": 7856,
      "Reg": 7857,
      "terrorism": 7858,
      "fol": 7859,
      "AF": 7860,
      "earch": 7861,
      "havi": 7862,
      "acity": 7863,
      "remains": 7864,
      "AID": 7865,
      "thinking": 7866,
      "Chic": 7867,
      "challeng": 7868,
      "perfect": 7869,
      "Sto": 7870,
      "ufact": 7871,
      "Police": 7872,
      "saf": 7873,
      "yesterday": 7874,
      "tor": 7875,
      "books": 7876,
      "Sw": 7877,
      "stated": 7878,
      "obtained": 7879,
      "estim": 7880,
      "Gree": 7881,
      "arms": 7882,
      "нно": 7883,
      "powerful": 7884,
      "Jes": 7885,
      "iction": 7886,
      "rowser": 7887,
      "learn": 7888,
      "NOT": 7889,
      "ado": 7890,
      "na": 7891,
      "apparen": 7892,
      "Fore": 7893,
      "CNN": 7894,
      "bassy": 7895,
      "officer": 7896,
      "Bak": 7897,
      "DVD": 7898,
      "Alex": 7899,
      "Ital": 7900,
      "Obam": 7901,
      "ension": 7902,
      "aling": 7903,
      "conference": 7904,
      "SH": 7905,
      "establish": 7906,
      "Big": 7907,
      "Angel": 7908,
      "Intern": 7909,
      "worse": 7910,
      "beginning": 7911,
      "enced": 7912,
      "elected": 7913,
      "vacc": 7914,
      "Organization": 7915,
      "rule": 7916,
      "victory": 7917,
      "Liber": 7918,
      "Jam": 7919,
      "это": 7920,
      "langu": 7921,
      "birth": 7922,
      "marriage": 7923,
      "uters": 7924,
      "му": 7925,
      "type": 7926,
      "Chicago": 7927,
      "supposed": 7928,
      "focus": 7929,
      "upcoming": 7930,
      "useum": 7931,
      "ще": 7932,
      "reli": 7933,
      "Su": 7934,
      "launched": 7935,
      "olute": 7936,
      "cise": 7937,
      "copy": 7938,
      "daily": 7939,
      "slow": 7940,
      "performan": 7941,
      "GB": 7942,
      "ification": 7943,
      "charge": 7944,
      "mical": 7945,
      "throughout": 7946,
      "advoc": 7947,
      "sof": 7948,
      "Saf": 7949,
      "purch": 7950,
      "biggest": 7951,
      "crow": 7952,
      "COM": 7953,
      "ek": 7954,
      "opportunity": 7955,
      "complain": 7956,
      "cross": 7957,
      "ASS": 7958,
      "alleged": 7959,
      "send": 7960,
      "showed": 7961,
      "submission": 7962,
      "hus": 7963,
      "career": 7964,
      "Social": 7965,
      "Say": 7966,
      "Fact": 7967,
      "writing": 7968,
      "strengthen": 7969,
      "gypt": 7970,
      "consum": 7971,
      "fem": 7972,
      "enjo": 7973,
      "gar": 7974,
      "deliver": 7975,
      "DE": 7976,
      "ahead": 7977,
      "completely": 7978,
      "erry": 7979,
      "Life": 7980,
      "incident": 7981,
      "caused": 7982,
      "markets": 7983,
      "mist": 7984,
      "enda": 7985,
      "exactly": 7986,
      "ouch": 7987,
      "Mill": 7988,
      "isk": 7989,
      "speaker": 7990,
      "ele": 7991,
      "interests": 7992,
      "impact": 7993,
      "marks": 7994,
      "parts": 7995,
      "daughter": 7996,
      "Egypt": 7997,
      "nik": 7998,
      "wish": 7999,
      "behavi": 8000,
      "safety": 8001,
      "employees": 8002,
      "helped": 8003,
      "looked": 8004,
      "legislation": 8005,
      "196": 8006,
      "charges": 8007,
      "ique": 8008,
      "simple": 8009,
      "Afghanistan": 8010,
      "trait": 8011,
      "universities": 8012,
      "AB": 8013,
      "IP": 8014,
      "coal": 8015,
      "brain": 8016,
      "IAL": 8017,
      "~~": 8018,
      "club": 8019,
      "ну": 8020,
      "ims": 8021,
      "WE": 8022,
      "troops": 8023,
      "trou": 8024,
      "thus": 8025,
      "NAT": 8026,
      "serve": 8027,
      "tre": 8028,
      "training": 8029,
      "Jihad": 8030,
      "Iv": 8031,
      "icted": 8032,
      "details": 8033,
      "secure": 8034,
      "smo": 8035,
      "print": 8036,
      "Another": 8037,
      "Free": 8038,
      "whom": 8039,
      "Vo": 8040,
      "authorities": 8041,
      "sens": 8042,
      "counts": 8043,
      "consideration": 8044,
      "plomacy": 8045,
      "atever": 8046,
      "Att": 8047,
      "supporters": 8048,
      "produc": 8049,
      "inn": 8050,
      "iment": 8051,
      "addition": 8052,
      "knows": 8053,
      "da": 8054,
      "USB": 8055,
      "neighbor": 8056,
      "guy": 8057,
      "Allah": 8058,
      "investment": 8059,
      "announce": 8060,
      "increased": 8061,
      "television": 8062,
      "minor": 8063,
      "store": 8064,
      "advertis": 8065,
      "altern": 8066,
      "36": 8067,
      "false": 8068,
      "confir": 8069,
      "built": 8070,
      "stage": 8071,
      "Richard": 8072,
      "sets": 8073,
      "cry": 8074,
      "fare": 8075,
      "armed": 8076,
      "GETTY": 8077,
      "Yet": 8078,
      "dig": 8079,
      "sid": 8080,
      "Turkey": 8081,
      "Jeff": 8082,
      "reflect": 8083,
      "includes": 8084,
      "nature": 8085,
      "High": 8086,
      "gay": 8087,
      "DC": 8088,
      "acare": 8089,
      "hate": 8090,
      "Report": 8091,
      "sle": 8092,
      "LO": 8093,
      "union": 8094,
      "GO": 8095,
      "avoid": 8096,
      "reasons": 8097,
      "flow": 8098,
      "yal": 8099,
      "note": 8100,
      "responsible": 8101,
      "Sci": 8102,
      "clearly": 8103,
      "Those": 8104,
      "Ke": 8105,
      "poses": 8106,
      "Virgin": 8107,
      "battle": 8108,
      "purpose": 8109,
      "Lou": 8110,
      "Sam": 8111,
      "clean": 8112,
      "EST": 8113,
      "implementation": 8114,
      "opinion": 8115,
      "Obamacare": 8116,
      "wards": 8117,
      "Cath": 8118,
      "refuge": 8119,
      "airs": 8120,
      "gency": 8121,
      "burn": 8122,
      "oring": 8123,
      "nationally": 8124,
      "please": 8125,
      "acies": 8126,
      "essential": 8127,
      "figure": 8128,
      "75": 8129,
      "lands": 8130,
      "aware": 8131,
      "path": 8132,
      "Economy": 8133,
      "stra": 8134,
      "asc": 8135,
      "Miss": 8136,
      "beat": 8137,
      "ctions": 8138,
      "ultim": 8139,
      "sort": 8140,
      "Lat": 8141,
      "employment": 8142,
      "African": 8143,
      "ос": 8144,
      "church": 8145,
      "ries": 8146,
      "44": 8147,
      "voting": 8148,
      "status": 8149,
      "THAT": 8150,
      "green": 8151,
      "votes": 8152,
      "Institute": 8153,
      "iving": 8154,
      "experi": 8155,
      "Mexico": 8156,
      "immediately": 8157,
      "continues": 8158,
      "individuals": 8159,
      "cum": 8160,
      "husband": 8161,
      "Play": 8162,
      "хо": 8163,
      "cis": 8164,
      "Army": 8165,
      "yn": 8166,
      "elections": 8167,
      "га": 8168,
      "mising": 8169,
      "traffic": 8170,
      "raised": 8171,
      "Kay": 8172,
      "leadership": 8173,
      "anonymising": 8174,
      "match": 8175,
      "happy": 8176,
      "AIDS": 8177,
      "Direct": 8178,
      "icial": 8179,
      "die": 8180,
      "veh": 8181,
      "improve": 8182,
      "sources": 8183,
      "nations": 8184,
      "exc": 8185,
      "Engl": 8186,
      "Val": 8187,
      "defend": 8188,
      "tic": 8189,
      "ку": 8190,
      "agreed": 8191,
      "sometimes": 8192,
      "capacity": 8193,
      "cash": 8194,
      "Internet": 8195,
      "McCain": 8196,
      "documents": 8197,
      "UT": 8198,
      "extra": 8199,
      "vices": 8200,
      "leaves": 8201,
      "Rad": 8202,
      "signed": 8203,
      "ί": 8204,
      "Yes": 8205,
      "strateg": 8206,
      "Johnson": 8207,
      "movie": 8208,
      "acqu": 8209,
      "nic": 8210,
      "Muslims": 8211,
      "pression": 8212,
      "limited": 8213,
      "cam": 8214,
      "meaning": 8215,
      "ου": 8216,
      "agon": 8217,
      "USA": 8218,
      "India": 8219,
      "abortion": 8220,
      ".’": 8221,
      "although": 8222,
      "Round": 8223,
      "porter": 8224,
      "ateg": 8225,
      "conflict": 8226,
      "ta": 8227,
      "apolis": 8228,
      "write": 8229,
      "Conserv": 8230,
      "phen": 8231,
      "enge": 8232,
      "Good": 8233,
      "consist": 8234,
      "anda": 8235,
      "request": 8236,
      "Cub": 8237,
      "spirit": 8238,
      "feed": 8239,
      "fat": 8240,
      "During": 8241,
      "hab": 8242,
      "tocol": 8243,
      "massive": 8244,
      "IF": 8245,
      "determin": 8246,
      "!!": 8247,
      "doctrine": 8248,
      "lic": 8249,
      "nut": 8250,
      "idge": 8251,
      "conditions": 8252,
      "Two": 8253,
      "DO": 8254,
      "save": 8255,
      "La": 8256,
      "belief": 8257,
      "VER": 8258,
      "Human": 8259,
      "MA": 8260,
      "Watch": 8261,
      "parties": 8262,
      "fuel": 8263,
      "Any": 8264,
      "сь": 8265,
      "district": 8266,
      "expand": 8267,
      "embassy": 8268,
      "sched": 8269,
      "spend": 8270,
      "Frank": 8271,
      "acting": 8272,
      "cities": 8273,
      "Alf": 8274,
      "funds": 8275,
      "engine": 8276,
      "iant": 8277,
      "raise": 8278,
      "ancy": 8279,
      "lay": 8280,
      "Culture": 8281,
      "fit": 8282,
      "regime": 8283,
      "Ros": 8284,
      "reject": 8285,
      "Fire": 8286,
      "throw": 8287,
      "ieve": 8288,
      "Indian": 8289,
      "practice": 8290,
      "exchanges": 8291,
      "craft": 8292,
      "iced": 8293,
      "directly": 8294,
      "Ahmad": 8295,
      "NATO": 8296,
      "PRO": 8297,
      "victims": 8298,
      "fortun": 8299,
      "pled": 8300,
      "chemical": 8301,
      "capt": 8302,
      "student": 8303,
      "Carol": 8304,
      "flag": 8305,
      "trip": 8306,
      "Cam": 8307,
      "hundreds": 8308,
      "enforcement": 8309,
      "newsp": 8310,
      "Ev": 8311,
      "seemed": 8312,
      "Comp": 8313,
      "interior": 8314,
      "Care": 8315,
      "operations": 8316,
      "visa": 8317,
      "manufact": 8318,
      "gent": 8319,
      "places": 8320,
      "icy": 8321,
      "Los": 8322,
      "systems": 8323,
      "critical": 8324,
      "ping": 8325,
      "closed": 8326,
      "screen": 8327,
      "Jose": 8328,
      "doubt": 8329,
      "Pak": 8330,
      "нны": 8331,
      "ses": 8332,
      "pul": 8333,
      "card": 8334,
      "Mad": 8335,
      "absolute": 8336,
      "Mag": 8337,
      "hospital": 8338,
      "unch": 8339,
      "MS": 8340,
      "shall": 8341,
      "yourself": 8342,
      "aces": 8343,
      "demonstr": 8344,
      "minimal": 8345,
      "ги": 8346,
      "disease": 8347,
      "Mass": 8348,
      "evil": 8349,
      "Joe": 8350,
      "Although": 8351,
      "zing": 8352,
      "beaut": 8353,
      "politicians": 8354,
      "Great": 8355,
      "collap": 8356,
      "girl": 8357,
      "----------------": 8358,
      "oral": 8359,
      "English": 8360,
      "Canada": 8361,
      "commer": 8362,
      "Jim": 8363,
      "BS": 8364,
      "required": 8365,
      "inated": 8366,
      "explained": 8367,
      "committee": 8368,
      "controll": 8369,
      "wind": 8370,
      "dark": 8371,
      "inte": 8372,
      "owner": 8373,
      "table": 8374,
      "ield": 8375,
      "oted": 8376,
      "Conspir": 8377,
      "advisor": 8378,
      "strategy": 8379,
      "treatment": 8380,
      "stein": 8381,
      "Global": 8382,
      "Right": 8383,
      "submar": 8384,
      "brief": 8385,
      "teen": 8386,
      "positive": 8387,
      "sess": 8388,
      "Research": 8389,
      "Mal": 8390,
      "holidays": 8391,
      "warns": 8392,
      "hav": 8393,
      "Wil": 8394,
      "lob": 8395,
      "highly": 8396,
      "democracy": 8397,
      "Sheik": 8398,
      "Romney": 8399,
      "usually": 8400,
      "makers": 8401,
      "sun": 8402,
      "informs": 8403,
      "Shar": 8404,
      "раз": 8405,
      "sites": 8406,
      "terrorists": 8407,
      "\",": 8408,
      "38": 8409,
      "Out": 8410,
      "34": 8411,
      "cat": 8412,
      "starting": 8413,
      "Cathol": 8414,
      "Del": 8415,
      "normal": 8416,
      "owers": 8417,
      "killing": 8418,
      "ют": 8419,
      "Web": 8420,
      "greater": 8421,
      "influence": 8422,
      "Camp": 8423,
      "weekend": 8424,
      "Smith": 8425,
      "wouldn": 8426,
      "GC": 8427,
      "England": 8428,
      "Au": 8429,
      "Brook": 8430,
      "style": 8431,
      "Under": 8432,
      "…]": 8433,
      "2006": 8434,
      "language": 8435,
      "image": 8436,
      "worst": 8437,
      "judge": 8438,
      "Cal": 8439,
      "lock": 8440,
      "shooting": 8441,
      "text": 8442,
      "League": 8443,
      "independent": 8444,
      "Scott": 8445,
      "TS": 8446,
      "exer": 8447,
      "lose": 8448,
      "drugs": 8449,
      "asking": 8450,
      "stain": 8451,
      "scious": 8452,
      "analysis": 8453,
      "insu": 8454,
      "Africa": 8455,
      "jad": 8456,
      "55": 8457,
      "ville": 8458,
      "offered": 8459,
      "domestic": 8460,
      "responsibility": 8461,
      "accused": 8462,
      "afford": 8463,
      "це": 8464,
      "basis": 8465,
      "prem": 8466,
      "WI": 8467,
      "coverage": 8468,
      "weak": 8469,
      "atter": 8470,
      "EX": 8471,
      "maintain": 8472,
      "cuts": 8473,
      "resh": 8474,
      "miral": 8475,
      "Pakistan": 8476,
      "Thomas": 8477,
      "ota": 8478,
      "[…]": 8479,
      "Christmas": 8480,
      "HE": 8481,
      "maybe": 8482,
      "revealed": 8483,
      "37": 8484,
      "damage": 8485,
      "sky": 8486,
      "Moore": 8487,
      "Cond": 8488,
      "Francis": 8489,
      "concerns": 8490,
      "picture": 8491,
      "believed": 8492,
      "Central": 8493,
      "Issue": 8494,
      "ILL": 8495,
      "LD": 8496,
      "followed": 8497,
      "ially": 8498,
      "Their": 8499,
      "ost": 8500,
      "internationally": 8501,
      "verse": 8502,
      "contract": 8503,
      "meth": 8504,
      "agan": 8505,
      "socially": 8506,
      "atol": 8507,
      "song": 8508,
      "custom": 8509,
      "environment": 8510,
      "inner": 8511,
      "reached": 8512,
      "asco": 8513,
      "pted": 8514,
      "тель": 8515,
      "witness": 8516,
      "ito": 8517,
      "sch": 8518,
      "Mur": 8519,
      "32": 8520,
      "occup": 8521,
      "Defense": 8522,
      "performance": 8523,
      "rend": 8524,
      "telling": 8525,
      "Commission": 8526,
      "olf": 8527,
      "funding": 8528,
      "Jones": 8529,
      "Foundation": 8530,
      "Star": 8531,
      "Mosc": 8532,
      "Hab": 8533,
      "48": 8534,
      "talks": 8535,
      "Admiral": 8536,
      "Sanders": 8537,
      "Hel": 8538,
      "mob": 8539,
      "writer": 8540,
      "organizations": 8541,
      "——": 8542,
      "Virginia": 8543,
      "Additional": 8544,
      "бе": 8545,
      "Tri": 8546,
      "Jesus": 8547,
      "additional": 8548,
      "iev": 8549,
      "SO": 8550,
      "issued": 8551,
      "theid": 8552,
      "inejad": 8553,
      "fraud": 8554,
      "drive": 8555,
      "assu": 8556,
      "bomb": 8557,
      "size": 8558,
      "Peter": 8559,
      "winning": 8560,
      "Bra": 8561,
      "moral": 8562,
      "bled": 8563,
      "designed": 8564,
      "Mike": 8565,
      "reactors": 8566,
      "Ahmadinejad": 8567,
      "Azer": 8568,
      "dem": 8569,
      "rick": 8570,
      "leaving": 8571,
      "ин": 8572,
      "usual": 8573,
      "Other": 8574,
      "homes": 8575,
      "Risk": 8576,
      "Instead": 8577,
      "ented": 8578,
      "egal": 8579,
      "effects": 8580,
      "benefit": 8581,
      "ano": 8582,
      "unless": 8583,
      "resources": 8584,
      "eyes": 8585,
      "psychologist": 8586,
      "interesting": 8587,
      "constitutional": 8588,
      "uction": 8589,
      "Administration": 8590,
      "NC": 8591,
      "planet": 8592,
      "knowledge": 8593,
      "Office": 8594,
      "challenge": 8595,
      "PM": 8596,
      "bling": 8597,
      "2000": 8598,
      "holding": 8599,
      "Sey": 8600,
      "automat": 8601,
      "Group": 8602,
      "Martin": 8603,
      "sla": 8604,
      "arrested": 8605,
      "agencies": 8606,
      "Moscow": 8607,
      "inks": 8608,
      "seeing": 8609,
      "iation": 8610,
      "fellow": 8611,
      "Trans": 8612,
      "Time": 8613,
      "concerned": 8614,
      "2004": 8615,
      "convers": 8616,
      "residents": 8617,
      "repeated": 8618,
      "appropri": 8619,
      "Austral": 8620,
      "umn": 8621,
      "andi": 8622,
      "articles": 8623,
      "ideas": 8624,
      "meant": 8625,
      "authority": 8626,
      "Gl": 8627,
      "atollah": 8628,
      "environments": 8629,
      "detailed": 8630,
      "isions": 8631,
      "model": 8632,
      "rating": 8633,
      "eda": 8634,
      "agenda": 8635,
      "Invest": 8636,
      "zz": 8637,
      "harder": 8638,
      "pilgr": 8639,
      "Adel": 8640,
      "analyst": 8641,
      "soldiers": 8642,
      "kn": 8643,
      "icts": 8644,
      "gather": 8645,
      "iled": 8646,
      "consequ": 8647,
      "condition": 8648,
      "Kham": 8649,
      "”,": 8650,
      "Tal": 8651,
      "LA": 8652,
      "emot": 8653,
      "onto": 8654,
      "nel": 8655,
      "aggress": 8656,
      "Ayatollah": 8657,
      "doz": 8658,
      "submarines": 8659,
      "standard": 8660,
      "successful": 8661,
      "Protocol": 8662,
      "39": 8663,
      "ureau": 8664,
      "gives": 8665,
      "GN": 8666,
      "figh": 8667,
      "violent": 8668,
      "mainstream": 8669,
      "scen": 8670,
      "SP": 8671,
      "annel": 8672,
      "Wiki": 8673,
      "spokesman": 8674,
      "eye": 8675,
      "happens": 8676,
      "baby": 8677,
      "advant": 8678,
      "ό": 8679,
      "fiasco": 8680,
      "Journal": 8681,
      "integr": 8682,
      "49": 8683,
      "Also": 8684,
      "trict": 8685,
      "65": 8686,
      "dream": 8687,
      "47": 8688,
      "governments": 8689,
      "liter": 8690,
      "effective": 8691,
      "environmental": 8692,
      "vari": 8693,
      "religion": 8694,
      "Jews": 8695,
      "names": 8696,
      "ME": 8697,
      "crimes": 8698,
      "failure": 8699,
      "stuff": 8700,
      "confirmed": 8701,
      "Mary": 8702,
      "Senegal": 8703,
      "seeking": 8704,
      "Ivory": 8705,
      "frequ": 8706,
      "MENT": 8707,
      "difference": 8708,
      "ht": 8709,
      "wall": 8710,
      "300": 8711,
      "Yaz": 8712,
      "citizen": 8713,
      "seek": 8714,
      "Bay": 8715,
      "lude": 8716,
      "mous": 8717,
      "activity": 8718,
      "ня": 8719,
      "spread": 8720,
      "Next": 8721,
      "malls": 8722,
      "comfort": 8723,
      "assault": 8724,
      "itz": 8725,
      "towards": 8726,
      "Jamal": 8727,
      "complex": 8728,
      "Sou": 8729,
      "Paris": 8730,
      "compared": 8731,
      "forms": 8732,
      "feet": 8733,
      "Sub": 8734,
      "understanding": 8735,
      "physical": 8736,
      "Yah": 8737,
      "whatever": 8738,
      "Background": 8739,
      "Strait": 8740,
      "showing": 8741,
      "Sur": 8742,
      "entail": 8743,
      "machinations": 8744,
      "Added": 8745,
      "weight": 8746,
      "iful": 8747,
      "experts": 8748,
      "Sovi": 8749,
      "cru": 8750,
      "About": 8751,
      "ruption": 8752,
      "pilgrims": 8753,
      "Returning": 8754,
      "reporting": 8755,
      "patients": 8756,
      "warning": 8757,
      "ager": 8758,
      "learned": 8759,
      "Prof": 8760,
      "behavior": 8761,
      "Rights": 8762,
      "):": 8763,
      "Real": 8764,
      "Conditions": 8765,
      "outr": 8766,
      "etro": 8767,
      "VE": 8768,
      "mouthpiece": 8769,
      "farm": 8770,
      "fans": 8771,
      "shown": 8772,
      "prelude": 8773,
      "strengthens": 8774,
      "concern": 8775,
      "Apar": 8776,
      "ables": 8777,
      "thy": 8778,
      "tough": 8779,
      "conv": 8780,
      "eventually": 8781,
      "2005": 8782,
      "download": 8783,
      "Sayy": 8784,
      "resent": 8785,
      "Hadd": 8786,
      "fix": 8787,
      "hearing": 8788,
      "Far": 8789,
      "Apartheid": 8790,
      "voice": 8791,
      "congress": 8792,
      "IRGC": 8793,
      "Ko": 8794,
      "compiling": 8795,
      "uth": 8796,
      "otherwise": 8797,
      "strike": 8798,
      "ounds": 8799,
      "ingly": 8800,
      "azine": 8801,
      "tool": 8802,
      "muz": 8803,
      "docks": 8804,
      "wal": 8805,
      "miles": 8806,
      "Diplomacy": 8807,
      "myself": 8808,
      "couldn": 8809,
      "covery": 8810,
      "acknow": 8811,
      "Hormuz": 8812,
      "ador": 8813,
      "ISNA": 8814,
      "prepared": 8815,
      "mort": 8816,
      "oneh": 8817,
      "businesses": 8818,
      "Habib": 8819,
      "су": 8820,
      "ining": 8821,
      "virt": 8822,
      "Annapolis": 8823,
      "believes": 8824,
      "convening": 8825,
      "formation": 8826,
      "Haddad": 8827,
      "traditional": 8828,
      "decadence": 8829,
      "Baku": 8830,
      "professional": 8831,
      "mere": 8832,
      "College": 8833,
      "Yahya": 8834,
      "Associations": 8835,
      "сть": 8836,
      "pool": 8837,
      "accom": 8838,
      "eat": 8839,
      "Conspiracies": 8840,
      "applic": 8841,
      "rial": 8842,
      "committed": 8843,
      "nei": 8844,
      "iyan": 8845,
      "west": 8846,
      "speed": 8847,
      "ares": 8848,
      "solution": 8849,
      "wild": 8850,
      "Market": 8851,
      "professor": 8852,
      "healthy": 8853,
      "Ve": 8854,
      "option": 8855,
      "pping": 8856,
      "Seyyed": 8857,
      "Azeri": 8858,
      "Rem": 8859,
      "spoke": 8860,
      "veter": 8861,
      "Ari": 8862,
      "investors": 8863,
      "speaking": 8864,
      "mostly": 8865,
      "Aft": 8866,
      "Closure": 8867,
      "46": 8868,
      "Ghol": 8869,
      "iring": 8870,
      "relative": 8871,
      "creating": 8872,
      "кото": 8873,
      "amin": 8874,
      "yes": 8875,
      "Louis": 8876,
      "Mem": 8877,
      "famous": 8878,
      "Gholam": 8879,
      "rare": 8880,
      "Sayyari": 8881,
      "keeping": 8882,
      "adding": 8883,
      "Kayhan": 8884,
      "Alfoneh": 8885,
      "Aftab": 8886,
      "Yazd": 8887,
      "Nowruz": 8888,
      "ной": 8889,
      "title": 8890,
      "immigrants": 8891,
      "Safavi": 8892,
      "Davar": 8893,
      "missed": 8894,
      "supported": 8895,
      "drop": 8896,
      "Rahimiyan": 8897,
      "havandi": 8898,
      "Sheikhavandi": 8899,
      "Khamnei": 8900,
      "scientists": 8901,
      "Nat": 8902,
      "hack": 8903,
      "annual": 8904,
      "Qa": 8905,
      "Amendment": 8906,
      "previously": 8907,
      "Rob": 8908,
      "EMB": 8909,
      "sor": 8910,
      "Lu": 8911,
      "Sha": 8912,
      "CC": 8913,
      "Sar": 8914,
      "fan": 8915,
      "theory": 8916,
      "RT": 8917,
      "facts": 8918,
      "NBC": 8919,
      "reduce": 8920,
      "Liby": 8921,
      "hatt": 8922,
      "riot": 8923,
      "opened": 8924,
      "ker": 8925,
      "promise": 8926,
      "eful": 8927,
      "swe": 8928,
      "radical": 8929,
      "́n": 8930,
      "ши": 8931,
      "supply": 8932,
      "Open": 8933,
      "charged": 8934,
      "flu": 8935,
      "loved": 8936,
      "Reuters": 8937,
      "athe": 8938,
      "army": 8939,
      "liance": 8940,
      "лу": 8941,
      "intended": 8942,
      "жи": 8943,
      "commercial": 8944,
      "governor": 8945,
      "cook": 8946,
      "happening": 8947,
      "Child": 8948,
      "Block": 8949,
      "Kur": 8950,
      "Association": 8951,
      "chairman": 8952,
      "records": 8953,
      "apparently": 8954,
      "player": 8955,
      "measure": 8956,
      "Ryan": 8957,
      "hero": 8958,
      "convict": 8959,
      "jump": 8960,
      "harm": 8961,
      "coach": 8962,
      "etc": 8963,
      "numer": 8964,
      "decade": 8965,
      "interested": 8966,
      "values": 8967,
      "tribut": 8968,
      "Steve": 8969,
      "none": 8970,
      "largely": 8971,
      "Catholic": 8972,
      "destruct": 8973,
      "truly": 8974,
      "becomes": 8975,
      "Nations": 8976,
      "achieve": 8977,
      "lets": 8978,
      "easily": 8979,
      "scene": 8980,
      "ensure": 8981,
      "ips": 8982,
      "ican": 8983,
      "stress": 8984,
      "assist": 8985,
      "elimin": 8986,
      "shop": 8987,
      "twitter": 8988,
      "Hist": 8989,
      "Tim": 8990,
      "eless": 8991,
      "Qaeda": 8992,
      "Bob": 8993,
      "plus": 8994,
      "Prime": 8995,
      "Sil": 8996,
      "astic": 8997,
      "method": 8998,
      "proposed": 8999,
      "ERS": 9000,
      "rising": 9001,
      "Service": 9002,
      "dict": 9003,
      "moun": 9004,
      "Book": 9005,
      "becoming": 9006,
      "apped": 9007,
      "heav": 9008,
      "regarding": 9009,
      "suggested": 9010,
      "manager": 9011,
      "Bal": 9012,
      "paying": 9013,
      "Atl": 9014,
      "astro": 9015,
      "gender": 9016,
      "orders": 9017,
      "highest": 9018,
      "02": 9019,
      "opening": 9020,
      "Christians": 9021,
      "excl": 9022,
      "bag": 9023,
      "uty": 9024,
      "lor": 9025,
      "ange": 9026,
      "ifying": 9027,
      "joined": 9028,
      "igan": 9029,
      "icide": 9030,
      "ration": 9031,
      "exchange": 9032,
      "tox": 9033,
      "gradu": 9034,
      "alternative": 9035,
      "Palestinian": 9036,
      "larger": 9037,
      "fine": 9038,
      "vill": 9039,
      "honest": 9040,
      "hattan": 9041,
      "acher": 9042,
      "Island": 9043,
      "Foreign": 9044,
      "partners": 9045,
      "Soviet": 9046,
      "District": 9047,
      "negative": 9048,
      "actual": 9049,
      "aked": 9050,
      "2001": 9051,
      "Women": 9052,
      "helping": 9053,
      "Manhattan": 9054,
      "measures": 9055,
      "signs": 9056,
      "seat": 9057,
      "commission": 9058,
      "pray": 9059,
      "ты": 9060,
      "breaking": 9061,
      "crash": 9062,
      "scand": 9063,
      "floor": 9064,
      "mic": 9065,
      "noon": 9066,
      "grant": 9067,
      "brother": 9068,
      "porary": 9069,
      "Andrew": 9070,
      "Food": 9071,
      "touch": 9072,
      "initi": 9073,
      "station": 9074,
      "BY": 9075,
      "contact": 9076,
      "uries": 9077,
      "Leaks": 9078,
      "mine": 9079,
      "insist": 9080,
      "nine": 9081,
      "prefer": 9082,
      "infr": 9083,
      "sustain": 9084,
      "onents": 9085,
      "los": 9086,
      "Through": 9087,
      "item": 9088,
      "Director": 9089,
      "blue": 9090,
      "gree": 9091,
      "activities": 9092,
      "Angeles": 9093,
      "ti": 9094,
      "icated": 9095,
      "ounder": 9096,
      "Er": 9097,
      "qui": 9098,
      "iven": 9099,
      "fired": 9100,
      "itude": 9101,
      "ALL": 9102,
      "Bur": 9103,
      "Chief": 9104,
      "sud": 9105,
      "audience": 9106,
      "Despite": 9107,
      "produce": 9108,
      "Commun": 9109,
      "straight": 9110,
      "studies": 9111,
      "Charles": 9112,
      "BO": 9113,
      "ту": 9114,
      "perform": 9115,
      "oph": 9116,
      "drink": 9117,
      "symp": 9118,
      "double": 9119,
      "attorney": 9120,
      "setting": 9121,
      "Mrs": 9122,
      "yl": 9123,
      "selling": 9124,
      "haven": 9125,
      "ica": 9126,
      "FL": 9127,
      "Ok": 9128,
      "Super": 9129,
      "equip": 9130,
      "Bus": 9131,
      "έ": 9132,
      "UP": 9133,
      "WITH": 9134,
      "стра": 9135,
      "protection": 9136,
      "increasingly": 9137,
      "Eli": 9138,
      "putting": 9139,
      "relations": 9140,
      "ampion": 9141,
      "bid": 9142,
      "edge": 9143,
      "UL": 9144,
      "restaur": 9145,
      "мы": 9146,
      "guys": 9147,
      "propag": 9148,
      "rated": 9149,
      "rog": 9150,
      "andon": 9151,
      "Home": 9152,
      "defic": 9153,
      "expressed": 9154,
      "Eric": 9155,
      "rent": 9156,
      "zone": 9157,
      "launch": 9158,
      "notes": 9159,
      "choose": 9160,
      "WikiLeaks": 9161,
      "iders": 9162,
      "idency": 9163,
      "provides": 9164,
      "Holly": 9165,
      "Vide": 9166,
      "brand": 9167,
      "ads": 9168,
      "esh": 9169,
      "lived": 9170,
      "Both": 9171,
      "Again": 9172,
      "scale": 9173,
      "HO": 9174,
      "Gar": 9175,
      "generation": 9176,
      "Still": 9177,
      "CA": 9178,
      "Naz": 9179,
      "bles": 9180,
      "gers": 9181,
      "fed": 9182,
      "RA": 9183,
      "guard": 9184,
      "appre": 9185,
      "сле": 9186,
      "ume": 9187,
      "rey": 9188,
      "izes": 9189,
      "amed": 9190,
      "anta": 9191,
      "Second": 9192,
      "Cur": 9193,
      "Op": 9194,
      "anced": 9195,
      "heavy": 9196,
      "desk": 9197,
      "ule": 9198,
      "diary": 9199,
      "TION": 9200,
      "color": 9201,
      "advance": 9202,
      "Je": 9203,
      "basic": 9204,
      "stone": 9205,
      "multiple": 9206,
      "institut": 9207,
      "ams": 9208,
      "presents": 9209,
      "conspir": 9210,
      "racist": 9211,
      "customers": 9212,
      "eline": 9213,
      "Where": 9214,
      "chester": 9215,
      "plane": 9216,
      "lawyer": 9217,
      "Fer": 9218,
      "developed": 9219,
      "TA": 9220,
      "tick": 9221,
      "circum": 9222,
      "abuse": 9223,
      "surround": 9224,
      "Gov": 9225,
      "dress": 9226,
      "2003": 9227,
      "ders": 9228,
      "identified": 9229,
      "steps": 9230,
      "ά": 9231,
      "fundament": 9232,
      "declared": 9233,
      "________": 9234,
      "Carolina": 9235,
      "Ver": 9236,
      "construction": 9237,
      "Dan": 9238,
      "ashion": 9239,
      "planned": 9240,
      "newspaper": 9241,
      "ght": 9242,
      "rol": 9243,
      "itarian": 9244,
      "uded": 9245,
      "99999999": 9246,
      "code": 9247,
      "territ": 9248,
      "department": 9249,
      "degree": 9250,
      "Mich": 9251,
      "Avenue": 9252,
      "positions": 9253,
      "Boston": 9254,
      "Look": 9255,
      "legit": 9256,
      "gins": 9257,
      "esters": 9258,
      "Kar": 9259,
      "proved": 9260,
      "weather": 9261,
      "====": 9262,
      "!”": 9263,
      "Ohio": 9264,
      "advice": 9265,
      "removed": 9266,
      "argument": 9267,
      "princ": 9268,
      "iar": 9269,
      "lt": 9270,
      "warned": 9271,
      "Sim": 9272,
      "filed": 9273,
      "ml": 9274,
      "caught": 9275,
      "protests": 9276,
      "sides": 9277,
      "raising": 9278,
      "Ir": 9279,
      "95": 9280,
      "discussion": 9281,
      "щи": 9282,
      "eller": 9283,
      "smart": 9284,
      "standards": 9285,
      "communities": 9286,
      "allies": 9287,
      "vation": 9288,
      "refused": 9289,
      "neighborhood": 9290,
      "sche": 9291,
      "crowd": 9292,
      "Mean": 9293,
      "reporters": 9294,
      "Policy": 9295,
      "400": 9296,
      "posing": 9297,
      "decisions": 9298,
      "Once": 9299,
      "istics": 9300,
      "Inc": 9301,
      "minute": 9302,
      "Leg": 9303,
      "HA": 9304,
      "waiting": 9305,
      "Arabia": 9306,
      "emen": 9307,
      "Viet": 9308,
      "hun": 9309,
      "mix": 9310,
      "rum": 9311,
      "transfer": 9312,
      "sudden": 9313,
      "losing": 9314,
      "presence": 9315,
      "пи": 9316,
      "balance": 9317,
      "feeling": 9318,
      "tend": 9319,
      "sleep": 9320,
      "conscious": 9321,
      "kid": 9322,
      "все": 9323,
      "pressed": 9324,
      "iger": 9325,
      "guns": 9326,
      "pointed": 9327,
      "photograph": 9328,
      "management": 9329,
      "WAS": 9330,
      "CL": 9331,
      "Lee": 9332,
      "planning": 9333,
      "causes": 9334,
      "usive": 9335,
      "Windows": 9336,
      "possibly": 9337,
      "Port": 9338,
      "Turk": 9339,
      "nice": 9340,
      "accounts": 9341,
      "ruling": 9342,
      "NEW": 9343,
      "portion": 9344,
      "sight": 9345,
      "intercept": 9346,
      "limit": 9347,
      "hat": 9348,
      "42": 9349,
      "housing": 9350,
      "supporting": 9351,
      "bow": 9352,
      "Pre": 9353,
      "sector": 9354,
      "unders": 9355,
      "Freedom": 9356,
      "syn": 9357,
      "predict": 9358,
      "facing": 9359,
      "Ap": 9360,
      "ute": 9361,
      "criticism": 9362,
      "astern": 9363,
      "reser": 9364,
      "rig": 9365,
      "doctors": 9366,
      "ape": 9367,
      "married": 9368,
      "AGE": 9369,
      "bly": 9370,
      "Kerry": 9371,
      "absolutely": 9372,
      "fresh": 9373,
      "expert": 9374,
      "Williams": 9375,
      "carried": 9376,
      "copyright": 9377,
      "Only": 9378,
      "holds": 9379,
      "discovered": 9380,
      "Week": 9381,
      "female": 9382,
      "automatically": 9383,
      "disaster": 9384,
      "core": 9385,
      "Bri": 9386,
      "Fur": 9387,
      "bra": 9388,
      "sis": 9389,
      "Kel": 9390,
      "arant": 9391,
      "established": 9392,
      "Jersey": 9393,
      "window": 9394,
      "racial": 9395,
      "partner": 9396,
      "football": 9397,
      "nell": 9398,
      "itors": 9399,
      "ции": 9400,
      "Dani": 9401,
      "Long": 9402,
      "gment": 9403,
      "stopped": 9404,
      "emergency": 9405,
      "rally": 9406,
      "runs": 9407,
      "watching": 9408,
      "section": 9409,
      "ronic": 9410,
      "evening": 9411,
      "estimated": 9412,
      "revolution": 9413,
      "Tube": 9414,
      "preced": 9415,
      "sac": 9416,
      "QU": 9417,
      "Show": 9418,
      "ero": 9419,
      "researchers": 9420,
      "fis": 9421,
      "03": 9422,
      "pm": 9423,
      "owned": 9424,
      "backed": 9425,
      "conservatives": 9426,
      "options": 9427,
      "revenue": 9428,
      "popul": 9429,
      "apt": 9430,
      "iel": 9431,
      "lymp": 9432,
      "destroy": 9433,
      "ered": 9434,
      "τη": 9435,
      "sym": 9436,
      "Asia": 9437,
      "icks": 9438,
      "accur": 9439,
      "sanctions": 9440,
      "kin": 9441,
      "saving": 9442,
      "electric": 9443,
      "mode": 9444,
      "providing": 9445,
      "Come": 9446,
      "agents": 9447,
      "ordinary": 9448,
      "activists": 9449,
      "plays": 9450,
      "Dec": 9451,
      "advantage": 9452,
      "Wood": 9453,
      "cro": 9454,
      "evin": 9455,
      "controlled": 9456,
      "diplom": 9457,
      "sco": 9458,
      "filled": 9459,
      "cars": 9460,
      "pages": 9461,
      "Penn": 9462,
      "mod": 9463,
      "mentioned": 9464,
      "projects": 9465,
      "indeed": 9466,
      "ART": 9467,
      "novel": 9468,
      "PO": 9469,
      "tact": 9470,
      "expensive": 9471,
      "Hom": 9472,
      "south": 9473,
      "bell": 9474,
      "Sput": 9475,
      "Sputnik": 9476,
      "powers": 9477,
      "Olymp": 9478,
      "currency": 9479,
      "igned": 9480,
      "Bet": 9481,
      "taxpay": 9482,
      "orial": 9483,
      "dropped": 9484,
      "43": 9485,
      "tur": 9486,
      "install": 9487,
      "changing": 9488,
      "statements": 9489,
      "plat": 9490,
      "Ter": 9491,
      "kins": 9492,
      "apers": 9493,
      "Prince": 9494,
      "fortunately": 9495,
      "Que": 9496,
      "collapse": 9497,
      "proceed": 9498,
      "promised": 9499,
      "laugh": 9500,
      "lobby": 9501,
      "ding": 9502,
      "Ill": 9503,
      "Georg": 9504,
      "2018": 9505,
      "guess": 9506,
      "FA": 9507,
      "catch": 9508,
      "figures": 9509,
      "constant": 9510,
      "subsid": 9511,
      "portation": 9512,
      "aine": 9513,
      "infect": 9514,
      "зи": 9515,
      "skill": 9516,
      "function": 9517,
      "gotten": 9518,
      "IE": 9519,
      "acks": 9520,
      "Hu": 9521,
      "ffic": 9522,
      "ного": 9523,
      "ths": 9524,
      "unk": 9525,
      "foods": 9526,
      "aker": 9527,
      "ба": 9528,
      "possibility": 9529,
      "shared": 9530,
      "бу": 9531,
      "Force": 9532,
      "decide": 9533,
      "iny": 9534,
      "пра": 9535,
      "ara": 9536,
      "cold": 9537,
      "Radio": 9538,
      "videos": 9539,
      "ных": 9540,
      "command": 9541,
      "emic": 9542,
      "accident": 9543,
      "distribut": 9544,
      "Call": 9545,
      "rob": 9546,
      "generally": 9547,
      "laptop": 9548,
      "serving": 9549,
      "Represent": 9550,
      "fle": 9551,
      "league": 9552,
      "users": 9553,
      "ray": 9554,
      "Educ": 9555,
      "extremely": 9556,
      "older": 9557,
      "Cruz": 9558,
      "western": 9559,
      "approved": 9560,
      "admitted": 9561,
      "YouTube": 9562,
      "Hollywood": 9563,
      "cha": 9564,
      "Bloom": 9565,
      "Pac": 9566,
      "rant": 9567,
      "impossible": 9568,
      "bottom": 9569,
      "2002": 9570,
      "purposes": 9571,
      "Its": 9572,
      "Lad": 9573,
      "returned": 9574,
      "focused": 9575,
      "estate": 9576,
      "inent": 9577,
      "Hen": 9578,
      "embr": 9579,
      "seas": 9580,
      "tort": 9581,
      "Guard": 9582,
      "surprise": 9583,
      "ска": 9584,
      "establishment": 9585,
      "arrived": 9586,
      "Color": 9587,
      "enses": 9588,
      "лю": 9589,
      "north": 9590,
      "goals": 9591,
      "isan": 9592,
      "blow": 9593,
      "phil": 9594,
      "Lef": 9595,
      "Governor": 9596,
      "uled": 9597,
      "ipp": 9598,
      "pover": 9599,
      "fashion": 9600,
      "skin": 9601,
      "tweet": 9602,
      "explos": 9603,
      "beautiful": 9604,
      "institutions": 9605,
      "wage": 9606,
      "opposed": 9607,
      "column": 9608,
      "custo": 9609,
      "broke": 9610,
      "secretary": 9611,
      "?\"": 9612,
      "guarant": 9613,
      "Dou": 9614,
      "Kim": 9615,
      "fasc": 9616,
      "trig": 9617,
      "bound": 9618,
      "Roy": 9619,
      "threats": 9620,
      "Bund": 9621,
      "ctic": 9622,
      "master": 9623,
      "allows": 9624,
      "sugg": 9625,
      "fox": 9626,
      "suggests": 9627,
      "Reagan": 9628,
      "gry": 9629,
      "inflation": 9630,
      "212": 9631,
      "trillion": 9632,
      "allowing": 9633,
      "strikes": 9634,
      "update": 9635,
      "direction": 9636,
      "77": 9637,
      "founder": 9638,
      "streets": 9639,
      "shock": 9640,
      "browser": 9641,
      "pra": 9642,
      "refugees": 9643,
      "bac": 9644,
      "dish": 9645,
      "assess": 9646,
      "SEC": 9647,
      "41": 9648,
      "inct": 9649,
      "ря": 9650,
      "vement": 9651,
      "driving": 9652,
      "CR": 9653,
      "Den": 9654,
      "nest": 9655,
      "instruct": 9656,
      "fake": 9657,
      "bought": 9658,
      "под": 9659,
      "shar": 9660,
      "56": 9661,
      "nomine": 9662,
      "так": 9663,
      "concept": 9664,
      "deaths": 9665,
      "tructure": 9666,
      "Tra": 9667,
      "blame": 9668,
      "Ariz": 9669,
      "faced": 9670,
      "Blog": 9671,
      "ni": 9672,
      "roots": 9673,
      "creation": 9674,
      "fourth": 9675,
      "Du": 9676,
      "Civil": 9677,
      "Brooklyn": 9678,
      "Fund": 9679,
      "corruption": 9680,
      "denied": 9681,
      "background": 9682,
      "Mil": 9683,
      "protesters": 9684,
      "shoot": 9685,
      "ato": 9686,
      "itely": 9687,
      "Congressional": 9688,
      "Meanwhile": 9689,
      "tle": 9690,
      "Assad": 9691,
      "reportedly": 9692,
      "nings": 9693,
      "numerous": 9694,
      "Ty": 9695,
      "combat": 9696,
      "vac": 9697,
      "Gul": 9698,
      "progressive": 9699,
      "Braz": 9700,
      "usal": 9701,
      "lean": 9702,
      "slight": 9703,
      "possess": 9704,
      "illance": 9705,
      "itation": 9706,
      "Corpor": 9707,
      "teams": 9708,
      "coin": 9709,
      "plicit": 9710,
      "Bernie": 9711,
      "conducted": 9712,
      "intent": 9713,
      "1990": 9714,
      "managed": 9715,
      "presented": 9716,
      "honor": 9717,
      "polls": 9718,
      "broken": 9719,
      "offering": 9720,
      "stag": 9721,
      "Article": 9722,
      "aps": 9723,
      "jihad": 9724,
      "consequences": 9725,
      "Greg": 9726,
      "du": 9727,
      "Hall": 9728,
      "cient": 9729,
      "routes": 9730,
      "ody": 9731,
      "linked": 9732,
      "igation": 9733,
      "rible": 9734,
      "Business": 9735,
      "propaganda": 9736,
      "finding": 9737,
      "emails": 9738,
      "Company": 9739,
      "proposal": 9740,
      "Fam": 9741,
      "Paren": 9742,
      "conce": 9743,
      "Museum": 9744,
      "кра": 9745,
      "familiar": 9746,
      "Reserve": 9747,
      "bia": 9748,
      "images": 9749,
      "voter": 9750,
      "tect": 9751,
      "Left": 9752,
      "Michigan": 9753,
      "Ten": 9754,
      "inci": 9755,
      "turns": 9756,
      "Editor": 9757,
      "fant": 9758,
      "folks": 9759,
      "05": 9760,
      "Jr": 9761,
      "Video": 9762,
      "inger": 9763,
      ",’": 9764,
      "realize": 9765,
      "ini": 9766,
      "Gra": 9767,
      "1980": 9768,
      "Does": 9769,
      "euro": 9770,
      "Cit": 9771,
      "specifically": 9772,
      "Blockchain": 9773,
      "07": 9774,
      "Perhaps": 9775,
      "66": 9776,
      "Sus": 9777,
      "burg": 9778,
      "Pent": 9779,
      "Haw": 9780,
      "solid": 9781,
      "ships": 9782,
      "Click": 9783,
      "ucks": 9784,
      "complet": 9785,
      "astructure": 9786,
      "ARE": 9787,
      "missile": 9788,
      "Board": 9789,
      "anch": 9790,
      "pictures": 9791,
      "associated": 9792,
      "Pet": 9793,
      "OK": 9794,
      "Greece": 9795,
      "fish": 9796,
      "entirely": 9797,
      "appreci": 9798,
      "magazine": 9799,
      "turning": 9800,
      "Japanese": 9801,
      "ias": 9802,
      "ena": 9803,
      "assum": 9804,
      "opportun": 9805,
      "Judge": 9806,
      "hair": 9807,
      "ye": 9808,
      "Korean": 9809,
      "overall": 9810,
      "matters": 9811,
      "Turkish": 9812,
      "prime": 9813,
      "remind": 9814,
      "Plan": 9815,
      "ucky": 9816,
      "olutions": 9817,
      "ski": 9818,
      "Chair": 9819,
      "USE": 9820,
      "separate": 9821,
      "scandal": 9822,
      "requires": 9823,
      "approval": 9824,
      "retire": 9825,
      "Mel": 9826,
      "Maybe": 9827,
      "59": 9828,
      "POR": 9829,
      "aters": 9830,
      "heads": 9831,
      "resol": 9832,
      "ga": 9833,
      "ears": 9834,
      "thanks": 9835,
      "stances": 9836,
      "Science": 9837,
      "ourselves": 9838,
      "accus": 9839,
      "olar": 9840,
      "equal": 9841,
      "sitting": 9842,
      "ause": 9843,
      "soft": 9844,
      "spring": 9845,
      "prepar": 9846,
      "fly": 9847,
      "OFF": 9848,
      "domin": 9849,
      "finance": 9850,
      "deleg": 9851,
      "acad": 9852,
      "arden": 9853,
      "therefore": 9854,
      "Joseph": 9855,
      "По": 9856,
      "permission": 9857,
      "Italy": 9858,
      "Sher": 9859,
      "html": 9860,
      "conversation": 9861,
      "existing": 9862,
      "aught": 9863,
      "ordered": 9864,
      "ode": 9865,
      "Jackson": 9866,
      "greatest": 9867,
      "CEO": 9868,
      "cool": 9869,
      "replace": 9870,
      "Libya": 9871,
      "sick": 9872,
      "aceful": 9873,
      "Top": 9874,
      "asser": 9875,
      "temper": 9876,
      "sale": 9877,
      "Though": 9878,
      "emphas": 9879,
      "sover": 9880,
      "IES": 9881,
      "discrimin": 9882,
      "ko": 9883,
      "encourage": 9884,
      "ivity": 9885,
      "corporations": 9886,
      "kick": 9887,
      "plants": 9888,
      "confirm": 9889,
      "tray": 9890,
      "Sept": 9891,
      "mil": 9892,
      "tens": 9893,
      "doctor": 9894,
      "award": 9895,
      "Gaz": 9896,
      "TE": 9897,
      "obl": 9898,
      "vant": 9899,
      "wars": 9900,
      "faces": 9901,
      "encry": 9902,
      "ilty": 9903,
      "appropriate": 9904,
      "apart": 9905,
      "BR": 9906,
      "dad": 9907,
      "notice": 9908,
      "IVE": 9909,
      "stance": 9910,
      "ulate": 9911,
      "industrial": 9912,
      "thew": 9913,
      "ак": 9914,
      "THIS": 9915,
      "assets": 9916,
      "panic": 9917,
      "rooms": 9918,
      "Work": 9919,
      "fighters": 9920,
      "Vietnam": 9921,
      "listen": 9922,
      "determined": 9923,
      "Power": 9924,
      "irt": 9925,
      "comed": 9926,
      "missing": 9927,
      "exercise": 9928,
      "57": 9929,
      "tradition": 9930,
      "Pan": 9931,
      "worry": 9932,
      "claiming": 9933,
      "58": 9934,
      "va": 9935,
      "innoc": 9936,
      "UC": 9937,
      "male": 9938,
      "seriously": 9939,
      "Dear": 9940,
      "OUR": 9941,
      "presidency": 9942,
      "Attorney": 9943,
      "Kenned": 9944,
      "trend": 9945,
      "dram": 9946,
      "sports": 9947,
      "trading": 9948,
      "spl": 9949,
      "consumers": 9950,
      "lip": 9951,
      "bills": 9952,
      "config": 9953,
      "severe": 9954,
      "asp": 9955,
      "Best": 9956,
      "Four": 9957,
      "NSA": 9958,
      "Special": 9959,
      "shel": 9960,
      "iously": 9961,
      "NAS": 9962,
      "enjoy": 9963,
      "dex": 9964,
      "mut": 9965,
      "destruction": 9966,
      "silver": 9967,
      "coalition": 9968,
      "hurt": 9969,
      "journalists": 9970,
      "susp": 9971,
      "buying": 9972,
      "passing": 9973,
      "oing": 9974,
      "Has": 9975,
      "imagine": 9976,
      "graphy": 9977,
      "haz": 9978,
      "perman": 9979,
      "citing": 9980,
      "leag": 9981,
      "Wis": 9982,
      "ultimately": 9983,
      "devast": 9984,
      "suffering": 9985,
      "Services": 9986,
      "gall": 9987,
      "bringing": 9988,
      "traces": 9989,
      "favorite": 9990,
      "entertain": 9991,
      "shares": 9992,
      "whel": 9993,
      "Should": 9994,
      "bran": 9995,
      "Truth": 9996,
      "MP": 9997,
      "accompl": 9998,
      "ные": 9999,
      "bels": 10000,
      "Priv": 10001,
      "regulations": 10002,
      "Ref": 10003,
      "Treas": 10004,
      "Stephen": 10005,
      "PL": 10006,
      "buildings": 10007,
      "bath": 10008,
      "Rock": 10009,
      "Kennedy": 10010,
      "agement": 10011,
      "endor": 10012,
      "anc": 10013,
      "unte": 10014,
      "Brazil": 10015,
      "helps": 10016,
      "champion": 10017,
      "lights": 10018,
      "embar": 10019,
      "agent": 10020,
      "Arizona": 10021,
      "Cuba": 10022,
      "remove": 10023,
      "twice": 10024,
      "deploy": 10025,
      "Daniel": 10026,
      "categ": 10027,
      "etary": 10028,
      "rative": 10029,
      "жа": 10030,
      "aspect": 10031,
      "sphere": 10032,
      "rub": 10033,
      "argued": 10034,
      "considering": 10035,
      "incred": 10036,
      "acknowled": 10037,
      "instance": 10038,
      "ITY": 10039,
      "Grand": 10040,
      "publicly": 10041,
      "reaction": 10042,
      "recommend": 10043,
      "intel": 10044,
      "trouble": 10045,
      "suicide": 10046,
      "infrastructure": 10047,
      "glass": 10048,
      "bin": 10049,
      "ours": 10050,
      "leads": 10051,
      "Election": 10052,
      "uster": 10053,
      "pattern": 10054,
      "legally": 10055,
      "08": 10056,
      "Bit": 10057,
      "Project": 10058,
      "symbol": 10059,
      "стве": 10060,
      "Theater": 10061,
      "hang": 10062,
      ".'": 10063,
      "decline": 10064,
      "mayor": 10065,
      "collection": 10066,
      "prohib": 10067,
      "sole": 10068,
      "photos": 10069,
      "storm": 10070,
      "Author": 10071,
      "Pentagon": 10072,
      "iew": 10073,
      "insp": 10074,
      "eper": 10075,
      "cher": 10076,
      "GE": 10077,
      "Lar": 10078,
      "recru": 10079,
      "Brad": 10080,
      "weapon": 10081,
      "injured": 10082,
      "eign": 10083,
      "ор": 10084,
      "rif": 10085,
      "….": 10086,
      "Whe": 10087,
      "gri": 10088,
      "defeat": 10089,
      "ipal": 10090,
      "offensive": 10091,
      "effic": 10092,
      "Profess": 10093,
      "нт": 10094,
      "06": 10095,
      "restrict": 10096,
      "Land": 10097,
      "kel": 10098,
      "prospect": 10099,
      "originally": 10100,
      "proof": 10101,
      "ansas": 10102,
      "zon": 10103,
      "edia": 10104,
      "Harry": 10105,
      "rush": 10106,
      "guilty": 10107,
      "Ram": 10108,
      "Pres": 10109,
      "lit": 10110,
      "Did": 10111,
      "би": 10112,
      "compar": 10113,
      "bear": 10114,
      "demands": 10115,
      "deeply": 10116,
      "Rod": 10117,
      "Finan": 10118,
      "BBC": 10119,
      "democratic": 10120,
      "Spr": 10121,
      "arg": 10122,
      "rapid": 10123,
      "houses": 10124,
      "conspiracy": 10125,
      "Tax": 10126,
      "machine": 10127,
      "overwhel": 10128,
      "excited": 10129,
      "Eastern": 10130,
      "Chel": 10131,
      "identity": 10132,
      "seed": 10133,
      "quiet": 10134,
      "perspect": 10135,
      "Рос": 10136,
      "Matthew": 10137,
      "epis": 10138,
      "ox": 10139,
      "он": 10140,
      "funded": 10141,
      "condem": 10142,
      "reporter": 10143,
      "ifth": 10144,
      "competition": 10145,
      "connection": 10146,
      "Alab": 10147,
      "MAN": 10148,
      "Australia": 10149,
      "gro": 10150,
      "rose": 10151,
      "HS": 10152,
      "penal": 10153,
      "elder": 10154,
      "desper": 10155,
      "negotiations": 10156,
      "declined": 10157,
      "desktop": 10158,
      "aving": 10159,
      "exhib": 10160,
      "empts": 10161,
      "clin": 10162,
      "bodies": 10163,
      "aves": 10164,
      "links": 10165,
      "actor": 10166,
      "amb": 10167,
      "unique": 10168,
      "thood": 10169,
      "urban": 10170,
      "EMBASS": 10171,
      "aircraft": 10172,
      "forget": 10173,
      "equipment": 10174,
      "ocal": 10175,
      "extr": 10176,
      "Gun": 10177,
      "River": 10178,
      "closer": 10179,
      "uit": 10180,
      "Progress": 10181,
      "introduced": 10182,
      "cession": 10183,
      "illing": 10184,
      "surprising": 10185,
      "Mont": 10186,
      "Yemen": 10187,
      "opportunities": 10188,
      "wound": 10189,
      "Bloomberg": 10190,
      "ongoing": 10191,
      "iat": 10192,
      "welcome": 10193,
      "princi": 10194,
      "consumer": 10195,
      "Tea": 10196,
      "Firefox": 10197,
      "iden": 10198,
      "protected": 10199,
      "EMBASSY": 10200,
      "poverty": 10201,
      "lawyers": 10202,
      "mann": 10203,
      "succeed": 10204,
      "encrypted": 10205,
      "52": 10206,
      "rhe": 10207,
      "Lord": 10208,
      "flight": 10209,
      "tally": 10210,
      "sought": 10211,
      "repeatedly": 10212,
      "ется": 10213,
      "Education": 10214,
      "вер": 10215,
      "wed": 10216,
      "grew": 10217,
      "itable": 10218,
      "humans": 10219,
      "quir": 10220,
      "fficient": 10221,
      "items": 10222,
      "elite": 10223,
      "Ted": 10224,
      "rape": 10225,
      "istry": 10226,
      "Oct": 10227,
      "hasn": 10228,
      "crack": 10229,
      "Rober": 10230,
      "igrant": 10231,
      "Sa": 10232,
      "prec": 10233,
      "civilians": 10234,
      "wa": 10235,
      "ios": 10236,
      "ka": 10237,
      "Росси": 10238,
      "wash": 10239,
      "delay": 10240,
      "pal": 10241,
      "minimum": 10242,
      "Indeed": 10243,
      "herself": 10244,
      "omin": 10245,
      "IO": 10246,
      "survey": 10247,
      "ство": 10248,
      "solar": 10249,
      "teacher": 10250,
      "********": 10251,
      "entit": 10252,
      "listed": 10253,
      "teachers": 10254,
      "Financial": 10255,
      "unit": 10256,
      "IB": 10257,
      "banking": 10258,
      "satis": 10259,
      "oul": 10260,
      "Bor": 10261,
      "aming": 10262,
      "Oper": 10263,
      "loan": 10264,
      "OULD": 10265,
      "vey": 10266,
      "animals": 10267,
      "asion": 10268,
      "quarters": 10269,
      "Down": 10270,
      "Mayor": 10271,
      "Linux": 10272,
      "scheduled": 10273,
      "owed": 10274,
      "disput": 10275,
      "valu": 10276,
      "regional": 10277,
      "remark": 10278,
      "leagues": 10279,
      "hopes": 10280,
      "resist": 10281,
      "51": 10282,
      "defined": 10283,
      "ICE": 10284,
      "Men": 10285,
      "Canad": 10286,
      "warm": 10287,
      "elling": 10288,
      "abilities": 10289,
      "shad": 10290,
      "Cra": 10291,
      "Wel": 10292,
      "belong": 10293,
      "AK": 10294,
      "surveillance": 10295,
      "onent": 10296,
      "Georgia": 10297,
      "ution": 10298,
      "Jay": 10299,
      "Os": 10300,
      "cab": 10301,
      "mortg": 10302,
      "discussed": 10303,
      "fundamental": 10304,
      "pregn": 10305,
      "Chelsea": 10306,
      "eland": 10307,
      "receiving": 10308,
      "vul": 10309,
      "idel": 10310,
      "proud": 10311,
      "Russians": 10312,
      "humanity": 10313,
      "Lew": 10314,
      "76": 10315,
      "retail": 10316,
      "гра": 10317,
      "warming": 10318,
      "destroyed": 10319,
      "Span": 10320,
      "Miller": 10321,
      "capable": 10322,
      "unning": 10323,
      "antly": 10324,
      "configured": 10325,
      "Medicare": 10326,
      "xit": 10327,
      "Take": 10328,
      "Vlad": 10329,
      "responded": 10330,
      "Young": 10331,
      "abandon": 10332,
      "bigger": 10333,
      "cells": 10334,
      "wear": 10335,
      "neither": 10336,
      "grown": 10337,
      "click": 10338,
      "substant": 10339,
      "Pacific": 10340,
      "Share": 10341,
      "structure": 10342,
      "existence": 10343,
      "пу": 10344,
      "len": 10345,
      "rec": 10346,
      "stars": 10347,
      "tight": 10348,
      "vard": 10349,
      "clar": 10350,
      "batt": 10351,
      "сво": 10352,
      "grade": 10353,
      "BL": 10354,
      "exposed": 10355,
      "stands": 10356,
      "historical": 10357,
      "aint": 10358,
      "54": 10359,
      "confront": 10360,
      "нии": 10361,
      "healthcare": 10362,
      "hase": 10363,
      "flood": 10364,
      "vehicle": 10365,
      "upid": 10366,
      "treated": 10367,
      "definitely": 10368,
      "wake": 10369,
      "53": 10370,
      "enty": 10371,
      "ita": 10372,
      "shift": 10373,
      "Da": 10374,
      "SC": 10375,
      "confidence": 10376,
      "Clar": 10377,
      "plot": 10378,
      "pts": 10379,
      "headed": 10380,
      "thinks": 10381,
      "1970": 10382,
      "Jon": 10383,
      "thoughts": 10384,
      "witch": 10385,
      "jail": 10386,
      "volunte": 10387,
      "youn": 10388,
      "widely": 10389,
      "manip": 10390,
      "smaller": 10391,
      "Express": 10392,
      "rom": 10393,
      "university": 10394,
      "afternoon": 10395,
      "Bud": 10396,
      "Peace": 10397,
      "LC": 10398,
      "advertising": 10399,
      "Ale": 10400,
      "appeal": 10401,
      "Major": 10402,
      "beth": 10403,
      "Natural": 10404,
      "4GB": 10405,
      "broadcast": 10406,
      "Colorado": 10407,
      "ogue": 10408,
      "Old": 10409,
      "pair": 10410,
      "attempts": 10411,
      "Ama": 10412,
      "xim": 10413,
      "Manchester": 10414,
      "Mod": 10415,
      "otes": 10416,
      "gov": 10417,
[...]
